#version: 0.2
Ġ t
h e
Ġ a
i n
Ġ w
Ġ s
o u
h a
r e
o m
Ġt o
Ġ d
i s
o n
Ġt he
T om
Ġ b
e r
Ġ m
e d
ha t
Ġ c
in g
a r
a n
Ġ f
e n
Ġ l
Ġ y
i t
l l
Ġt hat
o r
' t
Ġ p
Ġy ou
a s
e s
Ġ g
Ġ he
Ġ n
Ġ o
Ġa n
Ġ h
i d
Ġ ha
Ġ is
Ġd o
v e
Ġ in
Ġb e
a t
Ġt h
o w
l d
a y
Ġo f
ar y
o t
Ġ Tom
M ary
Ġw as
u s
l e
' s
Ġan d
e t
Ġ e
Ġ I
i m
v er
Ġ k
T he
i c
Ġ Mary
g h
a m
Ġ on
a l
Ġ re
Ġs t
ou ld
Ġm e
Ġw e
r i
Ġg o
Ġf or
k e
Ġl i
gh t
Ġk n
l y
s t
Ġn e
an t
Ġd id
a d
a c
en t
Ġ it
H e
s e
Ġha ve
ou t
o o
it h
Ġs a
Ġkn ow
u n
i ll
Ġw ith
r o
i on
i r
c h
u t
Ġd on
Ġh is
in k
Ġw ant
a ll
Ġa re
Ġn ot
Ġa s
he r
om e
Ġsa id
ver y
am i
u r
Ġhe r
Ġth ink
Ġa t
Y ou
Ġc an
Ġdid n
Ġs e
t er
Ġs h
Ġth is
p p
S ami
us t
Ġs he
Ġa b
Ġm y
W e
Ġha s
Ġli ke
Ġw h
o re
Ġh im
i f
c e
c t
' m
S he
h ing
on e
o p
o d
a in
Ġthe y
Ġw hat
oo k
Ġ j
I t
Ġ us
Ġyou r
Ġs u
Ġ r
Ġw or
Ġan y
Ġt e
Ġt r
Ġ A
re n
o st
en d
i l
all y
Ġa l
Ġha d
u p
Ġs o
Ġw ould
Ġp l
Ġw ill
Ġl e
a k
ha n
g e
Ġne ed
r om
Ġgo ing
Ġs p
Ġab out
Ġdo es
ou ght
re d
n d
Ġt im
a ke
a b
Ġa ll
Ġg et
Ġto ld
Ġd e
i ght
u l
Ġw he
Ġe x
Ġ un
' re
ar t
i a
Ġ out
Ġ B
es t
The y
' ll
in d
Ġb y
' ve
Ġwe re
Ġ very
Ġ up
Ġse e
Ġtim e
Ġsh ould
ou r
on g
an n
er s
Ġon e
Ġf rom
Ġc on
ay s
k ed
o s
Ġis n
as t
an d
l f
q u
is t
Ġc ould
Ġhe re
at e
W hat
T h
o l
es s
i ve
at ion
f e
Ġf e
Ġp ro
ac k
Ġbe en
r y
Ġc om
am e
d ay
l p
W h
D o
i e
Ġhe lp
' d
Ġdoes n
Ġth ought
a ve
Ġb ut
g er
Ġwh o
l a
Ġ v
ic e
d er
re s
Th is
Ġw on
i g
Ġl ook
Ġthe re
Ġin t
ou s
e p
Ġre ally
u m
Ġm an
ann i
Y anni
Ġa g
Ġgo od
Ġto o
Ġn o
Ġe very
id e
Ġha pp
se lf
Ġs ome
Ġ if
Ġne ver
Ġthe m
Ġl o
Ġj ust
t hing
ou nd
re e
Ġdo ing
or t
e l
v en
Ġ S
Ġt han
al k
w n
Ġ L
Ġ F
Ġte ll
Ġwor k
i ri
Ġg ot
Ġa r
a p
Z iri
H ow
ar d
Ġ or
is h
u d
T hat
b le
ay la
Ġm ore
e ar
Ġwhe n
Ġ J
t h
Ġc l
Ġc h
v es
Ġa f
Ġ qu
b er
c k
ost on
Ġp e
ĠB oston
e ct
r ow
Ġ M
Ġ en
Ġn ow
u ch
it t
Ġ "
Ġb ack
v ed
t her
e w
Ġh ow
om et
Ġm uch
it e
Ġh ome
Ġsp e
Ġthe ir
Ġs ay
r a
The re
op le
as s
Ġ ro
ot her
Ġst ill
Ġc o
Ġof f
Ġwant ed
W he
Ġwas n
Ġb u
Wh y
v ing
as e
in e
Ġex p
he d
a re
Ġc ar
l ger
ri end
a g
a ge
it y
ou gh
ri ed
Ġ ri
Ġpe ople
Ġ C
Ġt alk
Ġon ly
Ġs omet
M y
ac e
i ld
Ġy ear
ic k
oo l
Ġbe t
Ġl ong
Ġhapp en
Ġe at
r al
ĠL ayla
ren ch
Ġc ome
Ġw r
Ġth ing
Ġag ain
od y
Ġkn ew
u re
Ġbe c
ĠF rench
oo d
o y
t y
Ġl ot
Ġa d
ĠA ust
i es
Ġ im
ad e
o b
i an
Ġcom p
Ġ our
ad y
Ġp re
ĠAust ral
Ġa m
Ġo ver
ĠAustral ia
lger ia
Ġt ake
at her
ou n
Ġsomet hing
Ġ E
Ġb r
i z
Ġl ast
m ent
Ġspe ak
Ġne w
Ġl et
ou se
Ġsee m
Ġint o
res s
Ġri ght
Ġm ake
Ġd ay
c c
Ġf riend
Ġp r
Ġto day
ab le
Ġdon e
Ġw ay
t s
n ing
one y
. "
f t
Ġw ent
ac h
at ed
D on
e m
Ġany thing
w ays
Ġst ud
Ġw at
Ġo ther
n g
Ġd is
Ġst ay
Ġas ked
Ġc all
Ġs m
Ġd r
Ġal ways
Ġh ouse
Ġpl ay
Ġs c
Ġm oney
Ġun der
Ġb l
Ġth ree
Ġh op
ac t
x t
Ġb us
f ore
Ġsu re
o se
Ġc han
Ġwh y
Ġm ade
Ġg r
o h
Ġman y
us e
u e
Ġs ch
l ie
Ġt w
a it
I s
Ġab le
Ġp art
y ing
Ġb ook
Ġa w
Ġsch ool
Ġwe ll
I f
or row
Ġbet ter
an s
g et
e k
ir st
Ġm o
Ġm ight
Ġaf ter
Ġha r
le ase
Ġbe fore
oun t
Ġf l
re at
Ġknow s
en ce
ur n
p t
oh n
Ġdo wn
Ġst art
Ġch ild
ic h
Ġs w
Ġfe el
Ġ R
Ġ T
i p
Ġo ld
Ġwhe re
is s
Ġlo ve
Ġw ait
D id
an g
b ody
Ġg u
Ġf ind
Ġwe ek
Ġli fe
Ġs ays
i ous
a u
ĠJ ohn
Ġim p
Ġwant s
en n
Ġle ft
Ġwould n
t ing
L et
Ġf irst
i ed
Ġbu y
A re
e ll
i le
Ġro om
i re
Ġha nd
Ġe ver
Whe n
ar k
Ġa pp
Ġ G
Ġus ed
ion s
Ġne xt
Ġp a
Ġt om
Ġhim self
itt le
Ġbe lie
ot h
Ġde c
Ġyear s
Ġm ust
Ġd if
t en
Ġp ut
Ġre m
Ġc are
Ġdo g
Ġe ven
Ġl ittle
Ġk e
ul t
Ġre ad
is e
ic t
ar n
i red
f ul
ab ly
Ġf a
Ġle ave
Ġtom orrow
m er
re st
a use
o g
le ep
is ed
Ġo p
Ġre s
Ġcould n
Ġp ers
â Ģ
Ġn ight
Ġevery thing
re ady
Ġal ready
C an
Ġj ob
Ġneed s
Ġg l
Ġsu pp
Ġpro b
Ġs ur
Ġthing s
ĠA lgeria
Ġsa w
Ġtw o
Ġ P
Ġp o
Ġhar d
Ġf in
Ġas k
Ġ 2
Ġtoo k
Ġprob ably
Ġc ame
Ġli ve
Ġcon t
he s
Ġg ir
Ġunder st
ble m
Ġhop e
an ce
Ġg ive
Ġpro blem
Ġm ar
Ġwon der
os ed
Ġa cc
Ġp er
os s
enn ad
Whe re
Ġaw ay
u ally
Ġw in
Wh o
ur a
I n
i gh
c i
Ġat t
t e
Ġp h
Ġpl an
Ġpers on
? "
f f
ig n
Ġst r
p er
Ġf ound
Ġfriend s
M ennad
Ġd ri
k ura
Ġm ay
at h
Ġme et
es ter
Ġhapp y
Ġy et
Ġs ha
Ġbe ing
Ġ O
ak es
Ġa ct
Ġbelie ve
Ġunderst and
Ġo wn
Ġte ac
Ġe ar
Ġpre t
Ġc he
Ġchild ren
Ġp ol
Ġbec ause
or y
Ġf ather
Ġare n
Ġso on
Ġg ave
Ġsh ow
t ed
Ġdr ink
u ll
ak ing
E very
Ġle arn
Ġ 1
ang u
Ġs ame
Ġ N
Ġc ha
Ġc ount
is hed
Ġen ough
c on
Ġd es
Ġhappen ed
Ġof ten
Ġwith out
u ck
g g
Ġs leep
Ġ ide
Ġt ried
Ġl angu
l es
or m
e rest
Ġ K
id ent
Ġl ate
ester day
au ght
Ġb ad
Ġf o
i ble
P lease
a il
Ġhe ard
m ore
Ġ hat
Ġre c
i v
in ce
im a
Ġint erest
Ġc r
Ġwor ld
Ġar ound
u b
Ġany more
Ġc at
Ġc le
Ġre al
er t
c ed
ar s
Ġstart ed
e red
get her
Ġlook ed
pp ed
Ġb est
it ed
Ġdo or
Ġk ind
Ġv is
Ġm or
Ġf un
Ġke ep
Ġto gether
Ġop en
Ġpl ann
Ġre p
Ġb oth
Ġm et
if e
N o
a red
Ġqu est
l i
l t
ab y
Ġe l
Ġm on
ĠS kura
Ġneed ed
Ġwr ong
an y
Ġb re
Ġtr y
k es
p r
Ġg reat
Ġs ing
or d
Ġy esterday
Ġb ought
ic al
se l
Ġnot hing
Ġm at
H ave
o c
Ġm other
Ġteac her
Ġm ost
l ish
Ġt urn
Ġb ig
s ide
Ġwat er
Ġn ame
a ut
Ġmor ning
en s
Ġpart y
Ġin v
l ed
Ġlook ing
i x
fe ren
Ġh ur
ra id
ĠB er
Ġwor d
Ġher self
Ġst op
Ġse en
Ġgir l
sel ves
Ġw om
ĠC h
Ġany one
Ġexp ect
Ġf ami
H is
Ġb oy
Ġs er
A lgeria
Ġe as
g ry
Ġwh ich
Ġw alk
Ġun t
Ġs ent
Ġaf raid
Ġf r
Ġus e
Ġide a
Ġh un
Ġl ost
or n
Ġp rom
or s
Ġh our
f fe
L ayla
Ġth r
Ġpret ty
ĠE ng
Ġha ven
Ġ end
Ġlook s
on s
ĠR ima
ren ts
Ġal one
ar ing
Ġe m
Ġs k
Ġthe se
Ġp ass
Ġit s
Ġel se
re am
b e
ĠBer ber
j oy
Ġsupp osed
Ġm ind
ent s
Ġfe lt
at ing
Ġthr ough
Ġcall ed
Ġk ill
Ġfe w
Ġw ind
id ed
Ġwat ch
Ġbus y
Ġm in
s w
Ġwh ile
Ġe ach
Ġpl ace
Ġen joy
es e
Ġplann ing
ation s
Ġs n
Ġunt il
Ġsw im
Ġshould n
Ġ D
Ġlike ly
Ġl ist
p ect
Ġbe aut
Ġcl ass
Ġl a
Ġsh o
Ġw ish
Ġb o
Ġre st
Ġsur pr
Ġe y
Ġtr ying
0 0
p e
Ġtalk ing
Ġrem em
ut h
Ġa c
Ġmon th
Ġan other
c es
Ġre l
ĠEng lish
Ġbe g
Ġpa rents
Ġli kes
ĠM on
Ġget ting
Ġdif feren
Ġ H
Ġf ood
Ġan sw
Ġb ed
Ġlangu age
m ost
al ked
Ġfami ly
Ġmar ried
Ġcom m
f ic
Ġwhe ther
y s
Ġd ays
Ġseem s
Ġf ar
us ed
er m
Ġhe ad
e ver
o k
Ġs l
at er
Ġr ain
an k
Ġre ady
Ġear ly
Ġo b
Ġb ro
Ġp ay
Ġth ose
Ġr un
n er
al s
Ġh igh
O n
u ct
Ġfor g
Ġcom ing
Ġsome one
iz e
Ġcount ry
Ġcon s
Ġha ving
iz ed
Ġhe ar
Ġp ain
Do es
if ul
ut e
ĠI t
Ġk id
Ġsu ch
l ain
o ke
Ġwork ing
Ġm iss
Ġal most
w e
Ġh ot
Ġco ld
Ġp res
Ġt ired
as on
ĠMon day
Ġ U
Ġre t
Ġremem ber
Ġyou ng
Ġbeaut iful
Ġbr other
p le
Ġb it
is ter
or k
ver s
ap an
l ic
Ġs it
at es
Ġevery one
o in
o on
Ġqu ite
Ġtr ain
Ġad v
u g
Ġthink s
Ġth ir
Ġ ent
Ġst o
Ġchan ge
Ġad m
Ġin c
Ġvis it
Ġb ir
Ġm ist
Ġdif fic
Ġmy self
Ġp lease
Ġre g
Ġdec ided
M ay
s o
ow ed
Ġstud y
Ġpol ice
he re
Ġli ves
Ġ W
re t
g ed
Ġp oss
S ome
ve l
Ġimp ort
Ġhas n
Ġdis c
it ion
Ġm us
c le
Ġs ince
Ġcon f
l ess
Ġre f
Ġph one
You r
n ight
A ll
Ġw ife
Ġtim es
Ġthe n
i b
o ld
Ġwait ing
s s
or ry
ing s
Ġd an
in ess
Ġli ving
Ġp ict
Ġar ri
im e
at ive
it al
it her
Ġli ght
Ġchan ce
Ġn ice
ol og
Ġa p
Ġdiffic ult
ĠJ apan
j ect
Ġw ar
ce pt
Ġtr ans
Ġco ll
Ġwe ren
âĢ Ļ
W ould
Ġyour self
al th
ct or
m ed
w ard
Ġs us
Ġas s
Ġseem ed
itt ed
re w
Ġd in
c hed
Ġc ry
Ġtr uth
Ġsurpr ised
Ġc ook
Ġg one
Ġcon c
ĠI s
Ġsm all
Ġthem selves
Ġmat ter
Ġg i
Ġquest ion
Ġha ir
a ir
Ġbre ak
Ġtr ue
Ġd ress
Ġmo v
Ġag o
Ġf ore
en se
Ġeas y
Ġwom an
3 0
Ġdifferen t
us s
Ġansw er
Ġin f
Ġon ce
Ġbook s
ĠA l
ot e
un ch
on d
Ġimport ant
i et
ag es
Ġf ace
Ġre ason
Ġhour s
Ġlist en
Ġbec ome
Ġst and
Ġey es
Ġd ied
ffe e
ow er
Ġk iss
Ġlet ter
ou b
re et
i ent
Ġmeet ing
Ġs ister
Ġs at
i al
Ġm om
Ġhur t
Ġt ri
Ġme an
ent ion
Ġco ffee
u al
p l
Ġn um
Ġal so
Ġgl ad
Ġs ick
i ence
Ġs et
Ġe le
Ġa ir
Ġus ually
Ġe v
Ġlong er
A s
Ġh um
o ck
Ġoff ice
ou d
ro ss
Ġsp end
Ġ2 0
a z
Ġhand s
Ġs on
Ġde p
n ess
Ġinterest ed
on t
a v
Ġmus ic
Ġl ar
l ing
Ġwe aring
b r
Ġbec ame
Ġfa v
mer ic
ert ain
Ġsu m
fe ct
Ġs ound
Ġdri ve
T ell
Ġm akes
u red
Ġc ity
Ġli ved
Ġany body
Ġs un
a pp
S t
p s
ou ble
Ġdin ner
Ġse c
o ve
n ot
Ġcomp le
u res
w here
Ġs orry
ĠK aby
i ly
Ġin d
Ġex c
m ing
Ġin ter
Ġan gry
Ġforg ot
i ers
Ġf ree
r ic
Ġfe ll
art h
Ġnew s
Ġfin ished
Ġto night
Ġne ar
Ġdo ctor
Ġfo ll
l am
Ġad d
b all
we en
Ġcha r
Ġcon v
Ġsp ent
as h
l and
Ġcle an
w ork
Ġhe art
os p
ep t
Ġwind ow
Ġfor get
Ġc or
B e
Ġc ap
Ġre d
ul ar
an ge
Ġwho le
Ġplay ing
Ġf ire
ci al
Ġ He
lger ian
Ġar t
Ġbe h
Ġd ro
Ġturn ed
Ġbu ild
o ice
Ġbet ween
Ġcan not
Ġtr ust
Ġqu ick
i er
end ed
Ġl au
un k
itt ing
ri es
Ġt able
Ġex act
ro om
Ġso l
Ġd ream
Ġafter n
ĠA meric
r ist
um p
Ġex t
Ġin s
ist s
Ġaftern oon
Ġat e
Ġle a
Ġs y
in t
Ġto wn
Ġex am
Ġagain st
Ġeat ing
Ġf ast
Ġacc ident
Ġbeh ind
as ed
c y
Ġc our
Ġf ull
Ġd oub
The se
Ġst ory
ur ing
Every one
ate ly
O ur
er n
Ġm il
ut es
im es
Ġl ater
May be
Ġl unch
Ġm aking
h ip
Ġf ig
er v
Ġm en
Ġp ark
it c
k s
Ġg row
Ġr an
Ġbus iness
Ġd et
Ġtr ouble
um b
Ġsum mer
Ġm ess
ĠS t
Ġser ious
Ġag ree
Ġf our
Ġde f
Ġsu b
Ġm ed
Ġl ess
Ġc ertain
Ġwr ite
et s
Ġnum ber
Ġgl ass
Ġtr ave
Ġprom ised
ap er
Ġfav or
l im
Ġt er
Ġhe alth
C ould
c ess
Ġla w
ic y
m an
Ġexact ly
Ġd aught
st r
as ter
Ġmov ie
Ġde ath
Ġgr and
z y
Ġcomp any
n y
Ġt aking
Ġd ist
Ġout side
Ġh or
Ġli ked
ag ed
Ġs ong
is ion
Ġmin utes
Ġword s
Ġf all
Ġbro ke
ress ed
Ġread ing
e al
Ġexp er
Ġc ut
is on
Ġk ept
Ġgu y
b ed
Ġhelp ed
Ġte am
Ġg ame
Ġg en
Ġposs ible
Ġs ix
p h
H er
Ġp op
ic s
Ġde ad
Ġs im
Ġcl ose
is m
Ġfr ont
Ġar m
it s
Ġexp lain
Ġf ight
Ġact ually
Ġmo ve
Ġbir th
N ot
Ġhat e
ak en
re ed
Ġdan ger
Ġkill ed
g iers
Ġlo c
Ġcle ar
Ġret urn
ad il
Ġab s
Ġstr ong
Ġc ost
it ies
Ġ ill
ir t
Ġh osp
Ġcomp ut
Ġgo es
Ġcomple te
Ġsus pect
ĠG od
ant s
Ġthir ty
Ġs al
Ġknow n
Ġstay ed
Ġpict ure
Ġcl ot
Ġs ign
Ġsa fe
con d
ĠIs lam
g y
Ġp at
Ġget s
Ġall owed
Ġw alked
d ered
Ġt re
ent ly
ĠCh rist
Ġc ol
Ġsn ow
Ġsh ort
. .
Ġb orn
Ġle g
Ġquest ions
ob ody
Ġstud ents
Ġhun gry
Ġc a
Ġdoub t
con om
Ġ You
t le
Ġpa id
Ġc am
Ġst ore
u ff
Ġwork s
Ġsc ared
he n
Ġt est
il ed
Ġst reet
N obody
Ġhosp ital
W ill
Ġt alked
ĠA lgerian
Ġde al
f ort
igh b
Ġb aby
Ġkid s
Ġne ighb
Ġlo ved
Ġt en
Ġwr it
id er
w ay
Ġse ll
Ġfeel ing
Ġe conom
p ort
s h
a ur
Ġ /
gg est
Ġevery body
Ġd ie
Ġsu ggest
in s
Ġst ation
Ġcom es
qu e
Ġc ou
ĠG erm
Ġdaught er
Ġ The
Ġdo ll
us lim
in ed
A t
Ġr ich
Ġproblem s
Ġbl ack
Ġthink ing
n e
Ġp ast
Ġl uck
Ġstud ying
d en
ĠT V
Ġw all
il ity
Ġwor ried
Ġr ather
up id
Ġf ix
Ġbeg an
Ġtrans l
Ġf ive
Ġlar ge
Ġ1 9
r act
Ġt ree
Ġwor ked
! "
g r
Ġse cond
o ber
Ġal ong
A nd
Ġbr ought
Ġme m
Ġlo ves
Ġst upid
at o
ĠO K
Ġl and
Ġle ast
ore d
Ġsay ing
Ġd ark
Ġhad n
pp ing
Ġte m
Ġchan ged
M any
Ġ âĢ
Ġp le
m e
a x
ie ld
ĠC an
Ġh it
Ġfoll ow
Ġ Y
T han
Ġp ur
Ġarri ved
Ġsw e
On e
Ġper m
Ġquick ly
Ġmom ent
Ġexpect ed
Ġs itting
Ġ Sami
ri ght
Ġbo x
ra w
Ġinterest ing
Ġcomput er
Ġt all
Ġfo ot
Ġclot hes
Ġha lf
Ġp ar
ic ked
Ġwr ote
Ġdis app
Ġmonth s
Ġap art
ct ober
Ġsho es
J ust
ĠU n
Ġs ide
Ġc aught
Ġmo ved
Ġro ad
Ġcont in
Ġor der
ĠCh in
Ġwe ather
Ġmist ake
Ġweek end
Ġre qu
r it
Ġr a
Ġa ge
Ġsto pped
Ġo pp
Ġpres ent
ĠO ctober
Ġwatch ing
u c
Ġpr ot
Ġother s
Ġm ad
Ġfavor ite
Ġc ur
e f
Ġaf f
Ġsec ret
Ġf ine
out h
Ġan im
ation al
e b
u ation
Ġa v
Ġwe ar
Ġcare ful
Ġlau gh
Ġfl ow
ĠM uslim
Ġfin ish
Ġwor ry
Ġbr ing
b and
at ure
Ġdr unk
Ġm a
Ġp ub
ard en
Ġas leep
Ġc ent
ĠJapan ese
Ġres p
s et
Ġhome work
Ġv ide
Ġp ri
Ġh old
lf riend
Ġpre p
Ġrest aur
Ġb ot
f er
as k
Ġpro d
at s
ain s
ian s
Ġlo se
P e
Ġadm itted
Ġcoll e
Ġwom en
F adil
ud e
Ġd uring
Ġse ver
Ġw ine
Ġpl ans
b y
us band
ĠAl giers
f ter
Ġeven ing
us h
ren t
Ġfl o
Ġt ou
Ġstud ent
B oth
u ro
Ġp ick
Ġp ie
Ġb ag
ull y
Ġsever al
Ġg arden
Ġter ri
Ġm id
itt en
Ġpo int
Ġgir lfriend
a ff
i o
Ġhum an
Ġso ld
Ġswim ming
Ġun i
Ġ ve
Ġ V
Ġbirth day
Ġb ar
S h
en ces
v ious
ou p
if ic
Ġper fect
ens ive
re ct
Ġan n
ver n
A n
Ġlearn ed
Ġbe l
cc ess
Ġwill ing
Ġp ost
Ġbeg in
Ġele ct
Ġh usband
Ġt y
ĠI n
T o
F or
Ġb icy
ar ning
ow n
N ow
Ġf ut
ut ion
Ġf act
Ġwh ite
Ġin st
k en
ie w
Ġold er
Ġf ish
Ġm ot
i ved
Ġ es
ok ing
am es
Ġh on
i ke
c l
Ġt aken
Ġp ower
Ġrep ort
Ġac cept
Ġp en
m as
an e
Ġle arning
Ġre ce
ĠF r
Ġcomplete ly
Ġ Yanni
Ġte a
Ġt ick
Ġsu per
Ġh id
A l
re en
ot s
Ġsent ence
Ġbuild ing
at ur
Ġb ath
Ġcat ch
Pe ople
Ġm ine
Ġc ra
Ġlangu ages
Ġpo or
Ġde m
r ing
Ġb ody
Ġsit uation
Ġfin ally
, "
Ġqu iet
Ġopen ed
e ad
Ġin side
A fter
Ġfut ure
ment s
at or
Ġar g
Ġgi ven
Ġtri p
Ġsu ccess
Ġsha ll
Ġspeak s
Ġshow ed
Ġinf orm
Ġhot el
Ġle ad
e e
ack s
Ġpr act
ĠCan ad
Wh ich
Ġspeak ing
air s
ay a
Ġrestaur ant
Ġr id
Ġcon d
Ġcolle ge
Ġcomp lain
Ġweek s
Ġstr ange
u gg
d le
ic ed
Ġreal ized
D an
Ġm ount
Ġn or
Ġc e
f ast
Ġac ross
vel op
Ġdoll ars
Ġj oin
Ġe arth
Ġr is
Ġte ach
Ġpro f
Ġar rest
d s
d red
Ġgo vern
d ing
Ġe ither
enn is
Ġcons ider
Ġl ying
Ġg un
Ġatt ention
Ġfa ir
et h
Ġop in
Ġte le
ĠA r
Ġpr ison
Ġche ck
Ġin j
Ġdrink ing
Ġsl ow
Ġmil k
Ġb orrow
Ġth ough
Ġbicy cle
Ġup set
Ġv ac
ort s
Ġplay ed
Ġc la
Ġtell ing
Ġli e
Ġlea ving
erv ous
Ġsomet imes
Ġp ull
Ġn ervous
Ġgen er
Ġapp ro
ain ed
u ed
Ġs il
Ġc up
Ġ ought
Ġcl im
a ger
Ġke y
u es
S o
Ġ20 1
ĠChrist mas
f ully
Ġt ennis
Ġto p
G ive
ict ion
Ġdanger ous
b it
Ġsh ot
o id
Ġd ire
Ġc al
ĠS p
Ġs ad
Ġme ans
Ġpol it
Ġflow ers
n a
Ġqu it
Ġri ver
Ġbreak fast
ic es
Ġcont ro
ent y
Ġf il
st em
Ġ Ziri
Ġhun dred
Ġcl osed
Ġb ase
ar ch
Ġcry ing
r ap
Ġexp l
en ed
Ġwor th
Ġd iv
b ers
Ġm od
Ġflo or
Every body
ĠKaby lie
N e
Ġexp ensive
Ġm ur
Ġsome body
row n
Ġ ice
Ġbl ue
Ġp un
b s
Ġ ed
in es
Ġm is
Ġdisc uss
Ġb ank
Ġen g
Ġt akes
if t
Ġde ep
Ġprot ect
Ġgu ys
Ġcou ple
ic ally
Ġm ill
Ġha ng
Ġdri ving
Ġs ense
Ġre n
Ġbe er
E ven
Ġne cess
Ġapart ment
Ġdec ision
Ġpass ed
Ġb oss
il t
Ġluck y
Ġf ool
Ġhe av
f riend
Ġdog s
ur y
am ed
i or
g es
Ġall ow
e ch
Ġtrave l
Ġcra zy
ark et
Ġgirl s
uro pe
Ġt ast
Ġgu ess
Ġwalk ing
Ġte xt
Ġap olog
u le
he ad
Ġbe ha
Ġb ill
Ġc re
ard s
Ġgr ad
C h
Ġsupp ort
Ġph ot
Ġb all
er y
Ġp aper
is hing
Ġbre ad
itc hen
oc ked
li ke
ll a
Ġadv ice
Ġd i
Ġcor rect
Ġ ir
Ġstay ing
Ġk itchen
Ġm ag
S omet
Ġsp oke
Ġprom ise
u it
Ġs and
Ġhis t
ac es
ĠS un
Ġf ired
m a
m p
Ġs end
Ġsleep ing
Ġvide o
Ġt ax
Ġc ase
Ġv oice
Ġf am
Ġpub lic
Ġsm ell
Ġse a
Ġag reed
ac ked
Ġdri ver
Ġon es
Ġst ate
c ap
r or
in ced
G o
ce ed
in ite
Ġeat en
Ġwr itten
Ġst e
Ġst uff
ist ic
in ation
t on
g an
n ger
Ġw ished
Ġf ly
Ġcomm un
Ġbro ken
Ġsy stem
Ġrel ations
g ar
med i
ĠB aya
Ġpr oud
ĠGerm an
re ad
Ġd ance
Ġres pect
or ing
Ġwrit ing
Ġ umb
Ġup on
ĠE urope
h ood
Ġtou ch
Ġyou nger
Ġcour se
ous and
Ġhor se
er a
Ġo cc
Ġext re
Ġcar ry
Ġhappen ing
a i
u ge
Ġgovern ment
Ġreal ize
Ġd en
Ġe gg
Ġb at
ĠN ew
Ġumb re
Ġw ood
ent ed
Ġch oice
Ġfore ign
u ri
it ar
i ol
âĢ Ŀ
Ġpict ures
Ġsing le
c ing
Ġfor m
Ġpre fer
S kura
Ġc op
C ome
ter n
ĠKaby le
Ġrun ning
Ġopin ion
Ġcla im
Ġc ross
Ġp ot
L ook
Ġarrest ed
Ġbl ood
Ġwe ight
Ġr ul
Ġto w
Ġcl os
Ġm os
Ġdisapp oin
Ġbe ach
vers ity
od ay
Ġm ain
Ġde velop
og n
om m
Ġinv ited
g ing
ct ion
Ġexper ience
Ġc ake
Ġenjoy ed
Ġrel ig
Ġ We
Ġhop es
c ri
Ġmed ic
Ġp os
i ves
Ġconc ern
l ight
Ġcomm on
Ġfam ous
G et
i k
c hes
e x
St op
Ġim medi
Ġs le
Ġob vious
Ġare a
Ġsp ace
ac hed
T ake
on y
Ġey e
un e
er ing
f ied
Ġt aught
Ġb ur
Ġli br
f orm
Ġrec ogn
Ġ z
Ġg ar
Ġst ep
Did n
Ġconv inced
He re
Ġse lf
om p
el s
Ġent ire
Ġextre me
Ġcha ir
B ut
Ġmist akes
b o
Ġd est
li er
pl oy
ĠUn ited
Ġhop ing
W as
Ġsm art
Ġinform ation
Ġumbre lla
u ce
ar r
Ġse x
Ġpro p
on es
Ġy ell
Ġfun ny
Ġfig ure
Ġhe ld
Ġv iol
Ġwin ter
ill ed
Ġwhat ever
Ġim ag
Ġem b
T oday
Ġ 3
Ġspe cial
ort h
er c
Ġgu itar
Ġvis ited
Ġdes k
inite ly
Ġv al
Ġev ent
Ġ ign
Ġst ood
ust om
are ly
Ġstud ied
Ġboy friend
l ine
Ġth ousand
Ġp ian
ul ts
Ġcontro l
Ġv ill
Ġwait ed
a h
Ġg rew
id ence
Ġglass es
or ies
us hed
Ġanim als
ak ed
Ġhappen s
Ġask ing
id ge
Ġhur ry
et y
Ġto ward
Every thing
ĠAmeric an
Ġlibr ary
r up
Ġass um
Ġpop ular
Ġref used
il ing
um ent
Ġneighb or
e en
t o
Ġmiss ed
Ġnecess ary
Ġbel ong
Ġimp ro
ĠChin ese
Ġb reat
Ġsho pping
Ġpart ic
r at
ĠR uss
Ġme at
Ġspe ech
ck s
Ġkiss ed
H as
it er
Ġsh op
Ġsto le
Ġd ate
s per
Ġse at
Ġhelp ing
Ġsm oking
te en
Ġimmedi ately
Ġinj ured
as es
Th ose
Ġgr ound
Ġinv est
Ġpe ace
Ġrelations hip
W ith
z e
id ay
Ġe qu
Ġresp ons
Ġsh ip
iz z
d den
Ġdef initely
Ġo pt
Ġde v
ur ch
Ġsh irt
A ren
Ġsent ences
Ġmess age
oo se
Ġsome where
Ġplay er
Ġal ive
Ġbe at
Ġes cap
Ġfor ward
Ġsh ut
Ġem p
it ive
ac ed
Ġear lier
ail s
Ġco at
Ġl ine
ĠSt ates
Ġlaw y
Ġnot iced
Ġsu dden
Ġtre es
Ġhon est
Ġli ed
Ġdro ve
ĠE arth
Ġhard ly
Ġma j
oo f
Ġsu ff
Ġmar ry
Ġwas h
Ġsound s
Y es
Ġr ad
Ġhist ory
ĠA f
ol ute
Ġprod uct
Ġsee ing
Ġdes er
Ġser v
Ġs qu
Ġst ra
Ġyour s
Ġw ed
Ġoff ic
g est
Ġ Q
Ġe ff
Ġsleep y
Ġb urn
Ġg reen
Ġsa ve
pp y
Ġplan e
Ġwat ched
Ġconc ert
Ġd am
b ook
c ome
o ll
Ġpr ice
Ġhop ed
o le
Ġ 5
Ġapp ear
Ġm outh
Ġh uge
ion al
Ġr ing
Ġex cept
Ġsur v
Ne ither
Ġcam p
Ġfe et
Ġdr ank
Ġterri ble
Ġpro ject
Ġcount ries
Ġdifferen ce
Ġeconom y
Ġsk y
c er
Ġf at
Ġd raw
Ġsu c
Ġpro v
Ġj ump
Not hing
e g
Ġprep ared
Ġwor se
ol ved
ĠM r
s y
on ed
ro d
Ġour selves
Ġapp re
e c
Ġwar m
gy pt
Ġv iew
Ġc ool
a w
Ġf ing
Ġno vel
Ġstra ight
Ġfe ar
00 0
Ġstand ing
Ġr ide
Ġabs olute
ph one
g ress
Ġm ach
Ġreg ret
t ime
Ġbl ame
ĠAl ice
Ġheav y
Ġto t
Ġmos que
Ġextreme ly
Ġc row
Ġsuc ceed
Ġc ult
fort able
Ġsus p
str uct
Ġfa il
olog y
Ġn ative
Ġnot ice
Ġen em
Ġpian o
oss ible
Than k
Ġany where
Ġwed ding
Ġl ow
Ġin n
Ġposs ib
Ġtr uck
ĠE gypt
Ġp izz
Ġo il
ĠA nd
Ġvac ation
al ity
Ġmin ute
ha r
Ġex ist
Ġpres ident
Ġprof ess
Ġno body
Ġpie ce
Ġno ise
Ġgr oup
Ġadm it
Ġcertain ly
Ġmill ion
Ġb other
Ġe ight
Ġconv ince
Ġg ift
Ġh ol
Ġmo ving
Ġarri ve
Ġrece ived
Ġmount ain
Ġsk i
ĠAmeric a
Ġt reat
Ġrul es
op h
Ġbu ilt
Ġwon dered
Ġboy s
Ġple as
Ġg as
Ġaw are
eb a
.. .
Ġsle pt
Ġimp ossible
ll ed
Ġus ing
Ġthan k
Ġeas ily
Ġcoll ect
l s
end s
ir d
Ġcap ital
Ġlisten ing
O h
ĠAf ric
Ġis s
sper ant
Ġb en
Ġro b
ato eba
Ġtem per
is es
Ġb ask
ok en
ĠIt al
Ġinc re
Ġlea ves
Ġlawy er
ress ion
hes s
Ġatt ract
Than ks
Ġappre ci
Ġke ys
Ġair port
Ġ -
Ġp ress
eal ous
ast ic
Ġch urch
f ather
Ġsm ile
Ġn orm
Ġan t
M ost
Ġoff er
Some one
Ġmid dle
Ġn atur
an ish
Ġpr in
g n
ac y
Ġd iction
Ġgot ten
Ġfeel s
Ġcar s
m b
st er
Ġreturn ed
Ġob s
Ġc ute
Ġdisappoin ted
E x
Ġfl u
he t
Ġplann ed
Ġfil m
in al
iss ion
Ġpain ting
Ġpull ed
o ver
end ing
Ġf ield
Ġl one
en cy
ck et
ha ps
is ing
le ct
Ġam ong
rent ly
Ġst ar
Ġv ol
Ġrec ently
Ġpri v
uri ous
Ġw ore
Ġend ed
Ġa uth
Ġj ud
Ġconf used
Ġcol or
res h
Ġs ight
ort un
if ied
arr ass
Ġsing ing
Ġserious ly
Ġemb arrass
Ġacc ount
Ġve get
ĠAr ab
Ġbase ball
Ġf ishing
Ġh ide
Ġth rew
Ġun like
Ġhat es
Ġj ealous
cl ock
Ġav oid
Ġswe et
id es
ir ty
Sh ould
l o
Ġp icked
ter s
Ġpro per
Ġsand w
Ġnews p
i res
Ġapp le
Ġsat is
ad ed
Ġpat ient
Ġc hess
Ġme ant
Ġtr aff
Ġbot tle
Ġ '
M r
Ġth reat
Ġann oy
Ġdr ug
Ġ What
ro ad
Ġl os
st airs
Ġun cle
Ġeat s
Ġor gan
Ġrec ord
Ġ They
Ġun c
Ġegg s
Ġc ustom
Ġfa iled
Ġdiv or
Ġmedic ine
d y
Ġc ard
Ġint ell
Ġsu itc
Ġsurpr ise
Ġmov ies
Ġf aster
Ġexc ited
Ġaff ord
Ġl im
Ġinc l
Ġsub ject
Ġc orn
it ch
d e
Ġmaj or
e y
Ġkn ife
Ġpr ay
ove red
Ġvill age
Ġ 4
ffe ct
Ġsim ple
" .
Ġ er
ri age
Ġt our
sperant o
Ġsu it
g hed
Ġob ject
U n
ĠM ar
Ġen er
Ġbask et
Ġtraff ic
Ġa ut
Ġb ored
Ġcam era
T ry
e ared
Ġam az
ke y
l er
ĠCanad ian
fe red
am p
Ġdiction ary
Ġris k
Ġsm oke
We ll
ust ed
Ġtick et
Ġwas te
ul ation
ĠA n
Ġbelie ved
Ġcat s
Ġd ating
Ġabsolute ly
Ġc ream
Ġso cial
ab les
Ġdrink s
P ut
Ġn amed
ri b
We re
Ġbu ll
Ġunderst ood
Ġf ac
Ġm arket
Ġp ack
Ġen v
Ġhar der
Ġauth or
Ġc ow
og rap
Ġrain ing
gr am
Ġlone ly
Ġc reat
Ġl oud
ut s
oc ol
om ing
ĠJ acks
Ġpizz a
Ġa head
e ep
Ġhand le
Ġfa ult
Ġcont act
ant ly
Ġfar m
c ent
Ġinter n
Ġ ur
Ġpl ays
Ġcl ub
Ġadd ress
Ġdire ct
Ġfeel ings
led ge
Ġof fered
Ġse ven
Ġth row
Ġgi ving
Ġd ad
Ġj ack
Ġdro pped
Ġde b
Ġwonder ful
Ġbegin ning
om es
Ġloc ked
Ġcomp et
s it
Ġf re
m other
Ġperm itted
on na
Ġdress ed
Ġsol ve
Ġrep l
Ġexpect ing
Ġfr uit
Ġinn oc
Ġmach ine
Ġt erm
Ġp u
ĠT ok
ch ie
ĠP ar
Ġc ir
en ced
Ġconcern ed
Ġcon vers
Ġforgot ten
Ġ id
Ġaw ake
Ġbath room
Ġc ried
le br
Ġmo on
Ġmur der
Ġpre v
Ġcrow d
Ġ (
Ġis land
Ġe ffect
Ġte eth
Ġpers u
side red
Ġinv olved
Ġgo ld
Ġb right
Ġlau ghed
Ġen c
Ġunlike ly
Ġf ur
Ġmiss ing
ord ing
Ġc ause
il ty
Ġemp ty
ve red
y o
Ġsuggest ed
Ġed uc
c ious
Ġc ell
Ġf it
Ġint rod
Ġuni versity
Ġpl ant
Ġple ased
Ġgu ilty
Ġnatur al
Ġwe ak
Ġwe ird
Ġce lebr
Ġb ike
Ġdec ide
Ġre se
Ġatt end
Ġst orm
Ġor ig
Ġw arn
at ic
Ġgrad u
Ġst ol
Ġcon sidered
Ġsp oken
Ġimp ressed
Ġf la
Ġf resh
Ġfor t
Ġor dered
Ġfore st
Ġtw ice
Ġsha r
Ġstol en
Ġb and
Ġdet erm
j a
Ġsp ring
Ġcon st
o v
un g
Ġsc ream
Ġph ys
Ġchar ac
Ġcall ing
Ġatt ack
ĠJacks on
Ġ iv
g th
Ġsk in
Ġeconom ic
Ġc ous
us es
ac he
Ġjob s
Ġ1 0
Ġcook ing
Ġopp ortun
ĠFr ance
ĠSp anish
Ġhe ll
Ġte ch
Ġj ail
Ġteac hing
ic le
Ġtw enty
Ġfl ight
Ġthir d
Ġlaugh ing
Ġm ention
Ġf if
Ġfoot ball
Ġ She
Ġsh y
Ġfoll owed
Ġslow ly
S ince
Ġch ocol
Ġrequ ired
Ġg onna
Ġgrand father
Ġpa ir
Ġcare fully
Ġso ft
Ġch ick
Ġbu ying
Ġ 6
ver se
Ġr ound
Ġso ci
Ġbl ind
Ġide as
Ġv ar
Ġpur p
ĠSun day
M ar
Ġ est
oin t
Ġarm s
Ġre ached
Ġman ager
Ġf le
Ġst ri
Ġren t
Ġto r
Ġsp orts
Ġener gy
Ġk ing
c ked
Ġinst ead
Ġh ous
Ġsha re
c ha
i um
Ġhealth y
Ġj oke
Ġsu gar
Ġcr ime
Ġr u
t ain
ou l
Ġl ay
Ġyour selves
p ar
p ri
v ision
Ġfe ed
Ġsudden ly
Ġd irty
Ġst ick
Ġab ove
Ġcal m
Ġevent ually
Ġco vered
Ġbe ar
le t
K eep
a f
Ġne g
Ġspe c
ĠChin a
Ġt al
il ar
Ġca used
Ġtech n
a ven
Ġrec omm
l ies
Ġiv y
Ġfl at
ci ent
Ġsc ience
ĠE speranto
Ġfollow ing
Ġansw ered
ĠâĢ ľ
u ced
Ġt ur
Ġty pe
Ġintell ig
Ġw ake
Ġab road
Ġde lic
Ġun f
Ġsc ient
Ġbir ds
Ġ That
Ġk il
Ġmar riage
Ġp ool
ro y
Ġd a
Ġc oun
ĠI nd
Ġpro gram
Ġlot s
ict ed
Ġplan et
Ġbeha v
Ġnorm al
en e
as c
Ġem ploy
Ġ $
ll en
as hed
Ġcr it
Ġsing er
Ġc ast
Ġbed room
Ġbir d
P er
z z
ro g
ir us
Ġim m
rup t
Ġb le
he m
ot ed
Ġpract ice
Ġde g
Ġv ict
un d
in a
c il
Ġh y
Ġwe alth
ĠT atoeba
Ġadv ised
u ly
un t
Ġeng ine
Ġtoward s
ill s
Ġman aged
ound ed
Ġl ic
ond on
Ġj our
la x
Ġhar m
a le
Ġ Z
if y
Ġde l
Ġex ha
Ġt ough
Ġre ach
Ġres ult
Ġint end
Ġsusp ic
ĠTok yo
Ġl end
Ġdo c
iz ation
Ġ201 3
Ġwith in
per ate
Ġforg ive
L ife
Ġt ie
On ly
Ġt ill
Ġm ir
Ġapolog ize
Ġstart ing
fort un
Ġnewsp aper
ur s
Ġun ha
Ġno se
Ġlo ck
ĠPar is
Ġexplain ed
Ġrad io
r ay
Ġne ck
Ġro ck
Ġloc al
Ġhat ed
Ġleg s
Ġchocol ate
Ġent ered
G ood
Ġb ri
Ġtalk s
Ġsc hed
Ġkeep s
ou red
Ġst uck
The ir
Ġf right
Ġdem and
Ġr ace
Ġtransl ate
Ġs ort
Somet imes
Ġpurp ose
Ġw oke
Ġe arn
i j
Ġ2 00
om ed
Ġsp read
ind a
Ġaf fect
Ġinf l
Ġletter s
Ġrelig ion
Ġm ood
Ġknow ledge
Ġres ults
Ġbo at
d ays
Ġbrother s
ess ed
cc er
Ġdes cri
Ġcontin ue
an ces
Ġtax i
Ġspeak er
Ġd ue
ĠGerm any
Ġw ild
Ġmat ch
Ġmean ing
Ġw a
hing s
Ġle vel
est s
Ġunha ppy
Ġf illed
Ġre v
Ġd ut
Ġwor st
ĠâĢ Ķ
ĠL ondon
Ġfriend ly
Ġrespons ible
Ġinnoc ent
Ġcan ce
Ġperson al
sh ield
Ġhid ing
Ġper form
Somet hing
g o
Ġs oup
Ġcl oud
Ġcir c
Ġchar ge
Ġden ied
oh ol
Ġra ised
c ohol
Ġw is
Ġr ude
Ġwind shield
Ġs ens
us ing
Ġteacher s
Ġperm ission
Ġm ass
Ġre lax
use um
T hings
l come
Ġ Th
ra z
Ġtele vision
Ġamaz ing
Ġd ry
am m
Ġst eal
Ġf an
Ġgrand mother
T r
Ġd ra
Ġte ars
ep end
Ġconvers ation
Ġmot or
Ġtow el
Ġjack et
Ġb arely
Ġl ab
ce an
Ġdis hes
Ġexper i
Ġty p
Ġsandw ich
Ġsatis fied
A ny
Ġl ady
He y
Ġobvious ly
ĠQ ur
ĠAfric a
n ect
Ġb an
ĠA s
Ġan x
Ġp an
Ġch oose
Ġbr idge
As k
Ġit self
ie f
end er
Ġtast e
Ġescap e
Per haps
ar ter
Ġ ver
Ġapp les
Ġfor ced
Ġrem ind
Ġshow er
Ġneighbor hood
Ġh ig
Ġpret ended
k a
s ed
Ġn ature
Ġn ames
Ġeas ier
ne y
Ġb oring
Ġrem ain
Ġcontin ued
ĠQur an
A m
M ake
Ġw ays
Ġl ake
ll ing
Ġp sy
ograp h
Ġa ud
Ġli ft
ent al
irst y
Ġsim ilar
Ġhous es
l ook
Ġth y
Ġwas hed
Ġso ccer
Ġex erc
Ġpo in
ĠRuss ian
Ġun d
Ġthir teen
b ing
Ġgo lf
Ġgrow ing
Ġhe at
Ġbe ll
Ġass ist
Ġpos ition
Ġbasket ball
at t
ĠB ut
ound s
Is n
Ġche ese
Ġimpro ve
ur al
ĠL ord
Ġhand ed
Ġfix ed
on ment
Ġdest roy
Ġappreci ate
u el
Ġbelie ves
k ing
o kes
re l
ar m
Ġbut ter
Ġwho se
Ġc ash
Ġcom fortable
Ġwindow s
Ġanim al
ĠB e
Ġpop ulation
Ġpartic ular
Ġop er
Ġgar age
Ġm aster
ld om
Ġgi ves
Ġpun ished
he red
it ions
ow s
Ġus es
Ġembarrass ed
Ġsp ir
Ġw ise
Ġd ying
ant ic
ild ren
B y
Ġ ident
Ġad op
Ġpot ato
ab bed
Ġbut ton
Ġaff air
Ġfair ly
y m
Ġa chie
Ġs our
Ġp et
Ġha ll
Ġse ldom
Ġdes p
Ġcour age
Ġsuitc ase
c ause
Ġh ired
Ġli es
Ġext ra
Ġshar p
O f
w o
Ġw et
Ġr ice
Ġlos ing
r on
in ary
Ġcar ried
Ġsur f
Ġcha llen
Ġind ust
Ġabs ent
Ġne ither
Ġdis e
Ġpolit ical
âĢ Ķ
s es
Ġwe ars
ace book
Ġwall et
bo ard
Ġst ars
Ġany way
Ġdes ign
r am
u ing
Ġc red
Ġg ames
Ġpain ted
Ġenem y
Ġcorn er
c he
Ġcon ver
Ġbo ard
Ġdro p
Ġn ational
Ġtr ad
Ġpre gn
Ġpain t
Ġapp oint
Ġdan cing
ĠIn tern
d d
Ġbot t
Ġtele phone
Ġtot ally
Ġm useum
Ġor d
Ġrel uct
Ġdep art
Ġid i
Ġsp l
Ġun less
ĠArab ic
Ġb i
Ġsm iled
Ġsol ution
Ġav ail
Ġcharac ter
Ġopportun ity
e es
as ons
ĠF ar
Ġlight s
r ated
Ġn on
ĠB rit
Ġlar gest
Ġserv ice
er al
ir m
Ġpl aces
Ġfore ver
Ġj u
Ġevery where
Ġ 8
Ġnear ly
Ġl iter
Ġse par
Ġlisten ed
n ic
Ġem ot
Ġ There
it ude
it iz
Ġst ories
Ġdisc overed
Ġsong s
g l
Ġp red
Ġr ap
Be cause
Ġsa ved
Ġexp ress
h ost
m en
ro p
ir onment
um e
Ġdes perate
Ġche ap
Ġsho ot
Ġhands ome
ai ro
Ġrecogn ize
Ġhe sit
Ġus ual
Ġal cohol
Ġfight ing
il s
Ġstud ies
Ġreg ion
Ġclear ly
Ġtall er
Ġbig ger
Ġhor ri
R ima
Ġwas hing
ub e
Ġdist ance
Ġ 9
Ġcook ies
Ġ ess
ĠF acebook
ĠY ork
Ġbreat h
ce ll
Ġr oof
Ġsoon er
Ġcond ition
Ġgo al
Ġsh it
ĠL inda
em pt
Ġdelic ious
Ġc ab
Ġme as
Ġun l
Ġun able
Ġpo cket
Ġfig ured
Ġpriv ate
Ġdeterm ined
Ġpsy ch
J ohn
n ed
Ġfor ce
Ġjud ge
Ġexha usted
e v
un der
Ġimag ine
ent ial
Ġpro gress
Ġelect ric
in ated
Ġth ou
ĠC airo
Ġfl ower
Ġr ule
om en
Ġse arch
Ġcon nect
Ġ 7
Do ing
Ġsuspic ious
Ġdut y
her n
Ġpay ing
Ġra ise
om b
Ġm ap
Ġf uck
p a
Ġn ation
Ġst om
Ġla zy
A lgerian
op e
Ġdream s
Ġexam ple
ist ed
ĠE ve
gg ed
Ġopp os
Ġincl ud
Ġab and
pp er
Ġind epend
Ġart icle
Ġaccept ed
Ġbehav ior
Ġ ug
Ġv ote
ugg ed
raz il
Ġme al
Ġpen cil
re ts
Ġst ren
Ġco ver
N ever
Ġsp ot
Ġspe ed
Ġenjoy ing
re es
Ġb as
ul ous
c ip
y le
Ġman age
Ġsupp ose
Ġdep ressed
fortun ately
Ġcent ury
Ġexpl an
Ġs oul
Ġto ng
Ġg host
Ġsh ocked
Ġchan ges
Ġsuccess ful
Ġche cked
ĠFar id
Ġ How
Ġhun g
Ġent er
by e
ĠN orth
feren ce
Ġp ath
Ġpar ked
F rom
w ed
Ġt ight
ow ing
Ġenv ironment
Ġfur ther
Ġrep e
Ġret ired
Ġwh om
Ġcall s
Ġbeaut y
reed om
S orry
Y esterday
or ld
th ough
Ġcl ock
L e
Ġhe aring
Ġtell s
i us
Ġc itiz
Ġacc omp
Ġbad ly
Ġmot iv
ĠFr iday
Ġhol iday
Ġw ide
Ġwe bs
Ġsuper m
Ġcommun ic
Ġjump ed
Ġo we
Ġth irsty
Ġuse ful
Ġhold ing
d om
er g
ap t
Ġsim p
Ġrequ est
ur ity
Ġlic ense
im istic
ut ed
our aged
Ġbr ain
er ve
Ġe mer
ip s
Ġchick en
Ġpl enty
Ġwhen ever
âĢ ľ
Ġ1 8
ip e
Ġfa ith
Ġtem pt
c o
i est
o ved
r ain
Ġf ed
Ġl ack
Ġg ent
Ġwe ap
Ġam b
Ġadv ant
Ġfing er
v al
ra el
Ġassum e
Ġgl o
Ġinfl u
a rently
am b
Ġmem ber
at ors
Ġs ize
Ġc oo
Ġc urious
Ġse ason
Ġex cell
Ġper cent
Ġveget ables
Ġm ail
Ġpo em
Ġavail able
ĠD ay
m on
ĠS atur
Ġbec oming
Ġcont ract
str on
Ġsoci ety
G od
Ġm ark
Ġha bit
Ġclass es
Ġdet ails
Ġneighb ors
Ġmil es
Ġwood s
Ġprop os
Ġr um
Ġdis g
Ġm ult
The n
Ġsal t
Ġs ang
Ġm ath
Ġc ig
Ġp oured
Ġr ac
Ġpo ison
Ġup stairs
Ġfo c
Ġsched ule
un te
Ġte en
Ġac qu
Ġmag az
Ġocc ur
it ing
Ġam ount
Ġpass port
Ġart ist
Ġsil ent
Ġinvest ig
ĠI f
Ġon line
Ġro se
Ġre asons
Ġburn ed
Ġrecomm end
y ond
Ġ This
Ġtr ick
Ġres ign
con s
Ġk icked
ic ide
Ġst aring
te red
Ġsister s
Ġphot o
Ġappoint ment
Ġ 30
Ġsur r
Ġdep end
Ġeff ort
Ġsh out
ap ers
Ġtre ated
Ġfly ing
Ġfright ened
Ġug ly
Ġsimp ly
Ġgent le
Ġju ice
p han
Ã ©
Ġcar p
Ġev il
Ġpleas ure
Ġiss ue
Ġeduc ation
Ġcrit ic
um ents
Ġstom ach
Ġexcell ent
k n
Ġconf ident
ĠSt reet
in ing
Ġb ow
et er
Ġb al
Ġann oun
Ġvol unte
b orn
i od
Ġimp ress
ĠP ark
Ġstr ugg
or ter
Ġmod ern
, âĢĿ
i ving
ing u
Ġo cean
Ġre act
od e
Ġexplan ation
Ġsuperm arket
us ion
iv il
Ġinv ite
Ġtong ue
i als
Ġear s
ĠU S
Ġbe yond
at a
Ġhapp iness
Ġlate ly
Ġcr is
om an
Ġev idence
Ġhang ing
Ġcre ated
Ġto ile
Ġun s
i pped
Ġb rown
Ġpregn ant
Ġd ia
ĠG ree
ors es
Ġd ish
Ġb ark
at ch
oc r
an ced
ve re
Ġacc used
Ġcr im
Al giers
Ġcult ure
Ġcred it
d ed
ic ian
ter y
Ġab ility
Ġch o
are t
ci ally
Ġpol ite
Ġarm y
Ġtick ets
as ing
Ġr arely
Ġspend ing
Ġfall en
Ġth in
Ġr om
Ġpl ants
Ġhigh ly
Ġmem bers
Ġ Do
it ation
il i
Ġint ended
Ġem ail
Ġenjoy s
Ġla id
Ġarg ument
Ġclaim s
L ast
o cc
Ġd iet
ĠB razil
Ġwork ers
ĠD an
Ġmem ory
Ġintellig ent
look ing
e or
Ġpr on
Ġsl ight
Ġsurv ive
Ġpossib ility
b an
Ġl ed
Ġin se
Ġhelp s
Ġact ing
li ar
Ġ19 9
Ġyell ow
T wo
i ven
Ġre le
res ident
Ġcomp lic
Ġfav our
Ġill eg
Ġreluct ant
Ġl oss
Ġfor ty
ate ful
Ġpo et
Ġski ing
Ġdise ase
ĠF adil
Ġact iv
Ġcommun ity
Ġdeser ve
ha m
Ġlo g
el ess
ĠAmeric ans
Ġs li
ac hes
Ġj okes
Ġde li
Ġor ange
Ġkind s
n el
en ing
Ġan ger
p or
Ġcan d
Ġres c
St ay
Ġclim ate
c her
d o
in y
Ġd ig
Ġc y
it ary
Ġhe ro
Ġn ine
Ġwe lcome
Ġshe ep
ore s
ĠJ ew
Ġsw ear
Ġperfect ly
ver age
ag o
Ġs la
Ġf asc
Ġgr ass
Ġmount ains
Ġwarn ed
Ġexerc ise
Ġsha pe
Ġmat er
Ġfr ust
c ul
u ary
Ġr ub
Ġsc ar
Ġgu ard
iv id
Ġf ro
Ġy es
or der
Ġj oy
Ġpro cess
Ġper iod
ĠW orld
Some body
Ġuni verse
o e
u ja
ct ors
Ġmid night
Ġwebs ite
v iew
Ġatt empt
Ġfall ing
Ġassum ed
Ġpress ure
Ġvict im
it es
am a
Ġst one
Ġm ann
Ġc ards
ib ility
Ġz oo
Ġprin cip
Ġdrug s
Ġstren gth
Ġf reedom
he st
Ġg ri
Ġin struct
Ġmet h
Ġret ire
Ġclean ed
Ġrese arch
Ġmay be
Ġcou ch
Ġpersu ade
Ġrun s
Ġtoile t
Ġto ol
la w
ĠH ar
ash ion
Ġpie ces
y ear
Ġcomm itted
Ġclean ing
ĠSatur day
Ġpos itive
g ers
ic ago
Ġgood bye
Ġrem ained
m ates
at ives
ĠT ur
Ġput ting
Ġclass room
Ġref use
a ld
Ġbr ave
Ġdis p
ĠâĢ ĵ
ĠMuslim s
Ġdivor ced
Ġmotor cy
Ġgl ob
Ġgr ateful
Ġdoor s
ĠCh icago
Ġb es
Ġh omes
Ġcor on
Ġtrave ling
Ġannoy ed
Ġanx ious
S ee
ic ated
Ġst airs
Ġapp eared
Ġbig gest
Ġreg ular
Ġthe ory
Ġnot e
iz ing
Ġcost s
Ġprofess ional
Ġh ug
Ġsc rat
ĠItal y
ĠItal ian
J apan
k y
Ġh orses
st and
ain t
Ġacc ent
Ġs ons
Ġc ivil
Ġso cks
Ġpro ve
Ġpr ices
Ġreal ity
ĠEurope an
omed ay
Ġglo ves
Ġg ym
ig r
Ġidi ot
A b
l ished
Ġh ole
iv al
ĠEng land
Ġpark ing
Ġclos er
n am
Ġa stron
Ġd ent
Ġcare less
Ġ1 00
Ġspend s
Ġcris is
B er
ha med
Ġg ro
Ġr ate
ip l
Ġadvant age
Ġp ants
Ġth ick
Ġmist aken
Ġsil ence
Ch ildren
Ġcig aret
Ġf ill
Ġloc ated
Ġtransl ation
Ġcap t
Ġtemper ature
Ġmir ror
an a
Ġl ad
Ġsc ene
Ġcont r
Ġsec urity
ĠCanad a
u k
z en
Ġp ic
Ġst raw
Wh ile
Ġacc ess
ĠIntern et
A cc
h ib
Ġn one
Ġv an
Ġinc red
Ġsal ary
Ġcarry ing
Ġch ose
ass es
em ber
Ġ Don
Ġp age
Ġh ost
Ġact ion
Ġfami liar
aff es
Ġmotiv ated
a pped
ar ily
Ġp ushed
Ġbl ank
Ġsold iers
Ġpossib ly
Ġhorri ble
A r
Ġh ij
Ġcomp an
ĠIs rael
ĠChrist ian
Ex c
het ic
Ġh ire
Ġact ed
Ġansw ers
Ġcent er
Ġadop ted
i xt
Ġsa f
Ġtr uly
Ġshould er
av irus
Ġdoc ument
Ġless on
ĠYou T
Ġmag n
Ġrelig ious
Ġbelong s
W ait
Ġw it
Ġy en
Ġcon struct
Ġcont rib
Ġfool ish
Ġd are
Ġf ant
id s
Ġroom s
Ġmod el
Ġfla g
Ġexperi enced
Algerian s
" ,
p ed
w ise
ed s
Ġre lie
Ġst at
st it
Ġas hamed
Ġcan cer
ĠA t
Ġthought s
Ġgu ests
Ġkil omet
al ed
Ġcour t
Ġdivor ce
Ġmeth od
i ally
p ir
Ġthe e
Ġg ate
Ġha m
Ġexam ination
Ġh oney
Ġgr abbed
ĠT r
Ġfin al
Ġkeep ing
Ġreg ard
Ġrecogn ized
Ġpu zz
Ġsu icide
Ġdet ect
Ġneighb our
Ġresp ond
Ġborrow ed
Ġa st
Ġan cient
Ġearth qu
K aby
Ġco ach
Ġdis ag
Ġval ue
i ents
m ber
Ġs ke
Ġc ities
ar ies
if f
Ġvisit ing
Ġcap able
Ġprev ent
Exc use
ol ution
Ġsm o
Ġill ness
Ġdeg ree
C all
Ġint ention
Ġbl ock
Ġrep air
Ġvide os
L ove
Ġst ared
Ġele v
Ġfing ers
Ġcomplic ated
N one
Ġa verage
Ġm ix
ar row
Ġh ill
Ġp ill
im p
im ate
Ġcom b
ort ug
Ġright s
pt ion
Ġdestroy ed
Ġl it
Ġun b
um n
Ġshow s
Ġpolice man
Ġpropos al
b age
s on
Ġlove ly
Ġdes ire
Ġcop y
Ġpic nic
Ġsm arter
Ġche m
Ġspir it
ĠYouT ube
g ency
or occ
Ġp or
Ġwh is
ĠM ars
Ġrem oved
Un fortunately
Ġfre qu
m et
S p
Ġtr oub
Ġgener al
ĠRuss ia
t he
Ġf urn
Ġacc ording
Ġdam age
han ge
iet y
Ġdef end
Ġsal es
Ġir rit
Ġtrad ition
Ġhij ab
Ġl at
ester n
Ġcoron avirus
n al
Ġc hat
ur ance
Ġstart s
Ġswe ater
Ġterm s
Ġd om
Ġb ud
il ities
Ġstrong er
Ġcamp ing
Ġintern ational
m ate
r an
Ġr ang
Ġgreat est
Ġpower ful
Le ave
ĠM ay
Ġpass ion
Ġcook ed
Ġmatter s
Ġjoin ed
Ġp ort
Ġdist ur
Ġgradu ated
S ha
f act
Ġa unt
Ġr ab
ive ly
Ġrem ark
gr ound
Ġunc om
Ġcon ce
Ġcol our
Al though
Acc ording
Ġs ac
Ġbet ray
pe cially
Ġeng aged
Ġbat tle
Ġfail ure
Ġenem ies
P l
c ast
g ent
Tom orrow
at in
Ġse es
Ġle an
Ġatt acked
ab ility
On ce
Ġsy mp
Ġclaim ed
Ġpotato es
ĠBrit ish
Ġmotorcy cle
Ġb ased
Ġme l
Th ree
Ġcross ed
a ving
Ġhe aven
Ġth ief
Ġadd ed
ill y
em ploy
olog ist
Ġsal ad
Ġpolit ics
Ġfac ts
Ġspec ies
om s
ar ian
Ġpass en
ĠAlgerian s
Ġlead er
Ġentire ly
Ġsuff ering
Ġaband oned
in c
Ġf al
es us
Ġe ager
Wh ose
Ġag gress
Ġno on
ag ing
Ġcoo per
Ġilleg al
ess ion
Is lam
Ġfl ood
Ġchild hood
Ġpat ience
Ġfle w
b ered
m ith
is ions
se qu
il es
Ġsp r
Ġde fe
Ġar r
Ġqu ar
Ġstr ict
ward s
Ġdent ist
in ct
Ġchan ging
Ġinter view
Ġmed ical
Ġapolog ized
Ġmagaz ine
Ġuncom fortable
A pp
R ead
Ġl ent
Ġpl ate
Ġbu ried
Ġsell ing
Ġintrod uced
u x
Ġt ask
Ġthe ater
Ġb ite
Ġfind ing
Ġpartic ip
Ġcous in
Ġt end
Ġcomm and
Ġkiss ing
Ġter ror
Ġproduct s
hem at
Ġsurf ace
p re
Ġs omeday
as ion
Ġn ap
al y
Ġgrow n
Ġphot os
ma le
Ġscream ing
Ġbri ef
Ġhig her
Ġoppos ite
Ġsa le
ĠP h
Ġstreet s
Ġtast es
Ġir on
ex ic
Ġsqu ir
Ġiss ues
k ay
n ow
Ġr ise
Ġhum ans
Ġtransl ated
Ġdisapp eared
Ġarg uing
kn own
Ġh ob
Ġrem ains
Ġunderstand s
Ġbase ment
u its
an ger
Ġf irm
all ow
Ġdown stairs
Ġend s
Ġmil itary
Ġtou ched
m in
y ard
Ġa im
Ġst ub
Ġfind s
Ġche ek
Ġser ved
Ġclos et
Ġaud ience
Ġ ut
Ġf ence
Ġp ush
Ġo be
Ġcare er
ĠP r
Ġfin an
Ġcr ack
Ġwrit er
D uring
z ed
Ġg if
Ġr ough
il os
ul ty
Be fore
Ġcur rent
Ġsaf ety
s c
w are
Ġpart s
Ġtrust ed
b its
f a
r and
w ord
Ġt ent
Ġsa ving
Ġexp ert
Ġsmell s
Ġfort une
Ġli ber
ip ed
ĠK ing
Ġreason able
Ġind ivid
eb ook
Ġcomplain ing
Ġdevelop ed
r ance
Ġnot ebook
Ġj am
Ġhead ache
Ġconf idence
Ġsol ar
Ġescap ed
Ġt ail
Ġthan ks
Ġbel ow
Ġes pecially
Ġrid ic
Ġclim bed
Ġdire ction
Ġthousand s
a ffe
Ġapp ly
Ġperm it
Ġcrim inal
o x
Ġd rew
Ġb ound
ur se
Ġact or
Ġcomplain ed
Ġcast le
e ed
os es
Ġcomple x
Ġbur st
k er
Ġp ig
ic ient
Ġcon ference
ĠS outh
ĠP al
ĠP ortug
Ġce re
Ġachie ve
ipl om
P ol
s ing
Ġd ouble
Ġsu ffe
Ġun us
Ġfe male
Ġdri ves
Ġrep ly
ĠW ar
Ġp al
Ġp il
Ġn aked
Ġres our
Ġask s
Ġcont ain
ĠN uja
pl ace
Ġsuspect ed
Ġben ch
Ġvar ious
Ġd ata
Ġm ic
Ġam used
Ġexc use
Ġsign ed
Ġg reet
ad es
ap h
ĠK ore
Ġwalk s
Ġrain s
Ġattract ive
Ġorig in
Ġwealth y
Ġc ave
ĠS e
Ġpo ll
Ġsha red
Ġ1 5
m y
er able
Ġc ro
ak er
ĠP resident
Ġfriends hip
Ġche st
in et
Ġdo ctors
Ġfor mer
Ġcan dy
ĠS h
Ġspeak ers
Ġche er
Ġche ating
Ġnum bers
Ġflu ent
Ġb aked
er ved
Ġf ashion
at ory
Ġsho ck
Ġterri fied
Ġtal ented
l ig
m osp
Ġm er
ak a
Ġgr amm
Ġsucceed ed
Ġproper ty
Ġyou th
as y
Ġqu ality
Ġsomet ime
Ġopt imistic
u ous
Ġs ink
Ġli ps
ĠS o
ra ft
Ġtrave led
Ġfact ory
Ġarg ue
Ġdeep ly
Ġbott om
Ġearthqu ake
orocc o
Ġd iplom
Ġg e
Ġsto ck
olog ical
Ġcoun ter
R em
j i
Ġwhe el
Ġdr um
Ġcle ver
Ġpur cha
Ġrom antic
Ġsuffe red
r uct
Ġun employ
ĠM y
Ġpol icy
Ġcha mp
Ġrece ive
Ġtempt ed
g s
ir ing
Ġwin ning
Ġfo ld
Ġpri ze
T urn
c les
f or
Ġto oth
Ġm all
Ġn urse
ch ing
Ġal arm
ud d
ob ile
Ġforg iven
Ġrele ased
Ġf ought
ri ger
Ġrel ated
Ġsign ific
R e
Ġd y
ir ts
Ġoff ended
Ġdes ert
Ġbo ots
Ġgrow th
Ġelect ed
Ġcre ate
Ġtot al
Ġglob al
f l
v ent
Ġl ower
Ġp ra
ver t
Ġre ve
Ġcom ment
ĠM exic
ra v
Ġro ll
ag ue
Ġact ive
Ġteac hes
Ġpret ending
Ġref riger
Ġins urance
pri l
C l
Ġt ap
Ġe ld
ac hing
all ed
Ġat mosp
Ġtr ade
Sh ow
w ing
Ġf urious
Ġp acked
Ġkn ock
Ġhead ed
Ġpron oun
he l
Ġtr ack
ĠN o
Ġrid ing
Ġequ al
Ġsour ce
h us
h ouse
l ied
v ard
im ent
Ġre ject
Ġro le
Ġbr an
Ġgir affe
ci ence
Ġstr uck
Ġfr idge
Ġrel ative
Ġdet ail
Ġgar bage
With out
Ġben ef
Ġorig inal
Ġru ined
Ġfavour ite
Ġobe y
Ġn u
Ġse vere
Ġso fa
el t
ĠR ome
Ġown s
Ġign ored
B ring
re r
Ġunderstand ing
Ġrep res
Ġstub born
M ore
t own
u ries
Ġth ri
ay ed
Ġde ar
Ġcond itions
Ġsurv ived
Ġjour ney
Ġcloud s
l in
Ġr ail
Ġde ce
Ġde light
ĠS c
ĠL et
Ġgr ou
Ġph ilos
Ġdep ends
Ġbag s
Ġall erg
Ġsm iling
Ġeff orts
Ġprov ide
Ġtur ning
Ġrap id
Ġske pt
ha b
Ġh o
ot o
Ġsw ore
Ġinc ident
Ġcur rently
Ġcond uct
Ġbur ning
s hip
Ġfor th
ur t
Ġhur ts
Ġoffic er
Ġcirc um
Ġfal se
E ach
r ation
Ġs in
ll o
ul ated
Ġfull y
Ġfig s
Ġincre ase
Ġcustom ers
Ġfif ty
Ġble w
A meric
m ail
Ġwe igh
Ġr ot
Ġcon ven
Ġmed ia
Ġhon or
Ġemer gency
G ir
b on
Ġs outh
Ġg ay
at ures
Ġturn s
Ġremem bered
Ġprep are
Ġtow els
Ġdevelop ment
Ġthreat ened
pri ate
c ut
c han
l or
Ġj e
Ġatt ended
Ġcons erv
Ġstand s
Ġwrit es
Ġhy p
Ġpor ch
ha ra
Ġsp o
Ġsp ort
el ve
ĠL atin
Ġdaught ers
Ġca res
Ġdiscuss ed
Ġste pped
Ġprofess or
Ġdeb t
Ġjour nal
Ġwit ness
ar a
Ġany time
Ġsc rew
Ġapp arently
Ġser ve
Ġair pl
Ġgrand pa
Ġsuff er
id ers
Ġst ret
Ġun w
Ġnow here
Ġsc ary
Ġmess ages
Ġmur dered
Ġpack age
Ġindust ry
Ġkilomet ers
c raft
it ure
as hing
Ġwe ed
ger y
Ġless ons
Ġrespons ibility
Ġsqu are
. âĢĿ
n ers
an c
ant ed
Ġj ew
Ġpa le
Ġstr anger
Ġown er
Ġlar ger
Ber ber
Ġridic ulous
Ġst yle
Ġcon sequ
Ġfl ash
Ġ1 2
Ġpleas ant
gl asses
Ġon to
ĠA pril
ol ar
Ġplay ers
Ġdec or
Ġcomm it
Ġdiffic ulty
Ġfrust rated
ĠHar vard
z er
Ġ et
Ġd ust
is c
an cy
Ġbe ard
Ġli f
Ġsh ook
Ġres ist
Ġmiss ion
Ġdisc ouraged
ump ed
Ġopt ions
Ġant i
Ġelev ator
is y
I D
m es
Ġ vers
Ġn orth
Ġn arrow
id ing
Ġst age
Ġst ress
ro at
Ġr are
Ġde af
Ġar ch
Ġro ses
so ci
Ġins isted
Ġagree ment
ĠUn i
Ġinclud ing
Ġsh r
ĠJ une
Ġro pe
Ġco ast
Ġoffic ial
Ġintrod uce
D r
e ah
Ġf aces
Ġre b
Ġat h
Ġr ic
ĠS al
Ġact ions
Ġelect ion
Ġappear s
Ġaggress ive
Ġrefriger ator
b l
u ese
Ġ Why
Ġf ra
ers on
Ġapp lic
Ġche ated
Ġmusic ian
Be ing
S pe
d am
Ġin fect
ain ted
Ġde le
Ġthan ked
Ġsha me
Ġcoll ap
Ġclim b
Ġbill s
Ġviol ence
Ġtour ists
w it
Ġg ain
Ġknow ing
Ġdec isions
Ġmat hemat
az z
v est
Ġli ar
Ġkn ocked
Ġj oking
Ġv irt
Ġconc l
Ġviol in
Ġrepl ace
ocr acy
Ġd ed
Ġy ard
ic ing
Ġare as
Ġsh orter
Ġhow ever
pect ed
Ġ19 6
Ġconver ted
ĠGree k
W omen
en gth
Ġpr oof
Ġconst antly
Ġchallen ge
E n
M an
Ġm ut
Ġgood s
ort hern
Ġaw ful
ĠG o
Ġdem on
cons cious
Ġfurn iture
Ġskept ical
Ġfe ver
Ġbec omes
Ġdown town
Ġmind s
Ġadm ire
Ġconc ent
Ġphys ical
Ġwis hes
ĠS mith
Ġpret end
Ġadv ance
ib ly
Ġma le
ĠSp ain
ik ing
Ġproper ly
Ġsteal ing
att oo
Ġsurr ounded
it or
Ġo dd
Ġshe l
Ġsy mb
Ġannoy ing
Ġparticular ly
Ġannoun ced
Ġinse ct
Ġt un
Ġt attoo
Ġd umb
us hing
Ġhelp ful
Ġgr ave
Ġpart ies
Ġimp ression
Ġla und
Ġocc up
Ġda ily
if orm
ell ed
Ġstr ang
Ġmin or
Ġest ab
Ġhesit ant
Ġoccur red
Ġstraw ber
Ġunus ual
hus i
g u
id ays
ad ing
ĠK y
ub lic
ĠD e
Ġsun glasses
Ġdream ed
Ġgener ous
Ġcance led
S m
in ate
Ġto ler
Ġhe ight
Ġnot es
Ġpl aced
Ġpr im
Ġbit ter
rown ed
Ġcorrect ly
Ġmention ed
Ġtechn ology
Ġp ity
Ġn uts
Ġmy st
ul ate
os en
iz es
Ġatmosp here
T ime
Ġp ow
Ġo w
Ġk ick
Ġlo b
Ġopen ing
Ġnear by
Ġunf air
Ġmater ial
Ġallerg ic
E ng
Ġf ake
ĠM ennad
uck y
Ġwar ning
Ġsmall er
Ġele phan
Ġwall s
Ġed ge
Ġcrowd ed
Ġdepart ment
Ġfinan cial
Ġs en
Ġs ite
Ġe p
st e
Ġexp ression
Ġad j
ĠR oman
Ġatt itude
Ġchar ged
H app
o ot
Ġm ouse
He llo
Ġjust ice
Ġwonder ing
Ġinflu ence
a ul
Ġf ond
Ġshe lf
Ġun iform
Ġcont ent
ens es
Ġpur se
Ġcreat ive
i ver
Ġd ess
ĠA b
Ġpe an
Ġimp at
Ġland s
Ġappear ance
Ġord ers
Ġsymb ol
1 9
H um
f ers
m ar
z ing
at hered
Ġsp are
aught er
Ġign or
L ear
r ite
Ġs illy
Ġl ines
ri al
He lp
ill ing
ust ing
Ġread s
Ġinc ome
Ġins ult
Ġlaw s
Ġdi am
Ġval u
Ġdeser ves
Ġattract ed
ĠPortug uese
re ak
Ġto ys
Ġp ier
Ġback yard
Ġtw elve
Ġsw itch
Ġpoin ts
Ġspl it
Ġbes ide
L ist
Ġp and
Ġh ugged
Ġr ack
ĠC ol
Ġatt ic
Ġcr ush
Ġkill ing
Ġcons cious
ĠCanad ians
r ate
Ġmis under
Ġmis erable
Ġdisag ree
n es
Ġp up
Ġsa il
ĠF or
ĠJ esus
Ġch osen
Ġpre vious
Ġsur gery
Ġje ans
o very
Ġp ounds
Ġo kay
ri g
Ġwor n
ather s
Ġgu ide
Ġsha d
Ġcomput ers
Ġcollect ion
ĠPal est
W atch
Ġwas ting
res p
Ġqu al
Ġcap tain
Ġreport ed
Ġenc our
y a
Ġn od
ver ty
Ġle ct
Ġcom fort
Ġsw ord
Ġpo verty
Ġpres ents
Ġhid den
Ġden y
Ġcop s
Ġyell ing
Ġign ore
Ġlab or
Ġc ong
What ever
Ġhapp ier
Ġsleep s
Ġgradu ate
Ġdeg rees
Ġpassen gers
B et
S e
Ġt ied
Ġs ixt
it ched
Ġun ex
ĠMon days
Ġob lig
Ġassist ant
Ġcompan ies
D es
S ay
Ġp ure
Ġli on
ad ays
ĠA m
Ġv irus
Ġchan ces
li able
Ġcons um
Ġset tle
Ġdist ract
lect ed
Ġindepend ent
F rench
h old
ar c
Ġtr ash
ear s
Ġschool s
Ġold est
Ġtrans port
Ġcal cul
Ġdi ary
Ġself ish
Ġlaund ry
b ack
w ell
Ġl ink
Ġp apers
ĠM orocco
Ġdec l
Ġbro ad
Ġsec rets
Ġquiet ly
Ġcelebr ate
Ġdess ert
d a
h ow
in ating
Ġb order
Ġg re
Ġswe at
Ġocc asion
ĠAfric an
Ġaut umn
Ġcitiz en
Ġimpat ient
p en
Ġw ra
Ġp ond
Ġun con
ĠS a
ang ed
Ġsupp er
Ġdraw ing
Ġplant ed
Ġfif teen
Mar ia
Ġemploy ees
Ġn et
Ġst ream
Ġcr uel
Ġclass mates
we ight
Ġsound ed
Ġnovel s
Ġairpl ane
ed ing
st ances
ul ations
Ġcomp os
Ġfami lies
Ġpun ish
Ġviol ent
Ġteen ager
p ack
Ġv oc
Ġover w
Ġfun eral
Ġrep ut
Ġtri es
Ġcol on
Ġwa ves
Ġg athered
Ġh om
Ġr ow
Ġbl ow
Ġtom ato
Ġexc iting
F in
et ic
ic les
ĠE ast
Ġtext book
Ġtax es
Ġstep s
i ant
Ġm ental
am ent
Ġco ck
Ġrem ove
Ġph r
Ġbill ion
Ġcre ep
Ġhist or
ĠInd ia
Ġperform ance
A ct
Ġal i
ul f
Ġwork er
ag ers
Ġpass word
Ġpun ct
Ġsuitc ases
Ġdirect ly
Ġelectric ity
Ġweap on
Ġirrit ated
H aving
M e
Ġt ip
it ect
Ġlo an
Ġrec over
Ġthrough out
P h
w rit
Ġb unch
Ġc her
am ps
Ġgo d
rom ise
Ġhome less
Ġad ult
Ġcont ains
Ġ1 6
Ġmin im
Ġref er
Ġcor rupt
Ġgif ts
p les
Ġpl ain
Ġex ec
Ġpre c
ĠO r
li ka
Ġbeg ins
ĠIs land
Ġca uses
sh irt
Ġdiscuss ion
Ġincre asing
Ġbark ing
Ġb are
Ġme re
out ef
ir a
Ġother wise
Ġtri al
Ġmajor ity
Ġdescri be
Ġrepe at
Ġnu cle
outef lika
c ous
Ġt ar
Ġw and
Ġbuild ings
Ġgen ius
Ġsix ty
Ġleg al
Ġdraw er
Ġhol idays
Ġrob bed
Ġscient ists
Ġgentle man
ĠUni versity
c ase
t es
w hat
Ġse ar
Ġr out
Ġso ap
Ġsell s
Ġexpl os
Ġlim it
Ġsli pped
2 0
o f
an o
ri a
um ber
Ġshow n
Ġrec ent
Ġtrain ing
Ġdan cer
cept ion
Ġele ment
Ġsol ved
Ġaccident ally
Ġopin ions
Ġflu ently
Ġstri ke
om y
Ġc ough
Ġv ain
ĠC O
ĠT an
Ġperson ality
ĠN ow
Ġadv ent
Ġuni que
Ġbeha ve
Ġcigaret te
S uch
n s
Ġt ense
Ġb ra
Ġc art
ot i
ann a
Ġsc are
Ġshow ing
iv ity
Ġhead s
Ġreg rets
Ġbox es
Ġpri or
Ġappro ach
Ġhob by
b oy
Ġc ine
Ġset t
Ġtop ic
Ne xt
Ġda wn
Ġhig hest
Ġfrequ ently
Sha ll
M en
Y eah
Ġf ile
Ġg ained
Ġh orn
ic ians
Ġme chan
Ġthere fore
ĠS y
ath s
Ġprom ises
Ġrain ed
Ġarch itect
Ġdiam ond
r ot
Ġw ound
Ġto y
Ġl ingu
Ġre ly
Ġsa ke
Ġpart ner
ĠIslam ic
Ġcol ors
Ġprod uce
Ġphot ograph
Ġmult ip
Ġconstruct ion
Ġgrandpa rents
Eng lish
g le
Ġb ul
ic hes
al es
Ġpl astic
itt ee
ag ger
Ġbr and
Ġbl amed
Ġstr uct
Ġev ents
Ġclot hing
Ġgener ally
Ġunl ucky
Ġcitiz ens
B l
Ġt iny
er k
Ġm ud
Ġf og
Ġj unk
Ġmet ers
Ġsn e
Ġent husi
Ġsuggest ion
Ġwis dom
Ġweap ons
Ġvalu able
b um
o lf
Ġf est
Ġhe l
Ġan ge
Ġun re
Ġmake up
Ġla wn
Ġpres ence
Ġsil ver
g en
s ive
Ġt i
in o
Ġbe gged
Ġse ats
Ġal tern
han d
Ġcom ments
ĠF in
Ġdis m
Ġact ress
Ġrequ ire
Ġincre ased
Ġindepend ence
Ġresc ue
Ġblank et
Ġmyst ery
3 00
T e
k in
Ġth roat
ot t
ch ool
Ġno isy
Ġapp lied
Ġfell ow
Ġtor t
Ġfoc us
Ġsac ri
Ġpil ot
Ġconserv ative
er ves
Ġsing s
Ġinv itation
Ġent rance
ĠUn ion
Ġsecret ary
Ġsex ual
e ath
t ies
Ġli qu
ut ions
Ġauthor ity
Ġintern et
Ġresour ces
t i
Ġre ven
ol ves
Ġdec la
ĠW est
Ġprep aring
Ġ5 0
Ġcustom er
Ġneg ative
Ġfant astic
Ġbetray ed
Ġmathemat ics
V ID
h i
m s
ort ed
Ġqu een
Ġbelie f
Ġbre aking
ĠH ol
Ġloud ly
Ġfuck ing
stand ing
Ab out
Ġsquir rel
Ġunemploy ed
Ġunex pected
P ro
Ġb oo
Ġfor b
ent er
Ġus eless
Ġ1 1
Ġhur ried
Ġscient ific
Ġbell y
F irst
s ion
Ġme als
Wh ite
em ic
Ġdan ced
Ġhum or
eal and
Ġma id
Ġconsider ing
Ġpersu aded
ĠZ ealand
Ġlat est
g on
w h
Ġr ushed
oun ts
Ġdis aster
Ġgr ade
Ġgr anted
Ġarri ving
ĠY ear
Ġrequ ires
Ġpost p
Ġorgan ized
Ġru in
List en
Ġsixt een
Ġreput ation
d own
m it
Ġro de
Ġbr ush
Ġremem bers
Ġve h
Ġtal ent
Ġimm igr
Ġord inary
Ġtradition al
Ġindivid ual
K en
Ġne are
Ġj og
og ram
ĠP ol
Ġmill ions
gar ian
Ġrob ber
Ġpu ppy
Ġmann er
C omp
Ġb omb
Ġm erc
Ġn ons
Ġha un
at hetic
ot ion
Ġst ro
Ġsp in
el ie
Ġar rog
Ġcont est
Ġbeg un
Ġ19 8
Ġpub lished
Ġgrad es
Ġimpro ved
Ġcompet ition
Ġfort un
eor ge
Ġslight ly
Ġinstruct ions
C he
a ired
Ġthe rap
Ġh iking
ur d
Ġpre fers
Ġsk ills
erv ation
Ġabs or
Ġfield s
Ġaut om
Ġdoc uments
Ġsear ched
Ġl ength
Ġin str
le x
Ġtr ap
ĠB ible
ive red
ĠW estern
Ġconf essed
Ġexc hange
Ġsub s
Ġdem ocracy
Ġstate ment
bo x
Ġliter ature
Rem ember
Ġeld er
Ġgrou ps
u ine
y al
Ġc ases
Ġo x
st ick
ro l
Ġen velop
Ġimag ination
Ġsandw iches
Ġur gent
ĠTh urs
Ġpoin ted
Ġcand id
N ew
b ly
Ġl oose
Ġg or
Ġst ates
ast s
Ġover weight
Ġwat ches
ĠT ues
Ġper haps
Ġdifferent ly
Ġhuman ity
Ġclim bing
Ġcine ma
Ġst un
Ġfor ces
Ġit em
Ġdis s
Ġche aper
Ġsurpr ising
Ġvac c
on se
ac ts
out hern
ter ing
Ġinv ented
Ġser ies
Ġhun ting
Ġkid ding
Ġtreat ment
ĠMar ia
Ġsmo oth
g in
k rain
Ġ When
Ġd im
Ġn a
ot ic
Ġst ays
Ġwh ist
Ġmet al
Ġgreat er
Ġsent enced
Ġdep ression
Ġer ror
go ing
Ġoper ation
Ġghost s
Ġs ides
on a
Ġm obile
or rect
Ġgo als
Ġmy ster
Ġal bum
Ġexpect s
Ġass ign
Ġins ane
Ġ19 7
Ġpur s
Ġneg oti
Ġhomes ick
allow een
Ġreject ed
ĠCO VID
C on
H old
Ġw ounded
Ġh i
ut ch
Ġwhere ver
iss ed
Ġplan ets
Ġdisapp ear
Ġresp onse
Ġdiv ided
Ġlean ed
Ġdemon str
C ats
E m
R uss
c est
m ony
Ġas soci
Ġbl ess
ĠO s
Ġadd ition
Ġbaby sit
Ġmem or
Ch ina
Ġsusp ended
Ġemot ional
Ġrab bit
Ġcooper ative
ĠKy oto
er o
Ġre liable
ĠJ uly
ific ation
Ġheav ily
Ġdisappoin t
Ġlect ure
F ather
M uslim
r im
Ġp ink
ĠO n
Ġcr ash
Ġswim mer
Ġref orm
Ġyell ed
ĠQ ue
Ġdam aged
Ġprin cess
Ġmic ro
he art
Ġas ide
Ġal p
Ġsee k
ann ed
Ġcl ar
Ġbl o
Ġbeing s
Ġsn akes
Ġsince re
Ġdire ctor
Ġpuzz led
Ġpill ow
Ġwra pped
oo p
pp ers
ĠS wed
Ġam bit
Ġbr ings
Ġnight s
Ġacc ustom
ĠH un
Ġsl am
Ġbreat he
Ġintellig ence
Ġmeas ure
Ġcircum stances
A h
m ic
Ġb ab
Ġsc reen
Ġstr ate
Ġtre as
Ġra w
Ġfac ing
Ġoverw hel
A d
B u
Ġp in
Ġo ven
Ġth rown
ac le
ist ry
Ġown ed
Ġland ed
Ġopt ion
W rite
w ood
Ġm ask
Ġn ations
ad a
Ġj azz
ge ous
Ġsome what
Ġspe ll
ĠC al
Ġlast ed
Ġmay or
Ġmedic ation
Ġcommunic ate
apt op
Ġenvelop e
Ġg ather
Ġkn ee
ge on
Ġim age
Ġgu est
Ġput s
Ġ1 4
Ġrep aired
Ġdeal ing
Ġsecond s
Ġcous cous
Ġconver t
Ġgramm ar
Ġjew el
Ġconsequ ences
Ġ eth
Ġd ict
Ġl aptop
Ġg ang
Ġg az
et ch
Ġr ush
Ġtr unk
ol ic
Ġchan nel
Ġcomm ittee
Ġent ertain
Ġca f
Ġpolit ician
Ġmag ic
Ġaccomp lish
Ġtool s
ĠTur k
Ġcere mony
Ġphilos oph
a res
e br
r ast
he w
ha i
Ġc raw
Ġbe lt
Ġj un
Ġv ot
Ġro cks
Ġkind ness
Ġfr uits
Ġrel atives
Ġgi ant
Ġmos qu
Ġproduct ion
Ġess ential
Gir affes
r ict
Ġd ated
ar ant
Ġsp ider
ĠB l
ĠB udd
ĠC on
Ġ1 3
Ġyoung est
Ġset ting
ric ult
Ġdoll ar
Ġmot ion
Ġlead s
Ġhundred s
Ġsymp athetic
Ġlob by
b rew
j ud
m ind
v ant
ĠJ ane
ĠM arch
Ġcons ult
Ġsign s
Ġexist ence
ĠThurs day
H i
l ace
s pe
Ġ X
Ġf ate
Ġsh ift
ĠA ll
Ġshould ers
ĠJ an
ĠM ed
Ġ2 5
Ġsk irt
Ġsn ake
ever al
Ġrain y
old ed
Ġbreat hing
Ġrepl aced
ograph y
Ġunl ocked
Ġnucle ar
M om
Ġs que
Ġd uck
es ome
Ġan cest
ur ry
Ġcomp ared
Ġsc en
Ġtrain ed
Ġdoub ts
Ġhor ror
Ġbeat en
Ġprov ided
Ġincred ible
o ff
u fact
as p
ly mp
alk ing
Ġad ults
Ġinterest s
oc rat
Ġinform ed
Ch rist
Ġeffect ive
Ġbal ance
Ġrelie ved
Ġmix ed
Ġtroub led
ĠTues day
T atoeba
b ow
r id
Ġ i
Ġt ire
Ġb ars
Ġgo at
ĠP lease
Ġmin ister
Ġprincip al
Ġsignific ant
om pl
ic ip
Ġint im
ĠM in
Ġacc ur
ĠH alloween
Ġimport ance
Ġexper iment
Ġrestaur ants
Al most
en er
Ġsp ite
Ġbl ocked
Ġroom mate
Ġrec overed
Ġmass ive
Ġrelax ed
Ġsepar ate
Ġshout ed
Ġast on
Ġaccustom ed
k ward
Ġs ir
Ġkn ees
ook ie
ab or
Ġor bit
Ġover come
Ġaw kward
Ġir re
Ġer r
Ġaffect ed
Ġrelative ly
G u
it able
or ough
us ive
Ġperson ally
Ġpass ing
Ġcons ists
Ġweekend s
Ġappro priate
Ġfro zen
Kaby lie
Ġpand emic
w ater
Ġd ried
ri an
Th ink
Ġv ase
iz zy
Ġsw am
Ġacc ompl
Ġ1 7
gg ing
Ġdress es
Ġgener ation
Ġtext ed
Ġsens itive
Ġna ive
J im
O K
S everal
Ġw ha
Ġf ol
ac her
ib i
Ġmove ment
Ġca using
uc ked
Ġarg ued
Ġrepl ied
Ġscient ist
Ġbas ic
Ġrum or
Ġcapt ured
Ġnons ense
I nd
M other
p ite
om as
Ġsh ore
ag het
Ġgr ap
Ġfl ies
When ever
Ġapp eal
Ġhead ing
Ġtall est
ja ia
Ġvict ory
Ġinsect s
aghet ti
O pen
on est
Ġc aut
Ġpr ide
ath y
ĠO lymp
Ġfar mer
Ġadv ise
Ġred uce
Ġgrow s
Ġbot hered
Ġris ing
Ġdev il
Ġbother ing
oph one
Ġpainting s
Ġvolunte er
G erm
S A
l ings
Ġsp ect
Ġex agger
ast y
Ġlo ver
Ġgr ay
Ġimp act
Who ever
Ġtrain s
Ġchar ming
Ġheart b
Ġbat tery
Ġcross ing
Ġenc ouraged
Ġextra ord
Ġrac ist
Ġreact ion
j am
Ġb one
Ġp ess
Ġan k
ĠA re
os aur
Ġv ul
Ġkill er
Ġind eed
Ġpat ients
Ġsold ier
Ġconst ant
Ġdetect ive
B aya
h y
Ġ ing
Ġs ore
Ġd rowned
Ġst aff
ab ul
Ġch ips
ck ets
Ġpe el
ĠN or
Ġposs ess
Ġsoft ware
Ġcance l
W ater
Ġ White
Ġp ressed
Ġn ic
Ġbe ars
Ġfor med
Ġtr apped
Ġv oted
Ġint ent
Ġman ufact
Ġqu arter
Ġgu arant
Ġmost ly
Ġachie ved
Pol ice
Ġrepres ent
Ġrapid ly
Act ually
r ont
in ts
on ic
Ġf art
am s
op her
Ġun p
Ġun known
ĠJ ust
au c
Ġcr ashed
ens ion
Ġmiss es
ĠU krain
St ud
Ġdark ness
Ġcow ard
Ġneck lace
Ġcarp et
Ġlad der
Ġchem ical
Des pite
' .
r ant
s p
u ght
Ġf rog
Ġwas ted
ill a
od ies
Ġwhe at
Ġun conscious
ist ent
Ġco inc
Ġtw ins
ĠT han
Ġdec ent
Ġdri ven
Ġfo x
Ġadv anced
Ġtrans fer
Ġchar ges
Ġsy m
Ġworry ing
Ġpost ed
Ġess ay
Ġapplic ation
a ult
v y
ed nes
st ead
ant a
ul ed
ĠK en
Ġsk ill
Ġpain ful
Does n
Ġeffect s
Ġengine er
Ġdel ivered
Ġflash light
Ġneare st
Ġhaun ted
Ġfortun ate
Ġw ings
Ġw olf
Ġl ugg
Ġp ed
Ġp ork
am ing
Ġbl ond
ĠHe brew
Ġlead ing
Ġrespect ed
Ġlim ited
Ġbott les
Ġbow l
Ġdia lect
Ġpup ils
ĠPalest in
Ġminim um
Ġexplos ion
Ġlugg age
R ec
a id
i at
t ar
Ġ Where
Ġto ast
Ġm ort
Ġh ook
Ġbe ating
Ġe ase
Ġpl at
and al
Ġag es
age ment
Ġad vert
ĠP l
Ġgir affes
Ġsho e
ĠH aw
Ġlight ning
Ġinter rup
Ġinter pre
ĠJew ish
Ġdefe at
F ind
o j
o ly
Ġw ave
Ġd izzy
Ġm ent
Ġc as
Ġc ode
Ġg rav
Ġn orthern
if orn
Ġabs ence
Ġsnow ing
Ġcent re
Ġwood en
Ġrecomm ended
S c
i ber
o es
Ġd il
is hes
Ġp ages
Ġv o
ĠL e
Ġaw esome
Ġpri est
Ġform s
Ġbutter f
Ġincred ibly
Ġbran ch
D ad
Q u
u a
Ġn urs
Ġth orough
al t
Ġex ists
Ġpro ved
Ġwait er
ang es
Ġrem ote
Ġstop s
Ġmem ories
ĠEgypt ian
Muslim s
L ike
S oon
Ġa id
an as
ve y
Ġsa x
Ġch ief
Ġback pack
Ġour s
uct ion
Ġdifficult ies
Ġca fe
Ġce iling
Ġappro ve
ĠSun days
Ġste ak
Ġaccomp an
Ġdisg usting
Ġastron aut
stit ute
ĠMexic o
hab et
Happ y
Ġhel met
ĠHol mes
p es
Ġt it
Ġp ipe
as ks
Ġha st
Ġis ol
Ġgo ds
ro ph
Ġse m
Ġr at
ĠD utch
Ġbit ch
Ġcomple ted
ph ones
Ġdev ast
Ġshoot ing
Ġinvestig ation
Ġcontr ad
Ġow es
Ġambit ious
iforn ia
E at
c ope
Ġd er
Ġb itten
Ġst amps
ul a
ĠB r
ist ics
ous ly
ud ed
Ġro lled
Ġco ins
Ġsupp ly
Ġsha lt
ĠW ednes
Ġgen uine
Ġopp on
Ġprot est
Ġregret ted
ĠTr ump
Ġdiplom atic
Ġded icated
Ġnod ded
ĠOs aka
abul ary
B ill
Ġf iction
en ess
Ġin it
al ent
Ġv ast
Ġexp and
Ġcr imes
Ġter rit
Ġprop osed
Ġ4 0
Ġspec ific
Ġregular ly
Ġelephan t
Ġforb id
" ?
g ain
Ġw anna
Ġs arc
Ġl amp
Ġre ward
Ġsa iling
ĠC ar
Ġpr ince
Ġwat ers
ĠG u
Ġres ident
Ġass ured
Ġcut ting
Ġlead ers
Ġnewsp apers
Ġprev ented
Ġmann ers
App arently
Ġvoc abulary
ebr uary
Ġle mon
nd er
ol ve
Ġide al
ĠBer lin
Ġclass ical
Ġob st
Ġhold s
Ġgun sh
Ġtyp ical
Ġpoll ution
M oney
Â ł
Ġw ig
Ġg reed
Ġin her
le y
Ġre ck
st ore
Ġsp aghetti
Ġun e
ud den
Ġbu cket
Ġtalk ative
Ġapp et
Ġcontin ues
Ġcup s
Ġchair s
Ġdev oted
Ġcell phone
ĠInd ian
Ġpred ict
Ġmeas ures
Ġet ern
Ġjewel ry
J ane
W ork
f all
Ġs ib
Ġn ail
Ġbut t
Ġcl in
Ġcha in
Ġadm in
Ġveget arian
Ġremind s
Ġactiv ity
Ġham mer
Ġpean uts
Ġsett led
ĠTurk ish
g ment
Ġw iped
Ġsp illed
Ġsupp lies
Ġsit s
Ġclose ly
Ġdeb ate
Ġble eding
Ġanx iety
Ġscrat ch
S ure
Ġp ays
Ġn ut
st ers
oo ps
ro ken
Ġhar vest
ĠR ep
Ġfour th
Ġris ks
Ġcow s
Ġthrow ing
Ġdescri bed
Ġmultip le
ogram s
h ole
k ind
u ise
u als
Ġt ag
is her
Ġb arn
ur ning
Ġman ip
Ġlo ving
Ġph ones
Ġmus h
Ġref uge
Ġhum ili
Ġdist ingu
Ġfollow s
Ġval id
Ġobs essed
Ġpurcha sed
Ġfest ival
Ġdecla red
ĠJan uary
udden ly
Ġf uss
Ġst ink
Ġli p
os ity
ĠM id
Ġpr ime
Ġfl ed
Ġ2 4
pr ing
Ġvisit ors
Ġexc used
Ġins p
Ġroad s
Ġsupport ive
Ġinvest ment
oll ey
Ġcharac ters
Ġ200 4
ĠBrit ain
Ġfoc used
Ġvictim s
Ġbud get
Ġath let
Ġgor geous
C le
O ver
i ation
Ġha bits
Ġe uro
Ġst ew
ke ep
ro ll
Ġfl ir
Ġfl our
Ġexpect ations
iet h
Ġsol id
Ġtast ed
Ġsend ing
Ġappreci ated
Ġhell o
Ġearn ed
ĠTur key
Ġarr ange
Ġshad ow
Ġdistract ed
Ġgre y
Ġalp habet
Ġmush room
r is
Ġ u
Ġ His
Ġc ared
es h
Ġwor ries
Ġv olley
How ever
Ġqu e
ĠO ne
Ġswim s
Ġadd icted
Ġuni vers
Ġcult ural
lo ad
Ġpray ed
Ġliter ally
Ġgreet ed
Ġtar get
ĠHun garian
Ġphilosoph y
N A
p ts
x ic
re ls
Ġp ills
all ey
Ġar med
Ġinc orrect
Ġsun ny
Ġterri bly
Ġtext ing
Ġcompet itive
Ġtyp es
Ġconnect ed
ĠHow ever
Ġdele ted
S u
Ġw est
Ġd row
is a
Ġg al
Ġwe b
Ġse ction
ct ic
Ġcom ic
res pect
ious ly
Ġsk ating
Ġtrans form
Ġexam s
Ġfall s
Ġstore s
Ġbri ll
Ġpoem s
Ġsen ior
Ġtreas ure
ĠCal ifornia
c oming
i vers
o ons
Ġs ou
Ġs orrow
er ous
Ġc rew
Ġan al
Ġse as
ce mber
ist an
Ġv ir
Ġag ricult
Ġlet ting
Ġsc ore
Ġgun s
ĠAs ia
Ġident ity
Ġdesign ed
Ġsearch ing
ĠBudd h
S uddenly
a ire
y e
Ġw id
Ġm al
Ġn asty
Ġst abbed
We lcome
est ic
Ġint rig
ĠM a
ĠM os
Ġexp ressed
ĠC D
ans l
Ġact s
angu age
ug ust
Ġpick ing
Ġexcept ion
Should n
Ġindust rial
Ġamb ul
ĠSal ima
Ġpow ers
mind ed
Ġank le
ĠWednes day
Ġvolley ball
Ġp itch
Ġso il
Ġint ense
ound ing
Ġch op
ck now
ĠM ira
ĠC ity
Ġcomp lim
Ġdis pl
Ġbuy s
ĠG reat
ĠP e
ĠP ro
Ġper man
Ġfore head
Ġdemand ed
Ġsne ak
R es
is p
Ġl ung
it an
im ately
Ġgo ats
Ġcon qu
ĠF ebruary
Ġnow adays
ĠC ath
Ġmo ves
Ġph oned
Ġpain ter
Ġsit u
Ġanswer ing
Ġsub way
Ġren ted
Ġpot ential
Ġincl ude
Ġbull et
ĠBe jaia
Ġcab in
ĠKore an
Ġdelight ed
Ġshel ter
Ġestab lished
Ġa cknow
Ġb ac
er ry
Ġn ails
at ically
Ġth under
Th ough
Ġback ground
Ġsha king
Ġsn oring
Ġlist ens
Ġ20 2
Ġmen u
Ġhor iz
Ġsafe ly
Ġpract ical
Ġequ ip
Ġskin ny
Ġemot ions
Ġdeli ver
cher s
Ġut ter
Ġstrang ers
Ġpunct ual
Ġintim id
I m
i que
m ark
Ġcan dle
Ġout do
ĠB outeflika
ie ce
ĠM oses
Ġcar bon
Ġgr ab
Ġsha ke
Ġhat h
Ġhat s
Ġconst it
Ġresc ued
Ġconven ient
Ġvers ion
Ġarrog ant
Ġvo ices
Ġp i
ig hed
Ġbr ace
Ġpa rent
Ġpo ker
ĠY id
ific ial
Ġcollect ed
Ġver b
Ġconnect ion
Ġcommunic ation
Ġcarp enter
p ered
u ces
y l
as m
Ġg amb
Ġbe ans
le ction
up iter
Ġex hib
Ġpro hib
Ġen orm
ra ham
Ġco in
Ġsw itched
Ġpo ckets
av y
ĠV en
Ġnorm ally
Ġorgan ization
Ġgold en
Ġlock er
Ġaffect ion
G r
Ġt ank
Ġs ed
Ġb ent
Ġb ass
al m
Ġsa uce
Ġte ar
ĠB ar
ĠF u
itt y
Ġfun ction
Ġser ving
Ġsto ve
Ġdream ing
ony m
Ġrepe ated
por ary
ruct ure
Ġunw illing
Ġjog ging
Ġambul ance
A ust
a wn
b ur
Ġ ...
Ġt id
re te
Ġl ux
Ġte les
ol es
Ġvis a
Ġgreat ly
Ġem br
Ġdisc over
Ġconc er
iet nam
Ġprotect ion
Ġ3 00
orth y
har m
Ġobject s
Ġphys ics
Any one
Ġ199 0
Ġcand les
Ġthri lled
Ġreven ge
Ġaccompl ished
m ade
Ġl aughter
Ġdo zen
Ġst ing
Ġsa v
Ġshe ll
ĠE l
ĠE aster
Ġwin s
ĠN ot
ĠN ational
Ġdisc ount
Ġind ic
Ġprod uced
Ġsuper ior
Ġoffic ials
cha ir
Ġban anas
Ġbal con
ĠDe cember
Lear ning
Ġpunish ment
Ġjun ior
ĠHaw ai
U se
i ro
w ar
Ġto re
Ġf uel
Ġf ulf
Ġwe l
ent h
Ġse vent
Ġsp oon
Ġmus ical
Ġconv icted
Ġpost c
So ci
Ġren ew
Ġsle e
Ġpeace ful
Ġpriv acy
Ġcous ins
Ġtor n
Ġpan ic
ĠJew s
5 0
S it
Ġb ones
Ġc ure
Ġn erves
Ġan g
Ġh itting
ay ing
Ġe c
im ated
Ġst able
Ġsh ining
Ġr ust
Ġr ug
Ġtr ail
os is
Ġim am
Ġcle ared
Ġvis ion
Ġhur ting
Ġinter rupt
land s
Ġbring ing
Sh ut
Ġtour ist
Ġactiv ities
Ġfasc inating
Ġcigaret tes
writ ing
F r
f ire
r ots
u cy
in ter
Ġc akes
an es
Ġg all
al i
st ep
Ġse ctor
Ġshe et
Ġle ather
Ġcon cept
ĠM an
ĠR om
Ġcha p
oin ted
Ġreg ister
Ġsy n
ik a
Ġant icip
Ġattempt ed
Ġti ger
Ġerr ors
Ġpess imistic
Ġbrill iant
B oston
H urry
S end
v a
Ġ ult
Ġs an
as ive
Ġe ast
ĠB ak
ĠB el
Ġup d
os y
Ġsome how
ĠE very
Ġdis like
Ġcons cience
az id
ef ully
erc ury
Ġbehav i
Ġcong rat
a ves
c ery
f ish
j o
Ġg ig
ac les
Whe ther
Ġatt ached
Ġprom otion
lic op
Ġaff airs
Ġcent ral
Ġcheck ing
Ġimag ined
Ġvar iety
Ġrev olution
Ġfasc inated
Ġfold ed
Ġange l
Ġmosqu it
Ġequip ment
Ġbalcon y
) .
C ar
f le
Ġw itch
Ġf ab
le te
Ġher s
Ġtr ump
Ġal ike
up s
Ġcom mer
ĠS ome
Ġor anges
Ġpre cious
Ġpre jud
ĠE m
Ġdec ades
Ġfood s
ĠY azid
Ġfool ed
Ġvol c
de rer
Ġadop t
Ġemot ion
Ġpoet ry
Ġremark able
Ġprec ise
Ġslam med
B ob
S cient
t ains
x icated
re g
Ġd ies
Ġc ries
it a
Ġn ick
Ġgo ss
ren cy
Ġag ent
Ġinto xicated
Ġgl anced
ĠN et
ord ers
ĠD ad
Ġpolit icians
Ġeduc ated
Ġassist ance
ĠIntern ational
Spe ak
Ġrobber y
ocrat ic
Ġextraord inary
b b
g ian
l ock
as ant
Ġg ender
un ched
op aths
ĠS ha
ĠC ha
Ġdis or
Ġsc andal
Ġsure ly
ord s
Ġconf l
Ġinf rast
Ġsun light
Ġtick lish
Ġdiscuss ing
Ġnecess arily
Ġmark s
Ġtrick s
Ġstat ue
Ġparticip ate
Ġveh icle
Russ ia
Ġto ne
Ġp unch
Ġhe licop
Ġbe ef
ĠB rown
and om
row s
Ġele ven
Ġdist ant
Ġtransl ating
Ġpract icing
Ġinj uries
Ġmur derer
Ġgrad ually
Ġmain tain
Ġunc ertain
Ġsuit able
Ġenv y
ograp her
Ġdirect ions
Ġest ate
Ġprim ary
Ġstun ned
Ġcoinc idence
O b
Ġs outhern
Ġb odies
Ġp ear
Ġbe e
ad an
Ġas se
Ġwor ship
il a
Ġfe ars
Ġover s
Ġdis respect
Ġsc rap
Ġsha de
Ġmon key
Ġfair y
Ġban ana
Ġchem istry
Ġcher ry
Ġdil ig
ĠFu ji
b ar
r s
w alk
Ġm ild
Ġc ust
Ġhe al
Ġn in
Ġst amp
ce l
Ġr ings
Ġdis ple
Ġaw ard
ount ain
ĠR am
Ġdec re
Ġdri vers
Ġfun dam
Ġmon ster
Ġsl ice
Ġcook ie
Ġbicy cles
Ġinst ant
Ġembarrass ing
Ġauthor ities
Ġfarm ers
Ġopportun ities
Ġdel ayed
Ġwa ved
Ġsepar ated
Ġarr anged
hara oh
Ġcaf eter
jam as
Ġsax ophone
Ġaccompan ied
F ew
L uck
ed ient
Ġl ap
Ġo d
Ġint ends
Ġsc i
Ġaw fully
Ġvis ible
Ġconf ess
ept ember
ĠV ietnam
Ġprison er
Ġappro ached
Ġforeign ers
oll ow
Ġring ing
Ġscream ed
Ġlift ed
Ġstrugg led
Ġmater ials
Ġmut ual
Ġtomato es
Ġheartb roken
d ers
o ided
x ual
Ġ Your
Ġt une
Ġin ha
Ġst ir
Ġfor k
Ġj ar
Ġde er
ĠC l
Ġcomp ass
ĠP er
In stead
be c
Ġexc l
Ġav oided
Ġclos est
Ġdevelop ing
Ġz ero
Ġrecord ed
ĠAn ne
Ġhy d
Ġdesp ite
Ġsales man
Ġdefe ated
Ġcheek s
Ġreve aled
Dr ink
Ġcollap sed
Ġlands cap
Ġconscious ness
Ġvul ner
O r
en a
Ġp ace
ĠI D
ac ity
ĠA ugust
Ġexp enses
Ġtw in
Ġgu ards
ĠG rand
pr ints
Ġhun ger
Ġwind s
Ġwar mer
Ġhair cut
Ġsun set
ĠThe n
Ġtem ple
ĠSp ace
Ġpray er
Ġearn s
Ġlevel s
Japan ese
Ġinfrast ructure
p ut
u z
or able
Ġp our
ri er
Ġne p
un is
la im
ĠM oon
Ġco al
Ġbr ushed
Ġhand writing
Ġinc omp
Ġdisc overy
work ing
Ġes c
Ġpack ing
Ġcritic ism
Ġgro cery
ĠKore a
Ġsarc astic
c ies
c uff
m ad
ha da
Ġin ex
ac ing
ch ildren
Ġr age
Ġv ent
ĠS ov
Ġcar ries
ĠC ent
Ġbl owing
Ġhar sh
iss ors
ĠG reen
Ġpret t
ĠW ashing
Ġfix ing
Ġpick y
Ġsystem s
Ġship s
Ġview s
Ġcrit ical
Ġresign ed
Ġstrugg ling
Ġdia gn
Ġscar f
Ġweigh s
Ġadmin ist
ĠSov iet
ĠWashing ton
J ud
c orn
Ġy og
id a
et te
ir ds
Ġr ange
Ġrec ipe
Ġpass es
Ġsn ee
Ġsub st
Ġcost ume
Ġdeser ved
Ġserv ices
Ġrev iew
Ġqual ified
Che ck
Ġplat form
ĠCath olic
Ġcafeter ia
H op
R ight
a ign
b reak
r ating
v able
Ġd ates
Ġm ile
it ated
ĠS eptember
Ġlong est
Ġlot tery
Ġbl og
Ġsha hada
Ġcount ing
Ġarri ves
Would n
umb led
Ġopp osed
Ġty ph
Ġinj ury
Ġremind ed
Ġmyster ious
Ġsym pt
i ar
w ife
Ġ era
Ġs oph
om ers
Ġd ough
Ġp it
ir med
Ġsh irts
Ġab use
art y
Ġor phan
Ġro ot
ag on
Ġsc olded
Ġac id
app ro
Ġshort ly
Ġdra wn
Ġrequest ed
Ġmer cy
Ġbenef its
wh ile
Ġelder ly
ĠQue en
ĠMid dle
Ġenorm ous
Ġbehavi our
Ġgoss ip
U nder
W ow
m are
Ġd ump
Ġst ones
ac ific
Ġpro ceed
Ġlo ad
ĠS at
ĠL ib
ag ram
ose ph
Ġvisit s
Ġarri val
Ġfig ures
Ġmod est
Ġtravel s
Ġeff icient
Ġstar ved
Ġintell ect
Ġur ban
Ġdeb ts
Ġfan cy
Ġlog ical
Ġlad ies
Ġbenef it
Ġappet ite
c ling
l ive
Ġa x
Ġf ans
Ġf aint
Ġhe athers
al og
st ood
ut o
Ġwant ing
Ġex ceed
Ġres in
ĠP aul
Ġbre ast
Ġfast est
Ġcomplain ts
Ġjump ing
chie f
Ġsmo ked
Ġstrawber ry
Ġstrawber ries
ĠSa hara
Ġsubs cri
Ġgal ax
ĠBak ir
Ġnep hew
f ree
Ġs ust
Ġto ss
Ġd read
Ġb ore
Ġpe pper
ag ne
Ġnight mare
ĠP haraoh
Ġstand ard
Ġart ificial
.. ."
lo aded
Ġund erest
Ġdepend ent
Ġadvent ure
Bu y
Ġclin ic
Scient ists
W on
w s
Ġd orm
Ġp ine
un ci
Ġwith d
Ġr andom
Ġen s
ite ment
ian ce
Ġbr ick
Ġhouse hold
Ġhand cuff
Ġprom oted
ok o
Ġhigh way
Ġset s
Ġpat tern
Ġpen al
Ġtemper atures
Ġfilm s
Ġtun nel
Ġstruct ure
Ġliqu id
Ġaccur ate
ĠRep ublic
H and
S w
in na
Ġd ug
Ġb orders
Ġm amm
Ġf are
Ġf ier
Ġy e
Ġp orn
Ġsp iders
ĠS w
Ġop era
Ġsur ren
Ġfew er
Ġsub ur
Ġpar rot
Ġclos ing
Ġserv ant
Ġburn t
Ġcamp aign
Ġpray ing
Ġrese ar
Ġstrugg le
Ġliber ty
Ġbab ies
Ġstrate gy
Ġconfl ict
Ġt ies
am al
Ġr ural
Ġlo yal
Ġdr ama
Ġsw all
Ġfa ults
Ġart icles
Ġtrave lling
Ġcent uries
Ġinst it
Ġinst inct
na pped
Ġexpl ore
Ġapolog y
Ġign oring
Ġcir cle
Ġtroub les
Ġencour age
Fin ally
Ġphr ase
oj ban
Ġvulner able
? !
H aven
M on
f ive
g age
er ior
Ġsu its
Ġtr oops
Ġsp y
Ġag rees
ĠJ ac
ĠM o
ĠM t
Ġdr ain
Ġsc issors
ĠT o
Ġhand led
Ġatt orn
ĠN ove
Ġdifferen ces
Ġass ault
Ġquick er
Ġpop corn
Ġappro aching
Ġbat ter
Ġrob ot
Ġnatur ally
Ġexperi ences
Ġcontrib ute
Ġorigin ally
zer land
wit zerland
Ġignor ance
Ġuncon v
Ġdisple ased
ĠNove mber
l ife
p ing
r ane
v is
Ġp harm
Ġn est
Ġth us
Ġsu ck
han ded
Ġex it
Ġout s
Ġhapp ily
ĠJ im
Ġla unched
Ġprotect ed
Ġski pped
Ġcelebr ated
Ġperform ed
Ġprincip les
Ġsque e
Ġgreed y
Ġflir ting
Aust ral
F uck
u an
om ic
Ġg um
Ġwas hes
ri e
Ġne at
od ed
est yle
ĠC omm
ĠR e
Ġkid n
Ġkid napped
Ġent ering
Ġwar ming
Ġfore cast
Ġbur gl
Ġsuff ers
Ġsched uled
Ġinclud ed
ĠBrazil ian
Ġconcl usion
Ġconcent rate
ĠCol umb
Ġdecl ined
Ġtit le
ĠRam adan
Hop efully
A dd
h op
w an
Ġb ald
Ġf oss
oo gle
You ng
ate ll
Ġpro sper
Ġbu g
Ġgr in
Ġres ervation
ĠP acific
Ġstr and
con t
Ġdes c
Ġcat tle
ys is
Ġpres cri
Ġadm its
work s
Ġsecret ly
Ġrecord s
Ġcontact ed
Ġrese mb
Ġpsych iat
Ġretire ment
Ġdistur bed
Ġignor ant
Ġforbid den
Ġsib lings
Ġtrump et
G l
Ġt ires
ou der
Ġd irt
Ġb un
Ġb art
Ġb anned
Ġm um
Ġp ir
Ġbe es
ĠI I
se c
Ġj ury
Ġun imp
and a
Ġcar rots
Ġcomp romise
Ġafter wards
Ġcount ed
Ġend ing
Ġsn ack
Ġconf irm
Ġcoll ar
Ġbreak s
Ġcor por
Ġstrong ly
hen omen
Ġpun ched
Ġallow s
Ġsupport ed
Ġcop e
Ġtow er
Ġshop s
Ġprofess ion
ĠAs ian
Ġchallen ges
Ġimpress ive
Ġrail way
Ġinsp ired
Ġnick n
Ġhelicop ter
A v
b ul
f oot
r ough
t ub
w orthy
Ġre ception
Ġcl iff
ĠC ong
ress ing
Ġdr am
Ġhar ass
Ġ2 1
Ġinv ent
Ġret urning
less ly
Ġref lect
St art
Ġexc han
Ġexc ess
Ġexper ts
Ġdead ly
Ġtest ed
Ġpur ple
Ġdest ination
Ġbull ied
ung le
Ġdemand s
Ġshout ing
Ġcho ices
Ġpronoun ce
Hum ans
Ġcreep y
Ġcorrupt ion
Ġinstr ument
Ġoverwhel med
ĠUkrain e
Ġunimp ressed
e el
s pect
Ġt ends
ha l
om in
om er
Ġd ial
ed y
Ġf aced
Ġp enn
us ic
Ġsh ots
Ġal ibi
ĠM ad
Ġunt o
ĠH ind
Ġexam ples
Ġsim pl
sh ine
Ġserv ants
Ġeight een
Ġlim its
Ġinnoc ence
Ġspir its
Ġhesit ate
ĠAt l
Ġmere ly
Ġoppon ent
E speranto
y gen
Ġb ond
Ġm ug
ar i
Ġon ions
Ġse eds
Ġqu ant
ick ing
Ġapp ointed
Ġsto pping
Ġexc itement
Ġtransl ations
Ġeng agement
Ġcamp us
Ġdel ay
Ġsaving s
resp ond
Ġgrap es
Ġguarant ee
Rec ently
t ained
Ġto xic
Ġb acked
Ġl un
Ġp henomen
Ġr ates
Ġpl ates
Ġsp icy
Ġcl oth
Ġbr ains
Ġsc ale
ĠT hai
Ġche at
Ġadd ict
Ġtest s
Ġsuggest ing
uc ing
Ġann ivers
Ġpian ist
Ġgri ef
Ġjournal ist
Ġaltern ative
spe aking
Ġperman ent
E ither
S chool
c akes
Ġp ad
Ġp ul
Ġp ist
st agram
Ġshe d
Ġso le
art ial
Ġback wards
ĠE d
Ġbl essed
Ġtw ent
Ġmust n
Ġmeet ings
oc key
Ġreg ist
Ġcor respond
Ġaccident s
Ġdist rib
eb b
Ġbath tub
Ġball s
Ġident ify
Ġwide ly
Ġsla pped
Ġrout e
Ġteles cope
C ut
f i
n ish
le ment
et ime
Ġst ressed
st an
Ġas pect
Ġj ungle
Ġtr a
ĠC la
ĠC har
Ġgu ll
li ament
Ġswe ets
Ġpar ad
Ġprod uces
Ġspace craft
Ġval ues
Ġfla v
Ġfif th
Ġdescri ption
Ġbas is
Ġscrat ched
Ġconven ience
Ġtoler ate
Ġmisunder stood
Ġintent ions
alent ine
Soci opaths
unci ation
rane an
Ġannivers ary
f y
i pping
w ide
Ġw re
Ġw ire
Ġto ns
it ate
or se
Ġh ood
id o
Ġtr ait
ig s
ĠJ ack
ra q
Ġover he
Ġover se
Ġbr ide
Ġbook store
Ġfl ock
Ġpa jamas
Ġconf irmed
Ġdin ing
Ġdep os
app ing
Ġsec ure
Ġheart s
Ġtrust s
itc hes
hen s
Ġtransl ator
Ġ19 4
Ġcur tain
Ġve ter
ĠFr anc
Ġpull ing
Ġbur den
Ġweak ness
ili pp
ĠChristian ity
Ġrelie f
Ġdistur b
Ġlif estyle
wit ter
Ġitem s
Ġclar inet
Ġprohib ited
1 1
C ont
f ight
r ise
Ġs ank
ha s
Ġf ry
Ġan aly
Ġin k
Ġk itten
od ern
Ġlo aded
ass y
Ġexp osed
ag ues
Ġri fle
ĠT unis
ĠO cean
ĠW ill
Ġconf ront
Ġass ert
Ġside walk
ĠIn stagram
Ġappro ved
Ġbank s
Ġrul ed
Ġbelong ed
Ġobs erv
Ġlos er
Ġdra gon
Ġdeli ber
ĠSe a
Ġcheer ful
Ġtap e
Ġinterpre ter
Ġcust ody
Ġattorn ey
B r
I vy
O ld
m ers
in cing
Ġs od
re p
Ġd umped
Ġb om
Ġc age
or p
Ġhe n
Ġre con
Ġsp ark
Ġcl ue
Ġch oo
ob ic
Ġpre m
Ġpre y
Ġover night
Ġhop eless
Ġgu ilt
ell y
Ġrec y
Ġelse where
Ġconc rete
Ġdef ense
Ġkey board
ĠMr s
aw a
Ġobs erved
Ġobject ive
Ġcreat ures
Ġfre ak
Ġacqu aint
Ġreve al
ĠMexic an
Ġvirt ue
Ġoccup ied
ĠAb raham
Ġpostp oned
Ġcandid ate
Ġing red
Ġeuro s
Ġtyph oon
f ice
in i
Ġs atell
Ġl ouder
Ġy ield
Ġin qu
Ġj erk
ul u
ast e
ast ed
ol ine
ĠJ upiter
Ġpe e
ĠM il
ĠM iss
Ġpart ners
ĠT e
og y
Ġwin ner
Ġrec all
ĠH ouse
Ġcook s
Ġra ising
Ġarg uments
Ġprof it
ik o
Ġimpro ving
iter ranean
Ġfle x
ron ic
Ġfaith ful
Ġscar ce
Ġknock ing
Sm oking
Ġenthusi astic
ĠHawai i
Luck ily
ĠJac ob
J ack
i ac
t a
in als
Ġb ake
Ġm and
Ġf ried
Ġal though
ul ting
ĠB ill
qu et
ber g
ĠM om
omet own
ĠC ould
oun e
Ġbl oss
Ġbus es
ĠG eorge
ĠN A
Ġcountry side
Ġdin osaur
Ġins ist
Ġloc ation
Ġrespect s
Ġobs erve
Ġisland s
Ġ6 0
Mar ie
Ġmir acle
Ġdise ases
Ġpoison ed
Ġmagaz ines
Ġpron unciation
Ġbrief case
Americ an
Ġrot ten
Ġali ens
ĠMed iterranean
keep er
ebb oune
C ons
D eath
r ous
Ġl acks
Ġn erve
Ġh ometown
Ġha mb
at is
Ġj um
Ġpl ot
qu ar
qu es
ard on
ĠJ ud
Ġri pped
Ġover d
ĠR ed
Ġsha ve
Ġmor al
Ġdrive way
Ġsun shine
Ġgrand children
Ġdeal t
Ġprison ers
oid s
head ed
Ġsatis fact
Ġenvironment al
Ġacqu ainted
Ġpuzz le
Ġric her
Ġinterrup ted
Ġdrow ning
Ġasse mb
Ġhamb ur
) ,
f it
g a
in er
Ġb ol
Ġb aking
Ġp issed
Ġsa fer
ch y
Ġv alley
Ġexp elled
Ġlet s
ĠG r
Ġper f
Ġfound ed
Ġexam ined
umb ling
Ġtre m
Ġappro x
friend ly
Ġconcern s
Ġdam n
Ġthank ful
Ġcollect ing
Ġrisk y
Ġcoun ts
Ġaband on
Ġspo iled
Ġali en
ĠMin ister
ĠThan ks
Ġterrit ory
step s
c ure
n o
o or
Ġa pt
Ġw ounds
Ġs ip
Ġb ache
er b
ar o
Ġp ant
Ġth umb
Ġse ed
ĠL ojban
Ġfl esh
Ġpa wn
Ġlearn t
Ġcr acked
Ġchar ity
Ġpresent ed
Ġreport s
Ġren ov
oll y
Ġcult ures
ĠAn ge
Ġur ged
Ġcance lled
Ġbi ology
Ġvolunte ered
Ġblo om
Ġintrig ued
L ittle
b es
i pt
l iness
t r
u ham
Ġw ink
Ġp oo
Ġhe els
Ġin appro
ad or
Ġtr im
Ġtr aged
han t
lp h
Ġv en
um es
Ġexp ort
Ġad apt
Ġhard est
Ġnum erous
av id
Ġclean er
Ġmess ed
Ġswe ep
Ġbar gain
vious ly
Ġprof ile
Ġheav ier
Ġdest ruct
Ġjud gment
Ġdisg usted
Ġteen agers
Ġcivil ization
Ġneighbour s
Em ily
Ġhoriz on
Ġfundam ental
Ġsympt oms
T ok
k i
o vers
u um
Ġs am
ot y
ĠI raq
ac ious
Ġse ated
Ġfe min
Ġwho ever
Ġro ots
Ġgr ace
Ġfin ed
Ġbusiness es
Ġfour teen
Ġsuggest ions
Ġcur tains
Ġgener ations
Ġchair man
har d
Ġfre aked
Ġrum ors
Ġpassion ate
ĠPh ilipp
Ġdrum mer
Ġchamp agne
Ġpra ise
Ġstret ched
Ġsacri fice
Ġunconv inced
M at
b ag
m oon
t il
t les
Ġw rest
Ġthe r
Ġp ump
Ġli ons
Ġkn ives
oo s
ct ions
Ġal right
ap s
ĠM e
ob e
ĠE x
Ġdis order
Ġsc at
Ġgl ance
Ġcame l
Ġcha sed
Ġrec overy
Ġconf using
Ġart ists
Ġext ent
Ġinst antly
ai wan
Ġforeign er
Ġlawy ers
Ġproject s
Ġdepart ure
Ġdepend able
Ġwhis pered
Ġcro ps
ste in
Ġadj ust
Ġinsult ed
Ġcompos ition
Ġmechan ic
Ġisol ated
Ġu pper
E d
T oo
p oint
u h
Ġt ables
Ġb ang
Ġf its
en cing
it als
Ġas pir
ter m
op s
Ġtr acks
Ġun mar
Th omas
ĠF ather
Ġch ip
itt ens
Ġco ats
Ġdec line
Ġatt acks
Ġmom ents
ump y
Ġcur rency
ĠV alentine
Ġinst all
Ġ201 9
Ġcal end
Ġguitar ist
Ġlow ered
Ġamaz ed
Ġkil ograms
co at
Ġdeli very
Ġpra ised
Cl ose
Ġinha bit
Ġt ren
Ġto es
Ġin con
ke ys
st orm
Ġtr ous
ĠA d
os ing
Ġcomp osed
Ġsch olar
ĠT witter
Ġperson s
Ġfr ank
Ġhun t
Ġsk ate
Ġdep th
Ġbusiness man
Ġexplain ing
Ġabs urd
Ġtest ify
Ġpast a
Ġpar an
Ġvac uum
Ġappro val
Ġbank rupt
uri osity
Ġprop ose
iling ual
Ġpair s
Ġdelic ate
Ġsens ible
Ġannoun ce
Ġdece ived
Ġdecor ated
Ġcollap se
Ġcough ing
Ġsacri fic
Ġox ygen
ĠSwed ish
Ġhumili ated
Austral ia
Ġbart ender
H un
a o
e xt
l ines
Ġd well
Ġthe at
Ġp ushing
Ġst iff
out s
ut ing
art ment
ĠAustral ian
Ġapp la
Ġmat ches
Ġsho vel
Ġbo ld
Ġquestion ed
Ġhum id
ric es
Ġdist inct
Ġfoot steps
Ġconsider ation
Ġoffic ers
erg art
Ġvolunte ers
Ġrub bed
Ġquar rel
Ġath lete
Ġinfect ed
Ġelement ary
Ġimmigr ants
Ġbutterf ly
Ġlux ury
Ġoverse as
Ġw ives
Ġw olves
Ġf ist
Ġl y
Ġn aught
Ġin ev
ab led
Ġsee king
Ġfe atures
ĠJ ul
Ġexp orts
Ġri vers
Ġad orable
Ġbr ut
Ġpr int
Ġbus h
Ġmo le
Ġstr ing
olog ists
Ġtri g
Ġfree zing
Ġins pir
Ġpract ically
Ġbeha ved
aw are
Ġcreat ing
Ġcelebr ating
Ġharm ful
Ġdra gged
Ġstat us
Ġdom estic
Ġblond e
Ġdevast ated
Ġfuss y
L ight
M ike
O ut
P ass
b ish
z es
Ġd ull
Ġb um
Ġo live
ĠI ran
ook ed
Ġun ne
Ġman sion
ĠS anta
ber ries
Ġri pe
Ġcomp re
Ġhar b
ĠG al
ĠD r
Ġsl ave
Ġreg ions
Ġexc uses
Ġconv incing
Ġmod er
Ġtast y
Ġdi ab
light s
Ġavoid ing
Ġcustom s
Ġdeterm ine
Ġchick ens
Ġsac red
Ġhistor ical
ĠTan inna
ĠFin nish
Ġtransfer red
Ġvolc ano
Ġpist ol
uham mad
L ong
s ha
t ail
Ġw ars
Ġw icked
Ġf ries
Ġne ut
ent ially
Ġsh ine
if ying
Ġus ers
um i
ĠS witzerland
ĠJ oseph
Ġch im
Ġspe lling
Ġbus ier
Ġche f
Ġmet eor
li est
Ġfr ame
Ġbed s
Ġsus hi
Ġgrand ma
Ġlaugh s
Ġz one
Ġrelationship s
Ġmanage ment
Ġwhis per
Ġbran ches
ĠSc ot
Bet ter
Ġtherap ist
heart ed
Ġdistingu ish
Ġwel c
Ġcalend ar
M usic
P romise
P rices
b led
e ff
g iving
p ret
u ate
Ġb in
Ġc ot
Ġf ountain
or ters
Ġse w
Ġab d
Ġtr icked
and er
la v
Ġco vers
Ġmo ons
Ġsur geon
Ġcont em
Ġkind ergart
Ġsn owed
St and
Ġsix th
Al ways
Ġcomplain t
Ġmain ly
Ġsex y
Ġben eath
ortun ately
Ġphys ically
Ġhall way
Ġoppos ition
Ġfant asy
Re ally
Lear n
Ġpier ced
Ġoblig ed
Ġthorough ly
Ġfier ce
Ġtrous ers
Ġunne cess
C o
F our
f ess
n is
p her
u are
Ġt ale
Ġp ets
Ġh ockey
us ions
ver ted
ic ies
al as
Ġat he
Do gs
ig en
ĠM al
ĠM art
Ġim ages
Ġsm iles
Ġunder w
iss ions
ĠP ona
Ġpo ly
Ġacc ounts
Ġdri ft
Ġhat red
Ġstand ards
Ġrece iving
Ġball oon
Ġste am
Ġsurv iv
Ġhol es
Ġstar ving
lo e
ij ing
Ġnational ity
Ġcontr ary
Ġmethod s
Ġdy e
Ġlif etime
Ġric hest
Hum an
Ġoccasion ally
stick s
Ġresident s
f our
Ġt ub
Ġc os
ing ly
ot hes
ad ium
Ġr ank
Ġle ak
Ġex ten
Ġun it
ol ite
Ġcomp are
Ġpol icies
Ġref uses
Ġinter fe
work ers
ĠSt ar
gr and
Ġtem porary
Ġbag gage
Ġ201 5
Ġste el
Ġrelig ions
Ġhonest ly
Ġ- -
Mr s
Ġ200 6
Ġ8 0
Ġalcohol ic
Ġhoney moon
Ġmushroom s
Ġgull ible
B I
r ical
Ġ These
Ġt ed
Ġw ool
Ġb ak
Ġg est
Ġun ion
ate red
Ġv ine
um an
ĠJ ones
ĠM other
ag n
Ġacc us
Ġcr ushed
ĠH ok
Ġtruth ful
Ġsmall est
Ġsun g
Ġcap acity
Ġred uced
Ġlea f
Ġcam er
Ġbegin ner
Ġcatch ing
Ġcomplain s
Ġtouch ing
Ġdev ice
Ġmach ines
Ġeight y
Ġtor to
Ġsour ces
Ġspl end
Ġspot ted
Ġdisp os
Ġregard ed
Ġremark s
Ġoutdo ors
Ġdisrespect ful
Ġpenal ty
ĠColumb us
c ow
g ir
l ow
l ia
l ong
u ild
ou st
er us
an cing
et ers
Ġsp aces
ol a
ie ves
ĠM ic
og en
Ġacc ord
Ġatt ending
Ġdes per
feren t
Ġac ce
Ġob edient
Ġforget ting
Ġfil th
Ġsuff icient
Ġtreat s
Ġbull se
Ġforest s
Tr ansl
Ġdish onest
ĠIsrael i
Ġsymp athy
Ġrack et
Ġtransport ation
ĠPol ish
Ġfol k
Ġreck less
Ġune asy
Ġcommer cial
Ġexchan ged
G reat
i able
Ġd ense
on ia
Ġm ice
Ġp ony
Ġth read
ro c
ut en
il st
Ġout ra
ĠB ank
Ġcom a
Ġv ia
ĠC ookie
Ġam using
Ġsc ri
Ġimp olite
Ġown ers
Ġopen s
Ġsk ip
Ġcold er
Ġtrust worthy
Ġleg end
Ġhalf way
Ġdi vers
Ġseat b
Ġoffic ially
Ġveget able
Ġident ified
for ce
Ġdy ed
Ġmisunder standing
Gu ess
ĠPalestin ians
Ob viously
Ġlandscap e
ĠFranc is
D ue
G eorge
H al
U p
e em
Ã Ń
Ġ Did
ing ing
Ġg ently
ot es
us hes
Ġas h
Ġal ert
Ġun in
Ġun aware
Ġfe ared
Ġpro c
Ġno ble
Ġcl ient
Ġbu zz
Ġfl ame
Ġwait ress
Ġimp er
Ġsha ved
Ġel im
Ġbo iling
Ġent it
ĠW ould
Ġbel oved
Ġbeha ving
Ġphot ographer
ousand s
Ġdeser ted
Ġthreat ening
Ġking dom
Ġdesp ise
Ġtempt ation
Ġbow ling
Ġspirit ual
Ġchamp ion
Ġfra g
Ġabsor bed
Ġdisappoint ment
Ġaston ished
Ġsem ester
Ġtraged y
Ġunmar ried
Ġkindergart en
b i
l ers
Ġ Who
Ġt ender
Ġc ord
Ġf ame
ac ha
ill e
ce land
Ġun ple
ol ars
ĠM ount
Ġlast s
Ġdis ob
Ġbl ink
Ġ2 2
ĠN ative
Ġsl ip
Ġforg ave
Ġadm ired
Ġass ure
ĠSt ate
Ġcontin ent
An other
Ġcommun ities
Ġcompet e
Ġhous ing
Ġreluct antly
Ġpred icted
Ġ9 0
Ġinfect ion
gu ard
ĠAm az
Ġphr ases
Ġwhist le
Germ any
ĠRom ans
B ad
M ark
c ol
d ish
p erson
Ã ¡
Ġd ign
Ġb oun
Ġp ens
Ġkn ight
ĠA ir
Ġun fortunately
Ġman kind
Ġevery day
ber t
Ġaw ait
Ġres erved
Ġcons pir
Ġthir ties
Ġtri ps
Ġcolle agues
Ġhotel s
Ġcontro lled
Ġstuff ed
Ġopt im
Ġ5 00
Ġcreat ure
Ġcloud y
ka ido
Ġsurf ing
Ġbi ased
Ġpencil s
Ġblock s
Ġpal ace
Ġdrum s
Ġexec uted
Ġathlet ic
Ġinappro priate
Ġinterfe re
Ġunple asant
D P
f ying
r um
Ġs orts
Ġm ax
or ious
as er
Ġre lease
Ġneed le
Ġup side
ud es
Ġback s
Ġexp ense
ag ic
Ġsc ored
Ġbl uff
ang le
Ġdif fer
pe are
ĠH er
fic ial
Ġcons iders
Ġass hole
Ġair craft
Ġdep ri
Ġadd ressed
Ġtre mb
Ġsecond ary
Ġaccept able
Ġsil k
gan ized
Un til
Ġprogram s
Ġcho pped
Ġfro ze
Ġunb elie
Ġterror ist
Ġpurcha se
resp ons
Ġrefer red
elie ve
ĠVen us
ĠNet her
Ġstrand ed
igen ous
F ortunately
R ep
T en
W ash
o ard
in ent
Ġs hat
an ic
Ġf ainted
or al
Ġhe ather
Ġst adium
op les
ĠB ob
Ġlo cks
Ġcl own
ĠAust ria
Don ald
Ġatt ent
kes peare
sel s
Ġpay ment
Ġtrans m
Ġsub m
Ġsign al
ĠGerm ans
Ġrece ipt
Ġpoor ly
Ġworth y
Ġcorrect ed
Ġmarry ing
Ġlos es
Ġshar k
Ġemploy ee
Ġwa ist
ĠDan ia
Ġrab bits
Ġindivid uals
Ġsitu ations
Ġgamb ling
Ġsust ain
Ġtwent ieth
1 0
E arth
P resident
b ble
d ge
g or
p ower
Ġ ic
Ġa ster
Ġl id
Ġo wed
Ġth ieves
ay er
Ġre w
ad o
Ġse ized
Ġshe ets
ĠB en
Th ousands
Ġhelp less
ĠS an
ĠL ulu
ĠF BI
ber ry
Ġeat er
Ġover t
Ġke en
Ġact ual
Ġreg ards
Ġele ments
az a
Ġdead line
Ġstrong est
ĠIn ter
Ġcontro vers
Ġden ies
omm od
Ġimmedi ate
Ġrad ical
Ġpriv ile
Ġban jo
Ġdesp ised
Ġdesp air
Ġastron omy
aph nis
Ġphilos opher
Ġbelief s
Ġancest ors
Ġetern al
ĠCla us
ĠTunis ia
Ġwelc omed
Ġcot ton
M ercury
V ery
o ch
w in
Ġw ard
Ġthe ft
Ġdo lph
Ġst im
Ġte asing
il ip
ann y
ol i
ol n
Ġv om
Ġcr ap
Ġinv ention
Ġwind y
Ġadm ir
Ġdress ing
Ġadd ing
Ġdream t
ism s
Ġland ing
atur al
Ġfil es
Ġexpl oded
Ġprefer red
Ġsubject s
Ġbes ides
Ġsevere ly
ĠOlymp ic
Ġment ally
Ġgunsh ots
Ġrefuge es
Ġanal ysis
Ġdiagn osed
Ġnickn ame
ĠCong ress
Ġperf ume
Hal f
R el
T alk
W ar
b ies
m el
z ens
Ġ .
Ġw age
Ġw atered
as hes
Ġhe ating
Ġbe aches
ac co
if ferent
ge ons
Ġtim id
ul ating
ul sive
ous es
um mer
Ġbu ff
Ġad ap
ian a
Ġgr ain
Ġsw allow
ĠT aiwan
ĠJohn son
Ġac ade
Ġinc hes
Ġinter pret
Ġchar m
Ġext ended
Ġbar ber
Ġelect ions
Ġrid es
Ch oose
istic ated
bo at
Ġhonest y
Ġfat al
Ġflight s
Ġspread ing
ĠBe ijing
ĠUS A
ĠGree ce
Ġresour ce
Ġho ly
Ġ197 0
Ġeth nic
Ġagricult ure
Ġapprox imately
Ġfilth y
P a
Ġb umped
Ġo ak
Ġcan e
Ġab und
ol ving
Ġhapp iest
ĠS up
Ġoff end
Ġam ounts
Ġhand y
ions hip
Ġrest ed
so ever
Ġmed al
Ġ19 5
Ġflow s
Ġjoin t
Ġjoin ing
Ġ201 4
Ġboss y
omm on
Ġprov ides
Ex p
Ġvol ume
ĠMar ika
Ġneg lected
Ġinfl ation
Ġidi ots
Ġaccomp any
Ġgro cer
ker chief
Ġnet work
Ġdism issed
Ġassign ment
Fr ank
Ġprecise ly
Ġdilig ent
Ġgalax y
Ġbache lor
Ġinhabit ants
Ġcamer as
B oy
L inda
g ic
p art
Ġt act
Ġs ought
Ġm asks
Ġc uriosity
Ġha l
ĠI r
ly ing
han g
Ġout break
Ġv ague
Ġpe ak
Ġpe oples
ĠM ike
Ġam use
Ġbook ed
ip es
ĠG oogle
ub s
Ġsk illed
Ġrest rain
ober t
Ġve gan
Ġpract ices
Ġexpl o
Ġbat hing
Ġemb assy
Ġmillion aire
Ex per
Ġmuseum s
Ġcritic ized
Ġrom ance
Ġfill ing
Ġcomb ination
Ġconce al
Ġpig s
Ġpal m
Ġcro c
ĠBl ack
ĠMos cow
Ġconstit ution
Ġswall owed
Ġburgl ar
Ġfoss il
Ġther m
Ġnaught y
Ġunnecess ary
C hange
F ood
F rance
G rand
N ice
P eter
a ac
f ood
er ia
or a
al a
al id
ri ll
ad s
Ġat omic
ab s
Ġde als
est ed
Ġv amp
Ġman ual
Ġag ency
ĠM ark
Ġwr ist
Ġbl own
Ġfl ames
Ġhand kerchief
Ġpers pect
Ġfin ishing
Ġacc ommod
ĠCh loe
Ġmin er
Ġkiss es
Ġcut s
Ġland l
Ġcoo perate
Ġrub ber
Ġunb ear
Ġcolour s
Ġstret ch
Ġestab lish
Ġelephan ts
Ġpean ut
Ġspin ach
Ġhandcuff ed
F riend
O ther
P ar
P ay
o qu
in ction
Ġw ing
ic ious
ch o
Ġpl un
Ġun af
Ġun fortun
ĠB ec
ob ia
Ġgr at
Ġchild ish
ĠR ic
Ġsha ring
ĠN e
ĠN az
Ġel bow
Ġrest ing
ĠH ot
Ġquestion ing
Ġele g
br ush
Ġind o
Ġgar lic
Ġprop ag
Ġexist ed
Ġest imate
ale m
Ġident ical
Ġpregn ancy
Ġinflu ential
Ġpoison ous
Americ a
Ph one
Ġreform s
Ġi P
abor ate
Ġcomplim ent
Ġtra um
ĠNA SA
ĠPhilipp ines
Ġunaf raid
P aul
Q uit
Ġt ide
in ese
Ġw ages
ou ch
Ġd ub
Ġd ared
is ible
Ġc ert
ar in
Ġf ert
Ġp y
Ġin ner
at ical
ic ate
Ġre ign
Ġcan oe
Ġab ilities
Ġab usive
We ren
ĠA lex
Ġpl umber
ig ning
Ġlo vers
Ġqu itting
ag le
Ġover look
Ġsch olars
Ġres ort
ĠP eter
Ġsha res
Ġhead phones
Ġdisc rim
Ġtrans ition
Ġsun rise
Ġart istic
Ġgrand son
Ġteam s
Ġill usion
Ġform al
Ġtur key
Ġdesign er
Ġslight est
nam ent
Ġcompan ion
Ġmagn etic
inc oln
Ġaim ed
Spe aking
Ġcock ro
Ġtherap y
Ġinstr uments
Ġinher ited
Ġacknow led
Ġbrace let
Ġincomp et
ĠCent ral
Ġtoss ed
ĠHok kaido
Ġunfortun ate
E urope
W ords
c om
d ri
in ations
ha el
Ġf ires
ll as
se e
Ġsa us
Ġsp ray
ree ze
ud ent
Ġch ores
Ġcomp ar
Ġdis li
Ġunder ground
Ġgr aph
Ġgr umpy
Ġfl ute
ĠG en
ĠO b
Ġsing ers
Ġmat ure
Ġsl ower
Ġrun ner
Ġconf usion
Ġsum mit
Ġbeh old
Ġshort age
Ġshall ow
Ġcop ies
Ġequ ally
Ġemp has
Ġcritic ize
Ġfro st
Ġrespond ed
Ġmel ted
Ġpassen ger
Ġ196 2
Ġbare foot
Christ mas
Ġnic er
Ġchop sticks
Ġinev itable
ĠBec ause
. ,
A c
A li
D e
M uch
S a
Ġb on
ar ly
Ġhe ated
Ġwe ighed
Ġte x
Ġpl ed
Ġfe e
Ġint r
ĠM att
Ġro cket
ag alog
Ġsm ashed
act ion
Ġtw isted
Ġper ce
oc ated
Ġhun ter
Ġprom pt
Ġsl im
Ġpres erve
Ġfree ly
Ġforget s
Ġinst alled
Ġdeep er
Ġir respons
Ġsex ually
Ġspecial ist
Ġbelong ings
Ġcow boy
Ġintern al
Ġtechn ical
Ġsla ves
ĠPr ime
sc reen
Ġtort ure
Stud ents
Ġastronaut s
Ġgenuine ly
ĠYid ir
onym ous
Ġsurren der
Ġresear chers
Ġbatter ies
Ġsod a
Ġincon ven
ĠScot land
. '
N uja
i am
r ison
t ell
Ġ x
Ġt in
Ġm ast
Ġc ore
an ing
Ġf ucked
ll y
Ġst ain
Ġst ake
Ġv it
ĠC ome
Ġsm ok
Ġsc r
Ġbl ushed
Is rael
Ġsw ept
ĠG DP
Ġdec ade
Ġrem ar
og ue
Ġmar ked
ĠD ep
Ġla unch
Ġbo iled
ug s
ĠW ay
ĠW ith
itc her
Ġhealth ier
Ġill ust
cl ass
Ġdi versity
Ġpizz eria
Ġcell s
Ġinclud es
Ġsurr ound
Ġpolite ly
Ġvan ished
Ġmagn ific
Ġchat ting
Ġconce ited
Ġliber al
Ġincreasing ly
Ġlingu istic
Ġvacc ine
Ġbabysit ter
Ġscen ery
Ġcompass ion
M ill
M um
i ased
n ox
r ange
u is
u ised
z ard
Ġ om
Ġt rop
Ġto n
Ġm our
Ġp ile
Ġg ra
Ġre fe
Ġsh if
Ġpl us
Ġde ck
Ġout er
ind er
os h
os ure
Ġpro ced
Ġpro port
Ġbut cher
Ġoff ices
ĠR iver
Ġmar ine
Ġplan es
con f
Ġwater mel
Ġser ves
be at
Ġterri fic
An ne
Ġbill ions
Ġste ep
Ġdest iny
Ġuns ure
Ġunb iased
Pol it
Bet ween
Ġwha le
Ġcas ual
Ġgrav ity
Ġconcer ts
Av oid
Ġregist ered
Ġparad ise
Ġbak ery
Ġtorto ise
Ġtex ts
F ollow
H ad
H ist
P ick
l on
Ġb la
ll er
Ġre ass
Ġme lt
ir s
Ġcan n
op es
Ġpl um
ak i
ak ers
our s
Ġint e
ĠE U
Ġpr ote
Ġgl ory
ĠP ri
Ġbo il
Ġob nox
Ġconf ron
ric ane
Ġann ual
Ġste ady
Ġstick s
Ġver ge
Ġimprove ment
Ġoper ate
Ġdig ital
Ġcooper ation
Read ing
Ġgif ted
Ġunemploy ment
Ġep is
Ġbroad cast
Ġprior ity
Ġstro ke
ĠSwed en
Ġbac on
Ġtid y
Ġsting y
Ġpostc ard
Ġprejud iced
Ġdisor ganized
Ġnin ety
Ġparan oid
Ġbullse ye
Ġentit led
K ate
R un
S leep
S pring
b ian
b ell
c ers
n uts
u ke
Ġ icy
in ity
Ġb isc
an ch
Ġan ime
am en
Ġst are
Ġmy th
if ully
Ġj elly
Ġte ased
Ġso ber
Ġout standing
Ġv ib
Ġbr id
Ġpart ly
ĠT ony
Ġsur vey
Ġkind ly
we gian
Ġremember ing
Ġmus cles
Ġcap s
Ġsol ving
ĠSt ation
Ġill um
Ġdiv ine
Ġfool s
Ġbeha lf
Ġgrad uation
Ġocc as
cri pt
Ġdest ro
iter ate
Ġpresident ial
Ġorgan ic
Ġsoft ly
rog en
Ġdut ies
Ġlab el
Kaby le
