{"<s>":0,"<img>":1,"</s>":2,"<unk>":3,"<mask>":4,"!":5,"\"":6,"#":7,"$":8,"%":9,"&":10,"'":11,"(":12,")":13,"*":14,"+":15,",":16,"-":17,".":18,"/":19,"0":20,"1":21,"2":22,"3":23,"4":24,"5":25,"6":26,"7":27,"8":28,"9":29,":":30,";":31,"<":32,"=":33,">":34,"?":35,"@":36,"A":37,"B":38,"C":39,"D":40,"E":41,"F":42,"G":43,"H":44,"I":45,"J":46,"K":47,"L":48,"M":49,"N":50,"O":51,"P":52,"Q":53,"R":54,"S":55,"T":56,"U":57,"V":58,"W":59,"X":60,"Y":61,"Z":62,"[":63,"\\":64,"]":65,"^":66,"_":67,"`":68,"a":69,"b":70,"c":71,"d":72,"e":73,"f":74,"g":75,"h":76,"i":77,"j":78,"k":79,"l":80,"m":81,"n":82,"o":83,"p":84,"q":85,"r":86,"s":87,"t":88,"u":89,"v":90,"w":91,"x":92,"y":93,"z":94,"{":95,"|":96,"}":97,"~":98,"¡":99,"¢":100,"£":101,"¤":102,"¥":103,"¦":104,"§":105,"¨":106,"©":107,"ª":108,"«":109,"¬":110,"®":111,"¯":112,"°":113,"±":114,"²":115,"³":116,"´":117,"µ":118,"¶":119,"·":120,"¸":121,"¹":122,"º":123,"»":124,"¼":125,"½":126,"¾":127,"¿":128,"À":129,"Á":130,"Â":131,"Ã":132,"Ä":133,"Å":134,"Æ":135,"Ç":136,"È":137,"É":138,"Ê":139,"Ë":140,"Ì":141,"Í":142,"Î":143,"Ï":144,"Ð":145,"Ñ":146,"Ò":147,"Ó":148,"Ô":149,"Õ":150,"Ö":151,"×":152,"Ø":153,"Ù":154,"Ú":155,"Û":156,"Ü":157,"Ý":158,"Þ":159,"ß":160,"à":161,"á":162,"â":163,"ã":164,"ä":165,"å":166,"æ":167,"ç":168,"è":169,"é":170,"ê":171,"ë":172,"ì":173,"í":174,"î":175,"ï":176,"ð":177,"ñ":178,"ò":179,"ó":180,"ô":181,"õ":182,"ö":183,"÷":184,"ø":185,"ù":186,"ú":187,"û":188,"ü":189,"ý":190,"þ":191,"ÿ":192,"Ā":193,"ā":194,"Ă":195,"ă":196,"Ą":197,"ą":198,"Ć":199,"ć":200,"Ĉ":201,"ĉ":202,"Ċ":203,"ċ":204,"Č":205,"č":206,"Ď":207,"ď":208,"Đ":209,"đ":210,"Ē":211,"ē":212,"Ĕ":213,"ĕ":214,"Ė":215,"ė":216,"Ę":217,"ę":218,"Ě":219,"ě":220,"Ĝ":221,"ĝ":222,"Ğ":223,"ğ":224,"Ġ":225,"ġ":226,"Ģ":227,"ģ":228,"Ĥ":229,"ĥ":230,"Ħ":231,"ħ":232,"Ĩ":233,"ĩ":234,"Ī":235,"ī":236,"Ĭ":237,"ĭ":238,"Į":239,"į":240,"İ":241,"ı":242,"Ĳ":243,"ĳ":244,"Ĵ":245,"ĵ":246,"Ķ":247,"ķ":248,"ĸ":249,"Ĺ":250,"ĺ":251,"Ļ":252,"ļ":253,"Ľ":254,"ľ":255,"Ŀ":256,"ŀ":257,"Ł":258,"ł":259,"Ń":260,"Ġt":261,"he":262,"Ġa":263,"in":264,"Ġw":265,"Ġs":266,"ou":267,"ha":268,"re":269,"om":270,"Ġto":271,"Ġd":272,"is":273,"on":274,"Ġthe":275,"Tom":276,"Ġb":277,"er":278,"Ġm":279,"ed":280,"hat":281,"Ġc":282,"ing":283,"ar":284,"an":285,"Ġf":286,"en":287,"Ġl":288,"Ġy":289,"it":290,"ll":291,"Ġthat":292,"or":293,"'t":294,"Ġp":295,"Ġyou":296,"as":297,"es":298,"Ġg":299,"Ġhe":300,"Ġn":301,"Ġo":302,"Ġan":303,"Ġh":304,"id":305,"Ġha":306,"Ġis":307,"Ġdo":308,"ve":309,"Ġin":310,"Ġbe":311,"at":312,"Ġth":313,"ow":314,"ld":315,"ay":316,"Ġof":317,"ary":318,"ot":319,"ĠTom":320,"Mary":321,"Ġwas":322,"us":323,"le":324,"'s":325,"Ġand":326,"et":327,"Ġe":328,"ĠI":329,"im":330,"ver":331,"Ġk":332,"The":333,"ic":334,"ĠMary":335,"gh":336,"am":337,"Ġon":338,"al":339,"Ġre":340,"Ġst":341,"ould":342,"Ġme":343,"Ġwe":344,"ri":345,"Ġgo":346,"Ġfor":347,"ke":348,"Ġli":349,"ght":350,"Ġkn":351,"ly":352,"st":353,"Ġne":354,"ant":355,"Ġdid":356,"ad":357,"ac":358,"ent":359,"Ġit":360,"He":361,"se":362,"Ġhave":363,"out":364,"oo":365,"ith":366,"Ġsa":367,"Ġknow":368,"un":369,"ill":370,"Ġwith":371,"ro":372,"ion":373,"ir":374,"ch":375,"ut":376,"Ġdon":377,"Ġhis":378,"ink":379,"Ġwant":380,"all":381,"Ġare":382,"Ġnot":383,"Ġas":384,"her":385,"ome":386,"Ġsaid":387,"very":388,"ami":389,"ur":390,"Ġher":391,"Ġthink":392,"Ġat":393,"You":394,"Ġcan":395,"Ġdidn":396,"Ġse":397,"ter":398,"Ġsh":399,"Ġthis":400,"pp":401,"Sami":402,"ust":403,"Ġshe":404,"Ġab":405,"Ġmy":406,"We":407,"Ġhas":408,"Ġlike":409,"Ġwh":410,"ore":411,"Ġhim":412,"if":413,"ce":414,"ct":415,"'m":416,"She":417,"hing":418,"one":419,"op":420,"od":421,"ain":422,"Ġthey":423,"Ġwhat":424,"ook":425,"Ġj":426,"It":427,"Ġus":428,"Ġyour":429,"Ġsu":430,"Ġr":431,"Ġwor":432,"Ġany":433,"Ġte":434,"Ġtr":435,"ĠA":436,"ren":437,"ost":438,"end":439,"il":440,"ally":441,"Ġal":442,"Ġhad":443,"up":444,"Ġso":445,"Ġwould":446,"Ġpl":447,"Ġwill":448,"Ġle":449,"ak":450,"han":451,"ge":452,"Ġneed":453,"rom":454,"Ġgoing":455,"Ġsp":456,"Ġabout":457,"Ġdoes":458,"ought":459,"red":460,"nd":461,"Ġtim":462,"ake":463,"ab":464,"Ġall":465,"Ġget":466,"Ġtold":467,"Ġde":468,"ight":469,"ul":470,"Ġwhe":471,"Ġex":472,"Ġun":473,"'re":474,"art":475,"ia":476,"Ġout":477,"ĠB":478,"est":479,"They":480,"'ll":481,"ind":482,"Ġby":483,"'ve":484,"Ġwere":485,"Ġvery":486,"Ġup":487,"Ġsee":488,"Ġtime":489,"Ġshould":490,"our":491,"ong":492,"ann":493,"ers":494,"Ġone":495,"Ġfrom":496,"Ġcon":497,"ays":498,"ked":499,"os":500,"Ġisn":501,"ast":502,"and":503,"lf":504,"qu":505,"ist":506,"Ġcould":507,"Ġhere":508,"ate":509,"What":510,"Th":511,"ol":512,"ess":513,"ive":514,"ation":515,"fe":516,"Ġfe":517,"Ġpro":518,"ack":519,"Ġbeen":520,"ry":521,"Ġcom":522,"ame":523,"day":524,"lp":525,"Wh":526,"Do":527,"ie":528,"Ġhelp":529,"'d":530,"Ġdoesn":531,"Ġthought":532,"ave":533,"Ġbut":534,"ger":535,"Ġwho":536,"la":537,"Ġv":538,"ice":539,"der":540,"res":541,"This":542,"Ġwon":543,"ig":544,"Ġlook":545,"Ġthere":546,"Ġint":547,"ous":548,"ep":549,"Ġreally":550,"um":551,"Ġman":552,"anni":553,"Yanni":554,"Ġag":555,"Ġgood":556,"Ġtoo":557,"Ġno":558,"Ġevery":559,"ide":560,"Ġhapp":561,"self":562,"Ġsome":563,"Ġif":564,"Ġnever":565,"Ġthem":566,"Ġlo":567,"Ġjust":568,"thing":569,"ound":570,"ree":571,"Ġdoing":572,"ort":573,"el":574,"ven":575,"ĠS":576,"Ġthan":577,"alk":578,"wn":579,"ĠL":580,"ĠF":581,"Ġtell":582,"Ġwork":583,"iri":584,"Ġgot":585,"Ġar":586,"ap":587,"Ziri":588,"How":589,"ard":590,"Ġor":591,"ish":592,"ud":593,"That":594,"ble":595,"ayla":596,"Ġmore":597,"ear":598,"Ġwhen":599,"ĠJ":600,"th":601,"Ġcl":602,"Ġch":603,"ves":604,"Ġaf":605,"Ġqu":606,"ber":607,"ck":608,"oston":609,"Ġpe":610,"ĠBoston":611,"ect":612,"row":613,"ĠM":614,"Ġen":615,"Ġnow":616,"uch":617,"itt":618,"Ġ\"":619,"Ġback":620,"ved":621,"ther":622,"ew":623,"Ġhow":624,"omet":625,"Ġmuch":626,"ite":627,"Ġhome":628,"Ġspe":629,"Ġtheir":630,"Ġsay":631,"ra":632,"There":633,"ople":634,"ass":635,"Ġro":636,"other":637,"Ġstill":638,"Ġco":639,"Ġoff":640,"Ġwanted":641,"Whe":642,"Ġwasn":643,"Ġbu":644,"Why":645,"ving":646,"ase":647,"ine":648,"Ġexp":649,"hed":650,"are":651,"Ġcar":652,"lger":653,"riend":654,"ag":655,"age":656,"ity":657,"ough":658,"ried":659,"Ġri":660,"Ġpeople":661,"ĠC":662,"Ġtalk":663,"Ġonly":664,"Ġsomet":665,"My":666,"ace":667,"ild":668,"Ġyear":669,"ick":670,"ool":671,"Ġbet":672,"Ġlong":673,"Ġhappen":674,"Ġeat":675,"ral":676,"ĠLayla":677,"rench":678,"Ġcome":679,"Ġwr":680,"Ġthing":681,"Ġagain":682,"ody":683,"Ġknew":684,"ure":685,"Ġbec":686,"ĠFrench":687,"ood":688,"oy":689,"ty":690,"Ġlot":691,"Ġad":692,"ĠAust":693,"ies":694,"Ġim":695,"ade":696,"ob":697,"ian":698,"Ġcomp":699,"Ġour":700,"ady":701,"Ġpre":702,"ĠAustral":703,"Ġam":704,"Ġover":705,"ĠAustralia":706,"lgeria":707,"Ġtake":708,"ather":709,"oun":710,"Ġsomething":711,"ĠE":712,"Ġbr":713,"iz":714,"Ġlast":715,"ment":716,"Ġspeak":717,"Ġnew":718,"Ġlet":719,"ouse":720,"Ġseem":721,"Ġinto":722,"ress":723,"Ġright":724,"Ġmake":725,"Ġday":726,"cc":727,"Ġfriend":728,"Ġpr":729,"Ġtoday":730,"able":731,"Ġdone":732,"Ġway":733,"ts":734,"ning":735,"oney":736,".\"":737,"ft":738,"Ġwent":739,"ach":740,"ated":741,"Don":742,"em":743,"Ġanything":744,"ways":745,"Ġstud":746,"Ġwat":747,"Ġother":748,"ng":749,"Ġdis":750,"Ġstay":751,"Ġasked":752,"Ġcall":753,"Ġsm":754,"Ġdr":755,"Ġalways":756,"Ġhouse":757,"Ġplay":758,"Ġsc":759,"Ġmoney":760,"Ġunder":761,"Ġbl":762,"Ġthree":763,"Ġhop":764,"act":765,"xt":766,"Ġbus":767,"fore":768,"Ġsure":769,"ose":770,"Ġchan":771,"Ġwhy":772,"Ġmade":773,"Ġgr":774,"oh":775,"Ġmany":776,"use":777,"ue":778,"Ġsch":779,"lie":780,"Ġtw":781,"ait":782,"Is":783,"Ġable":784,"Ġpart":785,"ying":786,"Ġbook":787,"Ġaw":788,"Ġschool":789,"Ġwell":790,"If":791,"orrow":792,"Ġbetter":793,"ans":794,"get":795,"ek":796,"irst":797,"Ġmo":798,"Ġmight":799,"Ġafter":800,"Ġhar":801,"lease":802,"Ġbefore":803,"ount":804,"Ġfl":805,"reat":806,"Ġknows":807,"ence":808,"urn":809,"pt":810,"ohn":811,"Ġdown":812,"Ġstart":813,"Ġchild":814,"ich":815,"Ġsw":816,"Ġfeel":817,"ĠR":818,"ĠT":819,"ip":820,"Ġold":821,"Ġwhere":822,"iss":823,"Ġlove":824,"Ġwait":825,"Did":826,"ang":827,"body":828,"Ġgu":829,"Ġfind":830,"Ġweek":831,"Ġlife":832,"Ġsays":833,"ious":834,"au":835,"ĠJohn":836,"Ġimp":837,"Ġwants":838,"enn":839,"Ġleft":840,"Ġwouldn":841,"ting":842,"Let":843,"Ġfirst":844,"ied":845,"Ġbuy":846,"Are":847,"ell":848,"ile":849,"Ġroom":850,"ire":851,"Ġhand":852,"Ġever":853,"When":854,"ark":855,"Ġapp":856,"ĠG":857,"Ġused":858,"ions":859,"Ġnext":860,"Ġpa":861,"Ġtom":862,"Ġhimself":863,"ittle":864,"Ġbelie":865,"oth":866,"Ġdec":867,"Ġyears":868,"Ġmust":869,"Ġdif":870,"ten":871,"Ġput":872,"Ġrem":873,"Ġcare":874,"Ġdog":875,"Ġeven":876,"Ġlittle":877,"Ġke":878,"ult":879,"Ġread":880,"ise":881,"ict":882,"arn":883,"ired":884,"ful":885,"ably":886,"Ġfa":887,"Ġleave":888,"Ġtomorrow":889,"mer":890,"rest":891,"ause":892,"og":893,"leep":894,"ised":895,"Ġop":896,"Ġres":897,"Ġcouldn":898,"Ġpers":899,"âĢ":900,"Ġnight":901,"Ġeverything":902,"ready":903,"Ġalready":904,"Can":905,"Ġjob":906,"Ġneeds":907,"Ġgl":908,"Ġsupp":909,"Ġprob":910,"Ġsur":911,"Ġthings":912,"ĠAlgeria":913,"Ġsaw":914,"Ġtwo":915,"ĠP":916,"Ġpo":917,"Ġhard":918,"Ġfin":919,"Ġask":920,"Ġ2":921,"Ġtook":922,"Ġprobably":923,"Ġcame":924,"Ġlive":925,"Ġcont":926,"hes":927,"Ġgir":928,"Ġunderst":929,"blem":930,"Ġhope":931,"ance":932,"Ġgive":933,"Ġproblem":934,"Ġmar":935,"Ġwonder":936,"osed":937,"Ġacc":938,"Ġper":939,"oss":940,"ennad":941,"Where":942,"Ġaway":943,"ually":944,"Ġwin":945,"Who":946,"ura":947,"In":948,"igh":949,"ci":950,"Ġatt":951,"te":952,"Ġph":953,"Ġplan":954,"Ġperson":955,"?\"":956,"ff":957,"ign":958,"Ġstr":959,"per":960,"Ġfound":961,"Ġfriends":962,"Mennad":963,"Ġdri":964,"kura":965,"Ġmay":966,"ath":967,"Ġmeet":968,"ester":969,"Ġhappy":970,"Ġyet":971,"Ġsha":972,"Ġbeing":973,"ĠO":974,"akes":975,"Ġact":976,"Ġbelieve":977,"Ġunderstand":978,"Ġown":979,"Ġteac":980,"Ġear":981,"Ġpret":982,"Ġche":983,"Ġchildren":984,"Ġpol":985,"Ġbecause":986,"ory":987,"Ġfather":988,"Ġaren":989,"Ġsoon":990,"Ġgave":991,"Ġshow":992,"ted":993,"Ġdrink":994,"ull":995,"aking":996,"Every":997,"Ġlearn":998,"Ġ1":999,"angu":1000,"Ġsame":1001,"ĠN":1002,"Ġcha":1003,"Ġcount":1004,"ished":1005,"Ġenough":1006,"con":1007,"Ġdes":1008,"Ġhappened":1009,"Ġoften":1010,"Ġwithout":1011,"uck":1012,"gg":1013,"Ġsleep":1014,"Ġide":1015,"Ġtried":1016,"Ġlangu":1017,"les":1018,"orm":1019,"erest":1020,"ĠK":1021,"ident":1022,"Ġlate":1023,"esterday":1024,"aught":1025,"Ġbad":1026,"Ġfo":1027,"ible":1028,"Please":1029,"ail":1030,"Ġheard":1031,"more":1032,"Ġhat":1033,"Ġrec":1034,"iv":1035,"ince":1036,"ima":1037,"Ġinterest":1038,"Ġcr":1039,"Ġworld":1040,"Ġaround":1041,"ub":1042,"Ġanymore":1043,"Ġcat":1044,"Ġcle":1045,"Ġreal":1046,"ert":1047,"ced":1048,"ars":1049,"Ġstarted":1050,"ered":1051,"gether":1052,"Ġlooked":1053,"pped":1054,"Ġbest":1055,"ited":1056,"Ġdoor":1057,"Ġkind":1058,"Ġvis":1059,"Ġmor":1060,"Ġfun":1061,"Ġkeep":1062,"Ġtogether":1063,"Ġopen":1064,"Ġplann":1065,"Ġrep":1066,"Ġboth":1067,"Ġmet":1068,"ife":1069,"No":1070,"ared":1071,"Ġquest":1072,"li":1073,"lt":1074,"aby":1075,"Ġel":1076,"Ġmon":1077,"ĠSkura":1078,"Ġneeded":1079,"Ġwrong":1080,"any":1081,"Ġbre":1082,"Ġtry":1083,"kes":1084,"pr":1085,"Ġgreat":1086,"Ġsing":1087,"ord":1088,"Ġyesterday":1089,"Ġbought":1090,"ical":1091,"sel":1092,"Ġnothing":1093,"Ġmat":1094,"Have":1095,"oc":1096,"Ġmother":1097,"Ġteacher":1098,"Ġmost":1099,"lish":1100,"Ġturn":1101,"Ġbig":1102,"side":1103,"Ġwater":1104,"Ġname":1105,"aut":1106,"Ġmorning":1107,"ens":1108,"Ġparty":1109,"Ġinv":1110,"led":1111,"Ġlooking":1112,"ix":1113,"feren":1114,"Ġhur":1115,"raid":1116,"ĠBer":1117,"Ġword":1118,"Ġherself":1119,"Ġstop":1120,"Ġseen":1121,"Ġgirl":1122,"selves":1123,"Ġwom":1124,"ĠCh":1125,"Ġanyone":1126,"Ġexpect":1127,"Ġfami":1128,"His":1129,"Ġboy":1130,"Ġser":1131,"Algeria":1132,"Ġeas":1133,"gry":1134,"Ġwhich":1135,"Ġwalk":1136,"Ġunt":1137,"Ġsent":1138,"Ġafraid":1139,"Ġfr":1140,"Ġuse":1141,"Ġidea":1142,"Ġhun":1143,"Ġlost":1144,"orn":1145,"Ġprom":1146,"ors":1147,"Ġhour":1148,"ffe":1149,"Layla":1150,"Ġthr":1151,"Ġpretty":1152,"ĠEng":1153,"Ġhaven":1154,"Ġend":1155,"Ġlooks":1156,"ons":1157,"ĠRima":1158,"rents":1159,"Ġalone":1160,"aring":1161,"Ġem":1162,"Ġsk":1163,"Ġthese":1164,"Ġpass":1165,"Ġits":1166,"Ġelse":1167,"ream":1168,"be":1169,"ĠBerber":1170,"joy":1171,"Ġsupposed":1172,"Ġmind":1173,"ents":1174,"Ġfelt":1175,"ating":1176,"Ġthrough":1177,"Ġcalled":1178,"Ġkill":1179,"Ġfew":1180,"Ġwind":1181,"ided":1182,"Ġwatch":1183,"Ġbusy":1184,"Ġmin":1185,"sw":1186,"Ġwhile":1187,"Ġeach":1188,"Ġplace":1189,"Ġenjoy":1190,"ese":1191,"Ġplanning":1192,"ations":1193,"Ġsn":1194,"Ġuntil":1195,"Ġswim":1196,"Ġshouldn":1197,"ĠD":1198,"Ġlikely":1199,"Ġlist":1200,"pect":1201,"Ġbeaut":1202,"Ġclass":1203,"Ġla":1204,"Ġsho":1205,"Ġwish":1206,"Ġbo":1207,"Ġrest":1208,"Ġsurpr":1209,"Ġey":1210,"Ġtrying":1211,"00":1212,"pe":1213,"Ġtalking":1214,"Ġremem":1215,"uth":1216,"Ġac":1217,"Ġmonth":1218,"Ġanother":1219,"ces":1220,"Ġrel":1221,"ĠEnglish":1222,"Ġbeg":1223,"Ġparents":1224,"Ġlikes":1225,"ĠMon":1226,"Ġgetting":1227,"Ġdifferen":1228,"ĠH":1229,"Ġfood":1230,"Ġansw":1231,"Ġbed":1232,"Ġlanguage":1233,"most":1234,"alked":1235,"Ġfamily":1236,"Ġmarried":1237,"Ġcomm":1238,"fic":1239,"Ġwhether":1240,"ys":1241,"Ġdays":1242,"Ġseems":1243,"Ġfar":1244,"used":1245,"erm":1246,"Ġhead":1247,"ever":1248,"ok":1249,"Ġsl":1250,"ater":1251,"Ġrain":1252,"ank":1253,"Ġready":1254,"Ġearly":1255,"Ġob":1256,"Ġbro":1257,"Ġpay":1258,"Ġthose":1259,"Ġrun":1260,"ner":1261,"als":1262,"Ġhigh":1263,"On":1264,"uct":1265,"Ġforg":1266,"Ġcoming":1267,"Ġsomeone":1268,"ize":1269,"Ġcountry":1270,"Ġcons":1271,"Ġhaving":1272,"ized":1273,"Ġhear":1274,"Ġpain":1275,"Does":1276,"iful":1277,"ute":1278,"ĠIt":1279,"Ġkid":1280,"Ġsuch":1281,"lain":1282,"oke":1283,"Ġworking":1284,"Ġmiss":1285,"Ġalmost":1286,"we":1287,"Ġhot":1288,"Ġcold":1289,"Ġpres":1290,"Ġtired":1291,"ason":1292,"ĠMonday":1293,"ĠU":1294,"Ġret":1295,"Ġremember":1296,"Ġyoung":1297,"Ġbeautiful":1298,"Ġbrother":1299,"ple":1300,"Ġbit":1301,"ister":1302,"ork":1303,"vers":1304,"apan":1305,"lic":1306,"Ġsit":1307,"ates":1308,"Ġeveryone":1309,"oin":1310,"oon":1311,"Ġquite":1312,"Ġtrain":1313,"Ġadv":1314,"ug":1315,"Ġthinks":1316,"Ġthir":1317,"Ġent":1318,"Ġsto":1319,"Ġchange":1320,"Ġadm":1321,"Ġinc":1322,"Ġvisit":1323,"Ġbir":1324,"Ġmist":1325,"Ġdiffic":1326,"Ġmyself":1327,"Ġplease":1328,"Ġreg":1329,"Ġdecided":1330,"May":1331,"so":1332,"owed":1333,"Ġstudy":1334,"Ġpolice":1335,"here":1336,"Ġlives":1337,"ĠW":1338,"ret":1339,"ged":1340,"Ġposs":1341,"Some":1342,"vel":1343,"Ġimport":1344,"Ġhasn":1345,"Ġdisc":1346,"ition":1347,"Ġmus":1348,"cle":1349,"Ġsince":1350,"Ġconf":1351,"less":1352,"Ġref":1353,"Ġphone":1354,"Your":1355,"night":1356,"All":1357,"Ġwife":1358,"Ġtimes":1359,"Ġthen":1360,"ib":1361,"old":1362,"Ġwaiting":1363,"ss":1364,"orry":1365,"ings":1366,"Ġdan":1367,"iness":1368,"Ġliving":1369,"Ġpict":1370,"Ġarri":1371,"ime":1372,"ative":1373,"ital":1374,"ither":1375,"Ġlight":1376,"Ġchance":1377,"Ġnice":1378,"olog":1379,"Ġap":1380,"Ġdifficult":1381,"ĠJapan":1382,"ject":1383,"Ġwar":1384,"cept":1385,"Ġtrans":1386,"Ġcoll":1387,"Ġweren":1388,"âĢĻ":1389,"Would":1390,"Ġyourself":1391,"alth":1392,"ctor":1393,"med":1394,"ward":1395,"Ġsus":1396,"Ġass":1397,"Ġseemed":1398,"itted":1399,"rew":1400,"Ġdin":1401,"ched":1402,"Ġcry":1403,"Ġtruth":1404,"Ġsurprised":1405,"Ġcook":1406,"Ġgone":1407,"Ġconc":1408,"ĠIs":1409,"Ġsmall":1410,"Ġthemselves":1411,"Ġmatter":1412,"Ġgi":1413,"Ġquestion":1414,"Ġhair":1415,"air":1416,"Ġbreak":1417,"Ġtrue":1418,"Ġdress":1419,"Ġmov":1420,"Ġago":1421,"Ġfore":1422,"ense":1423,"Ġeasy":1424,"Ġwoman":1425,"30":1426,"Ġdifferent":1427,"uss":1428,"Ġanswer":1429,"Ġinf":1430,"Ġonce":1431,"Ġbooks":1432,"ĠAl":1433,"ote":1434,"unch":1435,"ond":1436,"Ġimportant":1437,"iet":1438,"ages":1439,"Ġface":1440,"Ġreason":1441,"Ġhours":1442,"Ġlisten":1443,"Ġbecome":1444,"Ġstand":1445,"Ġeyes":1446,"Ġdied":1447,"ffee":1448,"ower":1449,"Ġkiss":1450,"Ġletter":1451,"oub":1452,"reet":1453,"ient":1454,"Ġmeeting":1455,"Ġsister":1456,"Ġsat":1457,"ial":1458,"Ġmom":1459,"Ġhurt":1460,"Ġtri":1461,"Ġmean":1462,"ention":1463,"Ġcoffee":1464,"ual":1465,"pl":1466,"Ġnum":1467,"Ġalso":1468,"Ġglad":1469,"Ġsick":1470,"ience":1471,"Ġset":1472,"Ġele":1473,"Ġair":1474,"Ġusually":1475,"Ġev":1476,"Ġlonger":1477,"As":1478,"Ġhum":1479,"ock":1480,"Ġoffice":1481,"oud":1482,"ross":1483,"Ġspend":1484,"Ġ20":1485,"az":1486,"Ġhands":1487,"Ġson":1488,"Ġdep":1489,"ness":1490,"Ġinterested":1491,"ont":1492,"av":1493,"Ġmusic":1494,"Ġlar":1495,"ling":1496,"Ġwearing":1497,"br":1498,"Ġbecame":1499,"Ġfav":1500,"meric":1501,"ertain":1502,"Ġsum":1503,"fect":1504,"Ġsound":1505,"Ġdrive":1506,"Tell":1507,"Ġmakes":1508,"ured":1509,"Ġcity":1510,"Ġlived":1511,"Ġanybody":1512,"Ġsun":1513,"app":1514,"St":1515,"ps":1516,"ouble":1517,"Ġdinner":1518,"Ġsec":1519,"ove":1520,"not":1521,"Ġcomple":1522,"ures":1523,"where":1524,"Ġsorry":1525,"ĠKaby":1526,"ily":1527,"Ġind":1528,"Ġexc":1529,"ming":1530,"Ġinter":1531,"Ġangry":1532,"Ġforgot":1533,"iers":1534,"Ġfree":1535,"ric":1536,"Ġfell":1537,"arth":1538,"Ġnews":1539,"Ġfinished":1540,"Ġtonight":1541,"Ġnear":1542,"Ġdoctor":1543,"Ġfoll":1544,"lam":1545,"Ġadd":1546,"ball":1547,"ween":1548,"Ġchar":1549,"Ġconv":1550,"Ġspent":1551,"ash":1552,"land":1553,"Ġclean":1554,"work":1555,"Ġheart":1556,"osp":1557,"ept":1558,"Ġwindow":1559,"Ġforget":1560,"Ġcor":1561,"Be":1562,"Ġcap":1563,"Ġred":1564,"ular":1565,"ange":1566,"Ġwhole":1567,"Ġplaying":1568,"Ġfire":1569,"cial":1570,"ĠHe":1571,"lgerian":1572,"Ġart":1573,"Ġbeh":1574,"Ġdro":1575,"Ġturned":1576,"Ġbuild":1577,"oice":1578,"Ġbetween":1579,"Ġcannot":1580,"Ġtrust":1581,"Ġquick":1582,"ier":1583,"ended":1584,"Ġlau":1585,"unk":1586,"itting":1587,"ries":1588,"Ġtable":1589,"Ġexact":1590,"room":1591,"Ġsol":1592,"Ġdream":1593,"Ġaftern":1594,"ĠAmeric":1595,"rist":1596,"ump":1597,"Ġext":1598,"Ġins":1599,"ists":1600,"Ġafternoon":1601,"Ġate":1602,"Ġlea":1603,"Ġsy":1604,"int":1605,"Ġtown":1606,"Ġexam":1607,"Ġagainst":1608,"Ġeating":1609,"Ġfast":1610,"Ġaccident":1611,"Ġbehind":1612,"ased":1613,"cy":1614,"Ġcour":1615,"Ġfull":1616,"Ġdoub":1617,"These":1618,"Ġstory":1619,"uring":1620,"Everyone":1621,"ately":1622,"Our":1623,"ern":1624,"Ġmil":1625,"utes":1626,"imes":1627,"Ġlater":1628,"Maybe":1629,"Ġlunch":1630,"Ġmaking":1631,"hip":1632,"Ġfig":1633,"erv":1634,"Ġmen":1635,"Ġpark":1636,"itc":1637,"ks":1638,"Ġgrow":1639,"Ġran":1640,"Ġbusiness":1641,"Ġdet":1642,"Ġtrouble":1643,"umb":1644,"Ġsummer":1645,"Ġmess":1646,"ĠSt":1647,"Ġserious":1648,"Ġagree":1649,"Ġfour":1650,"Ġdef":1651,"Ġsub":1652,"Ġmed":1653,"Ġless":1654,"Ġcertain":1655,"Ġwrite":1656,"ets":1657,"Ġnumber":1658,"Ġglass":1659,"Ġtrave":1660,"Ġpromised":1661,"aper":1662,"Ġfavor":1663,"lim":1664,"Ġter":1665,"Ġhealth":1666,"Could":1667,"cess":1668,"Ġlaw":1669,"icy":1670,"man":1671,"Ġexactly":1672,"Ġdaught":1673,"str":1674,"aster":1675,"Ġmovie":1676,"Ġdeath":1677,"Ġgrand":1678,"zy":1679,"Ġcompany":1680,"ny":1681,"Ġtaking":1682,"Ġdist":1683,"Ġoutside":1684,"Ġhor":1685,"Ġliked":1686,"aged":1687,"Ġsong":1688,"ision":1689,"Ġminutes":1690,"Ġwords":1691,"Ġfall":1692,"Ġbroke":1693,"ressed":1694,"Ġreading":1695,"eal":1696,"Ġexper":1697,"Ġcut":1698,"ison":1699,"Ġkept":1700,"Ġguy":1701,"bed":1702,"Ġhelped":1703,"Ġteam":1704,"Ġgame":1705,"Ġgen":1706,"Ġpossible":1707,"Ġsix":1708,"ph":1709,"Her":1710,"Ġpop":1711,"ics":1712,"Ġdead":1713,"Ġsim":1714,"Ġclose":1715,"ism":1716,"Ġfront":1717,"Ġarm":1718,"its":1719,"Ġexplain":1720,"Ġfight":1721,"Ġactually":1722,"Ġmove":1723,"Ġbirth":1724,"Not":1725,"Ġhate":1726,"aken":1727,"reed":1728,"Ġdanger":1729,"Ġkilled":1730,"giers":1731,"Ġloc":1732,"Ġclear":1733,"Ġreturn":1734,"adil":1735,"Ġabs":1736,"Ġstrong":1737,"Ġcost":1738,"ities":1739,"Ġill":1740,"irt":1741,"Ġhosp":1742,"Ġcomput":1743,"Ġgoes":1744,"Ġcomplete":1745,"Ġsuspect":1746,"ĠGod":1747,"ants":1748,"Ġthirty":1749,"Ġsal":1750,"Ġknown":1751,"Ġstayed":1752,"Ġpicture":1753,"Ġclot":1754,"Ġsign":1755,"Ġsafe":1756,"cond":1757,"ĠIslam":1758,"gy":1759,"Ġpat":1760,"Ġgets":1761,"Ġallowed":1762,"Ġwalked":1763,"dered":1764,"Ġtre":1765,"ently":1766,"ĠChrist":1767,"Ġcol":1768,"Ġsnow":1769,"Ġshort":1770,"..":1771,"Ġborn":1772,"Ġleg":1773,"Ġquestions":1774,"obody":1775,"Ġstudents":1776,"Ġhungry":1777,"Ġca":1778,"Ġdoubt":1779,"conom":1780,"ĠYou":1781,"tle":1782,"Ġpaid":1783,"Ġcam":1784,"Ġstore":1785,"uff":1786,"Ġworks":1787,"Ġscared":1788,"hen":1789,"Ġtest":1790,"iled":1791,"Ġstreet":1792,"Nobody":1793,"Ġhospital":1794,"Will":1795,"Ġtalked":1796,"ĠAlgerian":1797,"Ġdeal":1798,"fort":1799,"ighb":1800,"Ġbaby":1801,"Ġkids":1802,"Ġneighb":1803,"Ġloved":1804,"Ġten":1805,"Ġwrit":1806,"ider":1807,"way":1808,"Ġsell":1809,"Ġfeeling":1810,"Ġeconom":1811,"port":1812,"sh":1813,"aur":1814,"Ġ/":1815,"ggest":1816,"Ġeverybody":1817,"Ġdie":1818,"Ġsuggest":1819,"ins":1820,"Ġstation":1821,"Ġcomes":1822,"que":1823,"Ġcou":1824,"ĠGerm":1825,"Ġdaughter":1826,"ĠThe":1827,"Ġdoll":1828,"uslim":1829,"ined":1830,"At":1831,"Ġrich":1832,"Ġproblems":1833,"Ġblack":1834,"Ġthinking":1835,"ne":1836,"Ġpast":1837,"Ġluck":1838,"Ġstudying":1839,"den":1840,"ĠTV":1841,"Ġwall":1842,"ility":1843,"Ġworried":1844,"Ġrather":1845,"upid":1846,"Ġfix":1847,"Ġbegan":1848,"Ġtransl":1849,"Ġfive":1850,"Ġlarge":1851,"Ġ19":1852,"ract":1853,"Ġtree":1854,"Ġworked":1855,"!\"":1856,"gr":1857,"Ġsecond":1858,"ober":1859,"Ġalong":1860,"And":1861,"Ġbrought":1862,"Ġmem":1863,"Ġloves":1864,"Ġstupid":1865,"ato":1866,"ĠOK":1867,"Ġland":1868,"Ġleast":1869,"ored":1870,"Ġsaying":1871,"Ġdark":1872,"Ġhadn":1873,"pping":1874,"Ġtem":1875,"Ġchanged":1876,"Many":1877,"ĠâĢ":1878,"Ġple":1879,"me":1880,"ax":1881,"ield":1882,"ĠCan":1883,"Ġhit":1884,"Ġfollow":1885,"ĠY":1886,"Than":1887,"Ġpur":1888,"Ġarrived":1889,"Ġswe":1890,"One":1891,"Ġperm":1892,"Ġquickly":1893,"Ġmoment":1894,"Ġexpected":1895,"Ġsitting":1896,"ĠSami":1897,"right":1898,"Ġbox":1899,"raw":1900,"Ġinteresting":1901,"Ġcomputer":1902,"Ġtall":1903,"Ġfoot":1904,"Ġclothes":1905,"Ġhalf":1906,"Ġpar":1907,"icked":1908,"Ġwrote":1909,"Ġdisapp":1910,"Ġmonths":1911,"Ġapart":1912,"ctober":1913,"Ġshoes":1914,"Just":1915,"ĠUn":1916,"Ġside":1917,"Ġcaught":1918,"Ġmoved":1919,"Ġroad":1920,"Ġcontin":1921,"Ġorder":1922,"ĠChin":1923,"Ġweather":1924,"Ġmistake":1925,"Ġweekend":1926,"Ġrequ":1927,"rit":1928,"Ġra":1929,"Ġage":1930,"Ġstopped":1931,"Ġopp":1932,"Ġpresent":1933,"ĠOctober":1934,"Ġwatching":1935,"uc":1936,"Ġprot":1937,"Ġothers":1938,"Ġmad":1939,"Ġfavorite":1940,"Ġcur":1941,"ef":1942,"Ġaff":1943,"Ġsecret":1944,"Ġfine":1945,"outh":1946,"Ġanim":1947,"ational":1948,"eb":1949,"uation":1950,"Ġav":1951,"Ġwear":1952,"Ġcareful":1953,"Ġlaugh":1954,"Ġflow":1955,"ĠMuslim":1956,"Ġfinish":1957,"Ġworry":1958,"Ġbring":1959,"band":1960,"ature":1961,"Ġdrunk":1962,"Ġma":1963,"Ġpub":1964,"arden":1965,"Ġasleep":1966,"Ġcent":1967,"ĠJapanese":1968,"Ġresp":1969,"set":1970,"Ġhomework":1971,"Ġvide":1972,"Ġpri":1973,"Ġhold":1974,"lfriend":1975,"Ġprep":1976,"Ġrestaur":1977,"Ġbot":1978,"fer":1979,"ask":1980,"Ġprod":1981,"ats":1982,"ains":1983,"ians":1984,"Ġlose":1985,"Pe":1986,"Ġadmitted":1987,"Ġcolle":1988,"Ġwomen":1989,"Fadil":1990,"ude":1991,"Ġduring":1992,"Ġsever":1993,"Ġwine":1994,"Ġplans":1995,"by":1996,"usband":1997,"ĠAlgiers":1998,"fter":1999,"Ġevening":2000,"ush":2001,"rent":2002,"Ġflo":2003,"Ġtou":2004,"Ġstudent":2005,"Both":2006,"uro":2007,"Ġpick":2008,"Ġpie":2009,"Ġbag":2010,"ully":2011,"Ġseveral":2012,"Ġgarden":2013,"Ġterri":2014,"Ġmid":2015,"itten":2016,"Ġpoint":2017,"Ġgirlfriend":2018,"aff":2019,"io":2020,"Ġhuman":2021,"Ġsold":2022,"Ġswimming":2023,"Ġuni":2024,"Ġve":2025,"ĠV":2026,"Ġbirthday":2027,"Ġbar":2028,"Sh":2029,"ences":2030,"vious":2031,"oup":2032,"ific":2033,"Ġperfect":2034,"ensive":2035,"rect":2036,"Ġann":2037,"vern":2038,"An":2039,"Ġlearned":2040,"Ġbel":2041,"ccess":2042,"Ġwilling":2043,"Ġpost":2044,"Ġbegin":2045,"Ġelect":2046,"Ġhusband":2047,"Ġty":2048,"ĠIn":2049,"To":2050,"For":2051,"Ġbicy":2052,"arning":2053,"own":2054,"Now":2055,"Ġfut":2056,"ution":2057,"Ġfact":2058,"Ġwhite":2059,"Ġinst":2060,"ken":2061,"iew":2062,"Ġolder":2063,"Ġfish":2064,"Ġmot":2065,"ived":2066,"Ġes":2067,"oking":2068,"ames":2069,"Ġhon":2070,"ike":2071,"cl":2072,"Ġtaken":2073,"Ġpower":2074,"Ġreport":2075,"Ġaccept":2076,"Ġpen":2077,"mas":2078,"ane":2079,"Ġlearning":2080,"Ġrece":2081,"ĠFr":2082,"Ġcompletely":2083,"ĠYanni":2084,"Ġtea":2085,"Ġtick":2086,"Ġsuper":2087,"Ġhid":2088,"Al":2089,"reen":2090,"ots":2091,"Ġsentence":2092,"Ġbuilding":2093,"atur":2094,"Ġbath":2095,"Ġcatch":2096,"People":2097,"Ġmine":2098,"Ġcra":2099,"Ġlanguages":2100,"Ġpoor":2101,"Ġdem":2102,"ring":2103,"Ġbody":2104,"Ġsituation":2105,"Ġfinally":2106,",\"":2107,"Ġquiet":2108,"Ġopened":2109,"ead":2110,"Ġinside":2111,"After":2112,"Ġfuture":2113,"ments":2114,"ator":2115,"Ġarg":2116,"Ġgiven":2117,"Ġtrip":2118,"Ġsuccess":2119,"Ġshall":2120,"Ġspeaks":2121,"Ġshowed":2122,"Ġinform":2123,"Ġhotel":2124,"Ġlead":2125,"ee":2126,"acks":2127,"Ġpract":2128,"ĠCanad":2129,"Which":2130,"Ġspeaking":2131,"airs":2132,"aya":2133,"Ġrestaurant":2134,"Ġrid":2135,"Ġcond":2136,"Ġcollege":2137,"Ġcomplain":2138,"Ġweeks":2139,"Ġstrange":2140,"ugg":2141,"dle":2142,"iced":2143,"Ġrealized":2144,"Dan":2145,"Ġmount":2146,"Ġnor":2147,"Ġce":2148,"fast":2149,"Ġacross":2150,"velop":2151,"Ġdollars":2152,"Ġjoin":2153,"Ġearth":2154,"Ġris":2155,"Ġteach":2156,"Ġprof":2157,"Ġarrest":2158,"ds":2159,"dred":2160,"Ġgovern":2161,"ding":2162,"Ġeither":2163,"ennis":2164,"Ġconsider":2165,"Ġlying":2166,"Ġgun":2167,"Ġattention":2168,"Ġfair":2169,"eth":2170,"Ġopin":2171,"Ġtele":2172,"ĠAr":2173,"Ġprison":2174,"Ġcheck":2175,"Ġinj":2176,"Ġdrinking":2177,"Ġslow":2178,"Ġmilk":2179,"Ġborrow":2180,"Ġthough":2181,"Ġbicycle":2182,"Ġupset":2183,"Ġvac":2184,"orts":2185,"Ġplayed":2186,"Ġcla":2187,"Ġtelling":2188,"Ġlie":2189,"Ġleaving":2190,"ervous":2191,"Ġsometimes":2192,"Ġpull":2193,"Ġnervous":2194,"Ġgener":2195,"Ġappro":2196,"ained":2197,"ued":2198,"Ġsil":2199,"Ġcup":2200,"Ġought":2201,"Ġclim":2202,"ager":2203,"Ġkey":2204,"ues":2205,"So":2206,"Ġ201":2207,"ĠChristmas":2208,"fully":2209,"Ġtennis":2210,"Ġtop":2211,"Give":2212,"iction":2213,"Ġdangerous":2214,"bit":2215,"Ġshot":2216,"oid":2217,"Ġdire":2218,"Ġcal":2219,"ĠSp":2220,"Ġsad":2221,"Ġmeans":2222,"Ġpolit":2223,"Ġflowers":2224,"na":2225,"Ġquit":2226,"Ġriver":2227,"Ġbreakfast":2228,"ices":2229,"Ġcontro":2230,"enty":2231,"Ġfil":2232,"stem":2233,"ĠZiri":2234,"Ġhundred":2235,"Ġclosed":2236,"Ġbase":2237,"arch":2238,"Ġcrying":2239,"rap":2240,"Ġexpl":2241,"ened":2242,"Ġworth":2243,"Ġdiv":2244,"bers":2245,"Ġmod":2246,"Ġfloor":2247,"Everybody":2248,"ĠKabylie":2249,"Ne":2250,"Ġexpensive":2251,"Ġmur":2252,"Ġsomebody":2253,"rown":2254,"Ġice":2255,"Ġblue":2256,"Ġpun":2257,"bs":2258,"Ġed":2259,"ines":2260,"Ġmis":2261,"Ġdiscuss":2262,"Ġbank":2263,"Ġeng":2264,"Ġtakes":2265,"ift":2266,"Ġdeep":2267,"Ġprotect":2268,"Ġguys":2269,"Ġcouple":2270,"ically":2271,"Ġmill":2272,"Ġhang":2273,"Ġdriving":2274,"Ġsense":2275,"Ġren":2276,"Ġbeer":2277,"Even":2278,"Ġnecess":2279,"Ġapartment":2280,"Ġdecision":2281,"Ġpassed":2282,"Ġboss":2283,"ilt":2284,"Ġlucky":2285,"Ġfool":2286,"Ġheav":2287,"friend":2288,"Ġdogs":2289,"ury":2290,"amed":2291,"ior":2292,"ges":2293,"Ġallow":2294,"ech":2295,"Ġtravel":2296,"Ġcrazy":2297,"arket":2298,"Ġgirls":2299,"urope":2300,"Ġtast":2301,"Ġguess":2302,"Ġwalking":2303,"Ġtext":2304,"Ġapolog":2305,"ule":2306,"head":2307,"Ġbeha":2308,"Ġbill":2309,"Ġcre":2310,"ards":2311,"Ġgrad":2312,"Ch":2313,"Ġsupport":2314,"Ġphot":2315,"Ġball":2316,"ery":2317,"Ġpaper":2318,"ishing":2319,"Ġbread":2320,"itchen":2321,"ocked":2322,"like":2323,"lla":2324,"Ġadvice":2325,"Ġdi":2326,"Ġcorrect":2327,"Ġir":2328,"Ġstaying":2329,"Ġkitchen":2330,"Ġmag":2331,"Somet":2332,"Ġspoke":2333,"Ġpromise":2334,"uit":2335,"Ġsand":2336,"Ġhist":2337,"aces":2338,"ĠSun":2339,"Ġfired":2340,"ma":2341,"mp":2342,"Ġsend":2343,"Ġsleeping":2344,"Ġvideo":2345,"Ġtax":2346,"Ġcase":2347,"Ġvoice":2348,"Ġfam":2349,"Ġpublic":2350,"Ġsmell":2351,"Ġsea":2352,"Ġagreed":2353,"acked":2354,"Ġdriver":2355,"Ġones":2356,"Ġstate":2357,"cap":2358,"ror":2359,"inced":2360,"Go":2361,"ceed":2362,"inite":2363,"Ġeaten":2364,"Ġwritten":2365,"Ġste":2366,"Ġstuff":2367,"istic":2368,"ination":2369,"ton":2370,"gan":2371,"nger":2372,"Ġwished":2373,"Ġfly":2374,"Ġcommun":2375,"Ġbroken":2376,"Ġsystem":2377,"Ġrelations":2378,"gar":2379,"medi":2380,"ĠBaya":2381,"Ġproud":2382,"ĠGerman":2383,"read":2384,"Ġdance":2385,"Ġrespect":2386,"oring":2387,"Ġwriting":2388,"Ġumb":2389,"Ġupon":2390,"ĠEurope":2391,"hood":2392,"Ġtouch":2393,"Ġyounger":2394,"Ġcourse":2395,"ousand":2396,"Ġhorse":2397,"era":2398,"Ġocc":2399,"Ġextre":2400,"Ġcarry":2401,"Ġhappening":2402,"ai":2403,"uge":2404,"Ġgovernment":2405,"Ġrealize":2406,"Ġden":2407,"Ġegg":2408,"Ġbat":2409,"ĠNew":2410,"Ġumbre":2411,"Ġwood":2412,"ented":2413,"Ġchoice":2414,"Ġforeign":2415,"uri":2416,"itar":2417,"iol":2418,"âĢĿ":2419,"Ġpictures":2420,"Ġsingle":2421,"cing":2422,"Ġform":2423,"Ġprefer":2424,"Skura":2425,"Ġcop":2426,"Come":2427,"tern":2428,"ĠKabyle":2429,"Ġrunning":2430,"Ġopinion":2431,"Ġclaim":2432,"Ġcross":2433,"Ġpot":2434,"Look":2435,"Ġarrested":2436,"Ġblood":2437,"Ġweight":2438,"Ġrul":2439,"Ġtow":2440,"Ġclos":2441,"Ġmos":2442,"Ġdisappoin":2443,"Ġbeach":2444,"versity":2445,"oday":2446,"Ġmain":2447,"Ġdevelop":2448,"ogn":2449,"omm":2450,"Ġinvited":2451,"ging":2452,"ction":2453,"Ġexperience":2454,"Ġcake":2455,"Ġenjoyed":2456,"Ġrelig":2457,"ĠWe":2458,"Ġhopes":2459,"cri":2460,"Ġmedic":2461,"Ġpos":2462,"ives":2463,"Ġconcern":2464,"light":2465,"Ġcommon":2466,"Ġfamous":2467,"Get":2468,"ik":2469,"ches":2470,"ex":2471,"Stop":2472,"Ġimmedi":2473,"Ġsle":2474,"Ġobvious":2475,"Ġarea":2476,"Ġspace":2477,"ached":2478,"Take":2479,"ony":2480,"Ġeye":2481,"une":2482,"ering":2483,"fied":2484,"Ġtaught":2485,"Ġbur":2486,"Ġlibr":2487,"form":2488,"Ġrecogn":2489,"Ġz":2490,"Ġgar":2491,"Ġstep":2492,"Didn":2493,"Ġconvinced":2494,"Here":2495,"Ġself":2496,"omp":2497,"els":2498,"Ġentire":2499,"Ġextreme":2500,"Ġchair":2501,"But":2502,"Ġmistakes":2503,"bo":2504,"Ġdest":2505,"lier":2506,"ploy":2507,"ĠUnited":2508,"Ġhoping":2509,"Was":2510,"Ġsmart":2511,"Ġinformation":2512,"Ġumbrella":2513,"uce":2514,"arr":2515,"Ġsex":2516,"Ġprop":2517,"ones":2518,"Ġyell":2519,"Ġfunny":2520,"Ġfigure":2521,"Ġheld":2522,"Ġviol":2523,"Ġwinter":2524,"illed":2525,"Ġwhatever":2526,"Ġimag":2527,"Ġemb":2528,"Today":2529,"Ġ3":2530,"Ġspecial":2531,"orth":2532,"erc":2533,"Ġguitar":2534,"Ġvisited":2535,"Ġdesk":2536,"initely":2537,"Ġval":2538,"Ġevent":2539,"Ġign":2540,"Ġstood":2541,"ustom":2542,"arely":2543,"Ġstudied":2544,"Ġboyfriend":2545,"line":2546,"Ġthousand":2547,"Ġpian":2548,"ults":2549,"Ġcontrol":2550,"Ġvill":2551,"Ġwaited":2552,"ah":2553,"Ġgrew":2554,"idence":2555,"Ġglasses":2556,"ories":2557,"ushed":2558,"Ġanimals":2559,"aked":2560,"Ġhappens":2561,"Ġasking":2562,"idge":2563,"Ġhurry":2564,"ety":2565,"Ġtoward":2566,"Everything":2567,"ĠAmerican":2568,"Ġlibrary":2569,"rup":2570,"Ġassum":2571,"Ġpopular":2572,"Ġrefused":2573,"iling":2574,"ument":2575,"Ġneighbor":2576,"een":2577,"to":2578,"Ġmissed":2579,"Ġnecessary":2580,"Ġbelong":2581,"Ġimpro":2582,"ĠChinese":2583,"Ġbreat":2584,"Ġshopping":2585,"Ġpartic":2586,"rat":2587,"ĠRuss":2588,"Ġmeat":2589,"Ġspeech":2590,"cks":2591,"Ġkissed":2592,"Has":2593,"iter":2594,"Ġshop":2595,"Ġstole":2596,"Ġdate":2597,"sper":2598,"Ġseat":2599,"Ġhelping":2600,"Ġsmoking":2601,"teen":2602,"Ġimmediately":2603,"Ġinjured":2604,"ases":2605,"Those":2606,"Ġground":2607,"Ġinvest":2608,"Ġpeace":2609,"Ġrelationship":2610,"With":2611,"ze":2612,"iday":2613,"Ġequ":2614,"Ġrespons":2615,"Ġship":2616,"izz":2617,"dden":2618,"Ġdefinitely":2619,"Ġopt":2620,"Ġdev":2621,"urch":2622,"Ġshirt":2623,"Aren":2624,"Ġsentences":2625,"Ġmessage":2626,"oose":2627,"Ġsomewhere":2628,"Ġplayer":2629,"Ġalive":2630,"Ġbeat":2631,"Ġescap":2632,"Ġforward":2633,"Ġshut":2634,"Ġemp":2635,"itive":2636,"aced":2637,"Ġearlier":2638,"ails":2639,"Ġcoat":2640,"Ġline":2641,"ĠStates":2642,"Ġlawy":2643,"Ġnoticed":2644,"Ġsudden":2645,"Ġtrees":2646,"Ġhonest":2647,"Ġlied":2648,"Ġdrove":2649,"ĠEarth":2650,"Ġhardly":2651,"Ġmaj":2652,"oof":2653,"Ġsuff":2654,"Ġmarry":2655,"Ġwash":2656,"Ġsounds":2657,"Yes":2658,"Ġrad":2659,"Ġhistory":2660,"ĠAf":2661,"olute":2662,"Ġproduct":2663,"Ġseeing":2664,"Ġdeser":2665,"Ġserv":2666,"Ġsqu":2667,"Ġstra":2668,"Ġyours":2669,"Ġwed":2670,"Ġoffic":2671,"gest":2672,"ĠQ":2673,"Ġeff":2674,"Ġsleepy":2675,"Ġburn":2676,"Ġgreen":2677,"Ġsave":2678,"ppy":2679,"Ġplane":2680,"Ġwatched":2681,"Ġconcert":2682,"Ġdam":2683,"book":2684,"come":2685,"oll":2686,"Ġprice":2687,"Ġhoped":2688,"ole":2689,"Ġ5":2690,"Ġappear":2691,"Ġmouth":2692,"Ġhuge":2693,"ional":2694,"Ġring":2695,"Ġexcept":2696,"Ġsurv":2697,"Neither":2698,"Ġcamp":2699,"Ġfeet":2700,"Ġdrank":2701,"Ġterrible":2702,"Ġproject":2703,"Ġcountries":2704,"Ġdifference":2705,"Ġeconomy":2706,"Ġsky":2707,"cer":2708,"Ġfat":2709,"Ġdraw":2710,"Ġsuc":2711,"Ġprov":2712,"Ġjump":2713,"Nothing":2714,"eg":2715,"Ġprepared":2716,"Ġworse":2717,"olved":2718,"ĠMr":2719,"sy":2720,"oned":2721,"rod":2722,"Ġourselves":2723,"Ġappre":2724,"ec":2725,"Ġwarm":2726,"gypt":2727,"Ġview":2728,"Ġcool":2729,"aw":2730,"Ġfing":2731,"Ġnovel":2732,"Ġstraight":2733,"Ġfear":2734,"000":2735,"Ġstanding":2736,"Ġride":2737,"Ġabsolute":2738,"phone":2739,"gress":2740,"Ġmach":2741,"Ġregret":2742,"time":2743,"Ġblame":2744,"ĠAlice":2745,"Ġheavy":2746,"Ġtot":2747,"Ġmosque":2748,"Ġextremely":2749,"Ġcrow":2750,"Ġsucceed":2751,"Ġcult":2752,"fortable":2753,"Ġsusp":2754,"struct":2755,"Ġfail":2756,"ology":2757,"Ġnative":2758,"Ġnotice":2759,"Ġenem":2760,"Ġpiano":2761,"ossible":2762,"Thank":2763,"Ġanywhere":2764,"Ġwedding":2765,"Ġlow":2766,"Ġinn":2767,"Ġpossib":2768,"Ġtruck":2769,"ĠEgypt":2770,"Ġpizz":2771,"Ġoil":2772,"ĠAnd":2773,"Ġvacation":2774,"ality":2775,"Ġminute":2776,"har":2777,"Ġexist":2778,"Ġpresident":2779,"Ġprofess":2780,"Ġnobody":2781,"Ġpiece":2782,"Ġnoise":2783,"Ġgroup":2784,"Ġadmit":2785,"Ġcertainly":2786,"Ġmillion":2787,"Ġbother":2788,"Ġeight":2789,"Ġconvince":2790,"Ġgift":2791,"Ġhol":2792,"Ġmoving":2793,"Ġarrive":2794,"Ġreceived":2795,"Ġmountain":2796,"Ġski":2797,"ĠAmerica":2798,"Ġtreat":2799,"Ġrules":2800,"oph":2801,"Ġbuilt":2802,"Ġwondered":2803,"Ġboys":2804,"Ġpleas":2805,"Ġgas":2806,"Ġaware":2807,"eba":2808,"...":2809,"Ġslept":2810,"Ġimpossible":2811,"lled":2812,"Ġusing":2813,"Ġthank":2814,"Ġeasily":2815,"Ġcollect":2816,"ls":2817,"ends":2818,"ird":2819,"Ġcapital":2820,"Ġlistening":2821,"Oh":2822,"ĠAfric":2823,"Ġiss":2824,"sperant":2825,"Ġben":2826,"Ġrob":2827,"atoeba":2828,"Ġtemper":2829,"ises":2830,"Ġbask":2831,"oken":2832,"ĠItal":2833,"Ġincre":2834,"Ġleaves":2835,"Ġlawyer":2836,"ression":2837,"hess":2838,"Ġattract":2839,"Thanks":2840,"Ġappreci":2841,"Ġkeys":2842,"Ġairport":2843,"Ġ-":2844,"Ġpress":2845,"ealous":2846,"astic":2847,"Ġchurch":2848,"father":2849,"Ġsmile":2850,"Ġnorm":2851,"Ġant":2852,"Most":2853,"Ġoffer":2854,"Someone":2855,"Ġmiddle":2856,"Ġnatur":2857,"anish":2858,"Ġprin":2859,"gn":2860,"acy":2861,"Ġdiction":2862,"Ġgotten":2863,"Ġfeels":2864,"Ġcars":2865,"mb":2866,"ster":2867,"Ġreturned":2868,"Ġobs":2869,"Ġcute":2870,"Ġdisappointed":2871,"Ex":2872,"Ġflu":2873,"het":2874,"Ġplanned":2875,"Ġfilm":2876,"inal":2877,"ission":2878,"Ġpainting":2879,"Ġpulled":2880,"over":2881,"ending":2882,"Ġfield":2883,"Ġlone":2884,"ency":2885,"cket":2886,"haps":2887,"ising":2888,"lect":2889,"Ġamong":2890,"rently":2891,"Ġstar":2892,"Ġvol":2893,"Ġrecently":2894,"Ġpriv":2895,"urious":2896,"Ġwore":2897,"Ġended":2898,"Ġauth":2899,"Ġjud":2900,"Ġconfused":2901,"Ġcolor":2902,"resh":2903,"Ġsight":2904,"ortun":2905,"ified":2906,"arrass":2907,"Ġsinging":2908,"Ġseriously":2909,"Ġembarrass":2910,"Ġaccount":2911,"Ġveget":2912,"ĠArab":2913,"Ġbaseball":2914,"Ġfishing":2915,"Ġhide":2916,"Ġthrew":2917,"Ġunlike":2918,"Ġhates":2919,"Ġjealous":2920,"clock":2921,"Ġavoid":2922,"Ġsweet":2923,"ides":2924,"irty":2925,"Should":2926,"lo":2927,"Ġpicked":2928,"ters":2929,"Ġproper":2930,"Ġsandw":2931,"Ġnewsp":2932,"ires":2933,"Ġapple":2934,"Ġsatis":2935,"aded":2936,"Ġpatient":2937,"Ġchess":2938,"Ġmeant":2939,"Ġtraff":2940,"Ġbottle":2941,"Ġ'":2942,"Mr":2943,"Ġthreat":2944,"Ġannoy":2945,"Ġdrug":2946,"ĠWhat":2947,"road":2948,"Ġlos":2949,"stairs":2950,"Ġuncle":2951,"Ġeats":2952,"Ġorgan":2953,"Ġrecord":2954,"ĠThey":2955,"Ġunc":2956,"Ġeggs":2957,"Ġcustom":2958,"Ġfailed":2959,"Ġdivor":2960,"Ġmedicine":2961,"dy":2962,"Ġcard":2963,"Ġintell":2964,"Ġsuitc":2965,"Ġsurprise":2966,"Ġmovies":2967,"Ġfaster":2968,"Ġexcited":2969,"Ġafford":2970,"Ġlim":2971,"Ġincl":2972,"Ġsubject":2973,"Ġcorn":2974,"itch":2975,"de":2976,"Ġmajor":2977,"ey":2978,"Ġknife":2979,"Ġpray":2980,"overed":2981,"Ġvillage":2982,"Ġ4":2983,"ffect":2984,"Ġsimple":2985,"\".":2986,"Ġer":2987,"riage":2988,"Ġtour":2989,"speranto":2990,"Ġsuit":2991,"ghed":2992,"Ġobject":2993,"Un":2994,"ĠMar":2995,"Ġener":2996,"Ġbasket":2997,"Ġtraffic":2998,"Ġaut":2999,"Ġbored":3000,"Ġcamera":3001,"Try":3002,"eared":3003,"Ġamaz":3004,"key":3005,"ler":3006,"ĠCanadian":3007,"fered":3008,"amp":3009,"Ġdictionary":3010,"Ġrisk":3011,"Ġsmoke":3012,"Well":3013,"usted":3014,"Ġticket":3015,"Ġwaste":3016,"ulation":3017,"ĠAn":3018,"Ġbelieved":3019,"Ġcats":3020,"Ġdating":3021,"Ġabsolutely":3022,"Ġcream":3023,"Ġsocial":3024,"ables":3025,"Ġdrinks":3026,"Put":3027,"Ġnamed":3028,"rib":3029,"Were":3030,"Ġbull":3031,"Ġunderstood":3032,"Ġfac":3033,"Ġmarket":3034,"Ġpack":3035,"Ġenv":3036,"Ġharder":3037,"Ġauthor":3038,"Ġcow":3039,"ograp":3040,"Ġraining":3041,"gram":3042,"Ġlonely":3043,"Ġcreat":3044,"Ġloud":3045,"uts":3046,"ocol":3047,"oming":3048,"ĠJacks":3049,"Ġpizza":3050,"Ġahead":3051,"eep":3052,"Ġhandle":3053,"Ġfault":3054,"Ġcontact":3055,"antly":3056,"Ġfarm":3057,"cent":3058,"Ġintern":3059,"Ġur":3060,"Ġplays":3061,"Ġclub":3062,"Ġaddress":3063,"Ġdirect":3064,"Ġfeelings":3065,"ledge":3066,"Ġoffered":3067,"Ġseven":3068,"Ġthrow":3069,"Ġgiving":3070,"Ġdad":3071,"Ġjack":3072,"Ġdropped":3073,"Ġdeb":3074,"Ġwonderful":3075,"Ġbeginning":3076,"omes":3077,"Ġlocked":3078,"Ġcompet":3079,"sit":3080,"Ġfre":3081,"mother":3082,"Ġpermitted":3083,"onna":3084,"Ġdressed":3085,"Ġsolve":3086,"Ġrepl":3087,"Ġexpecting":3088,"Ġfruit":3089,"Ġinnoc":3090,"Ġmachine":3091,"Ġterm":3092,"Ġpu":3093,"ĠTok":3094,"chie":3095,"ĠPar":3096,"Ġcir":3097,"enced":3098,"Ġconcerned":3099,"Ġconvers":3100,"Ġforgotten":3101,"Ġid":3102,"Ġawake":3103,"Ġbathroom":3104,"Ġcried":3105,"lebr":3106,"Ġmoon":3107,"Ġmurder":3108,"Ġprev":3109,"Ġcrowd":3110,"Ġ(":3111,"Ġisland":3112,"Ġeffect":3113,"Ġteeth":3114,"Ġpersu":3115,"sidered":3116,"Ġinvolved":3117,"Ġgold":3118,"Ġbright":3119,"Ġlaughed":3120,"Ġenc":3121,"Ġunlikely":3122,"Ġfur":3123,"Ġmissing":3124,"ording":3125,"Ġcause":3126,"ilty":3127,"Ġempty":3128,"vered":3129,"yo":3130,"Ġsuggested":3131,"Ġeduc":3132,"cious":3133,"Ġcell":3134,"Ġfit":3135,"Ġintrod":3136,"Ġuniversity":3137,"Ġplant":3138,"Ġpleased":3139,"Ġguilty":3140,"Ġnatural":3141,"Ġweak":3142,"Ġweird":3143,"Ġcelebr":3144,"Ġbike":3145,"Ġdecide":3146,"Ġrese":3147,"Ġattend":3148,"Ġstorm":3149,"Ġorig":3150,"Ġwarn":3151,"atic":3152,"Ġgradu":3153,"Ġstol":3154,"Ġconsidered":3155,"Ġspoken":3156,"Ġimpressed":3157,"Ġfla":3158,"Ġfresh":3159,"Ġfort":3160,"Ġordered":3161,"Ġforest":3162,"Ġtwice":3163,"Ġshar":3164,"Ġstolen":3165,"Ġband":3166,"Ġdeterm":3167,"ja":3168,"Ġspring":3169,"Ġconst":3170,"ov":3171,"ung":3172,"Ġscream":3173,"Ġphys":3174,"Ġcharac":3175,"Ġcalling":3176,"Ġattack":3177,"ĠJackson":3178,"Ġiv":3179,"gth":3180,"Ġskin":3181,"Ġeconomic":3182,"Ġcous":3183,"uses":3184,"ache":3185,"Ġjobs":3186,"Ġ10":3187,"Ġcooking":3188,"Ġopportun":3189,"ĠFrance":3190,"ĠSpanish":3191,"Ġhell":3192,"Ġtech":3193,"Ġjail":3194,"Ġteaching":3195,"icle":3196,"Ġtwenty":3197,"Ġflight":3198,"Ġthird":3199,"Ġlaughing":3200,"Ġmention":3201,"Ġfif":3202,"Ġfootball":3203,"ĠShe":3204,"Ġshy":3205,"Ġfollowed":3206,"Ġslowly":3207,"Since":3208,"Ġchocol":3209,"Ġrequired":3210,"Ġgonna":3211,"Ġgrandfather":3212,"Ġpair":3213,"Ġcarefully":3214,"Ġsoft":3215,"Ġchick":3216,"Ġbuying":3217,"Ġ6":3218,"verse":3219,"Ġround":3220,"Ġsoci":3221,"Ġblind":3222,"Ġideas":3223,"Ġvar":3224,"Ġpurp":3225,"ĠSunday":3226,"Mar":3227,"Ġest":3228,"oint":3229,"Ġarms":3230,"Ġreached":3231,"Ġmanager":3232,"Ġfle":3233,"Ġstri":3234,"Ġrent":3235,"Ġtor":3236,"Ġsports":3237,"Ġenergy":3238,"Ġking":3239,"cked":3240,"Ġinstead":3241,"Ġhous":3242,"Ġshare":3243,"cha":3244,"ium":3245,"Ġhealthy":3246,"Ġjoke":3247,"Ġsugar":3248,"Ġcrime":3249,"Ġru":3250,"tain":3251,"oul":3252,"Ġlay":3253,"Ġyourselves":3254,"par":3255,"pri":3256,"vision":3257,"Ġfeed":3258,"Ġsuddenly":3259,"Ġdirty":3260,"Ġstick":3261,"Ġabove":3262,"Ġcalm":3263,"Ġeventually":3264,"Ġcovered":3265,"Ġbear":3266,"let":3267,"Keep":3268,"af":3269,"Ġneg":3270,"Ġspec":3271,"ĠChina":3272,"Ġtal":3273,"ilar":3274,"Ġcaused":3275,"Ġtechn":3276,"aven":3277,"Ġrecomm":3278,"lies":3279,"Ġivy":3280,"Ġflat":3281,"cient":3282,"Ġscience":3283,"ĠEsperanto":3284,"Ġfollowing":3285,"Ġanswered":3286,"ĠâĢľ":3287,"uced":3288,"Ġtur":3289,"Ġtype":3290,"Ġintellig":3291,"Ġwake":3292,"Ġabroad":3293,"Ġdelic":3294,"Ġunf":3295,"Ġscient":3296,"Ġbirds":3297,"ĠThat":3298,"Ġkil":3299,"Ġmarriage":3300,"Ġpool":3301,"roy":3302,"Ġda":3303,"Ġcoun":3304,"ĠInd":3305,"Ġprogram":3306,"Ġlots":3307,"icted":3308,"Ġplanet":3309,"Ġbehav":3310,"Ġnormal":3311,"ene":3312,"asc":3313,"Ġemploy":3314,"Ġ$":3315,"llen":3316,"ashed":3317,"Ġcrit":3318,"Ġsinger":3319,"Ġcast":3320,"Ġbedroom":3321,"Ġbird":3322,"Per":3323,"zz":3324,"rog":3325,"irus":3326,"Ġimm":3327,"rupt":3328,"Ġble":3329,"hem":3330,"oted":3331,"Ġpractice":3332,"Ġdeg":3333,"Ġvict":3334,"und":3335,"ina":3336,"cil":3337,"Ġhy":3338,"Ġwealth":3339,"ĠTatoeba":3340,"Ġadvised":3341,"uly":3342,"unt":3343,"Ġengine":3344,"Ġtowards":3345,"ills":3346,"Ġmanaged":3347,"ounded":3348,"Ġlic":3349,"ondon":3350,"Ġjour":3351,"lax":3352,"Ġharm":3353,"ale":3354,"ĠZ":3355,"ify":3356,"Ġdel":3357,"Ġexha":3358,"Ġtough":3359,"Ġreach":3360,"Ġresult":3361,"Ġintend":3362,"Ġsuspic":3363,"ĠTokyo":3364,"Ġlend":3365,"Ġdoc":3366,"ization":3367,"Ġ2013":3368,"Ġwithin":3369,"perate":3370,"Ġforgive":3371,"Life":3372,"Ġtie":3373,"Only":3374,"Ġtill":3375,"Ġmir":3376,"Ġapologize":3377,"Ġstarting":3378,"fortun":3379,"Ġnewspaper":3380,"urs":3381,"Ġunha":3382,"Ġnose":3383,"Ġlock":3384,"ĠParis":3385,"Ġexplained":3386,"Ġradio":3387,"ray":3388,"Ġneck":3389,"Ġrock":3390,"Ġlocal":3391,"Ġhated":3392,"Ġlegs":3393,"Ġchocolate":3394,"Ġentered":3395,"Good":3396,"Ġbri":3397,"Ġtalks":3398,"Ġsched":3399,"Ġkeeps":3400,"oured":3401,"Ġstuck":3402,"Their":3403,"Ġfright":3404,"Ġdemand":3405,"Ġrace":3406,"Ġtranslate":3407,"Ġsort":3408,"Sometimes":3409,"Ġpurpose":3410,"Ġwoke":3411,"Ġearn":3412,"ij":3413,"Ġ200":3414,"omed":3415,"Ġspread":3416,"inda":3417,"Ġaffect":3418,"Ġinfl":3419,"Ġletters":3420,"Ġreligion":3421,"Ġmood":3422,"Ġknowledge":3423,"Ġresults":3424,"Ġboat":3425,"days":3426,"Ġbrothers":3427,"essed":3428,"ccer":3429,"Ġdescri":3430,"Ġcontinue":3431,"ances":3432,"Ġtaxi":3433,"Ġspeaker":3434,"Ġdue":3435,"ĠGermany":3436,"Ġwild":3437,"Ġmatch":3438,"Ġmeaning":3439,"Ġwa":3440,"hings":3441,"Ġlevel":3442,"ests":3443,"Ġunhappy":3444,"Ġfilled":3445,"Ġrev":3446,"Ġdut":3447,"Ġworst":3448,"ĠâĢĶ":3449,"ĠLondon":3450,"Ġfriendly":3451,"Ġresponsible":3452,"Ġinnocent":3453,"Ġcance":3454,"Ġpersonal":3455,"shield":3456,"Ġhiding":3457,"Ġperform":3458,"Something":3459,"go":3460,"Ġsoup":3461,"Ġcloud":3462,"Ġcirc":3463,"Ġcharge":3464,"Ġdenied":3465,"ohol":3466,"Ġraised":3467,"cohol":3468,"Ġwis":3469,"Ġrude":3470,"Ġwindshield":3471,"Ġsens":3472,"using":3473,"Ġteachers":3474,"Ġpermission":3475,"Ġmass":3476,"Ġrelax":3477,"useum":3478,"Things":3479,"lcome":3480,"ĠTh":3481,"raz":3482,"Ġtelevision":3483,"Ġamazing":3484,"Ġdry":3485,"amm":3486,"Ġsteal":3487,"Ġfan":3488,"Ġgrandmother":3489,"Tr":3490,"Ġdra":3491,"Ġtears":3492,"epend":3493,"Ġconversation":3494,"Ġmotor":3495,"Ġtowel":3496,"Ġjacket":3497,"Ġbarely":3498,"Ġlab":3499,"cean":3500,"Ġdishes":3501,"Ġexperi":3502,"Ġtyp":3503,"Ġsandwich":3504,"Ġsatisfied":3505,"Any":3506,"Ġlady":3507,"Hey":3508,"Ġobviously":3509,"ĠQur":3510,"ĠAfrica":3511,"nect":3512,"Ġban":3513,"ĠAs":3514,"Ġanx":3515,"Ġpan":3516,"Ġchoose":3517,"Ġbridge":3518,"Ask":3519,"Ġitself":3520,"ief":3521,"ender":3522,"Ġtaste":3523,"Ġescape":3524,"Perhaps":3525,"arter":3526,"Ġver":3527,"Ġapples":3528,"Ġforced":3529,"Ġremind":3530,"Ġshower":3531,"Ġneighborhood":3532,"Ġhig":3533,"Ġpretended":3534,"ka":3535,"sed":3536,"Ġnature":3537,"Ġnames":3538,"Ġeasier":3539,"ney":3540,"Ġboring":3541,"Ġremain":3542,"Ġcontinued":3543,"ĠQuran":3544,"Am":3545,"Make":3546,"Ġways":3547,"Ġlake":3548,"lling":3549,"Ġpsy":3550,"ograph":3551,"Ġaud":3552,"Ġlift":3553,"ental":3554,"irsty":3555,"Ġsimilar":3556,"Ġhouses":3557,"look":3558,"Ġthy":3559,"Ġwashed":3560,"Ġsoccer":3561,"Ġexerc":3562,"Ġpoin":3563,"ĠRussian":3564,"Ġund":3565,"Ġthirteen":3566,"bing":3567,"Ġgolf":3568,"Ġgrowing":3569,"Ġheat":3570,"Ġbell":3571,"Ġassist":3572,"Ġposition":3573,"Ġbasketball":3574,"att":3575,"ĠBut":3576,"ounds":3577,"Isn":3578,"Ġcheese":3579,"Ġimprove":3580,"ural":3581,"ĠLord":3582,"Ġhanded":3583,"Ġfixed":3584,"onment":3585,"Ġdestroy":3586,"Ġappreciate":3587,"uel":3588,"Ġbelieves":3589,"king":3590,"okes":3591,"rel":3592,"arm":3593,"Ġbutter":3594,"Ġwhose":3595,"Ġcash":3596,"Ġcomfortable":3597,"Ġwindows":3598,"Ġanimal":3599,"ĠBe":3600,"Ġpopulation":3601,"Ġparticular":3602,"Ġoper":3603,"Ġgarage":3604,"Ġmaster":3605,"ldom":3606,"Ġgives":3607,"Ġpunished":3608,"hered":3609,"itions":3610,"ows":3611,"Ġuses":3612,"Ġembarrassed":3613,"Ġspir":3614,"Ġwise":3615,"Ġdying":3616,"antic":3617,"ildren":3618,"By":3619,"Ġident":3620,"Ġadop":3621,"Ġpotato":3622,"abbed":3623,"Ġbutton":3624,"Ġaffair":3625,"Ġfairly":3626,"ym":3627,"Ġachie":3628,"Ġsour":3629,"Ġpet":3630,"Ġhall":3631,"Ġseldom":3632,"Ġdesp":3633,"Ġcourage":3634,"Ġsuitcase":3635,"cause":3636,"Ġhired":3637,"Ġlies":3638,"Ġextra":3639,"Ġsharp":3640,"Of":3641,"wo":3642,"Ġwet":3643,"Ġrice":3644,"Ġlosing":3645,"ron":3646,"inary":3647,"Ġcarried":3648,"Ġsurf":3649,"Ġchallen":3650,"Ġindust":3651,"Ġabsent":3652,"Ġneither":3653,"Ġdise":3654,"Ġpolitical":3655,"âĢĶ":3656,"ses":3657,"Ġwears":3658,"acebook":3659,"Ġwallet":3660,"board":3661,"Ġstars":3662,"Ġanyway":3663,"Ġdesign":3664,"ram":3665,"uing":3666,"Ġcred":3667,"Ġgames":3668,"Ġpainted":3669,"Ġenemy":3670,"Ġcorner":3671,"che":3672,"Ġconver":3673,"Ġboard":3674,"Ġdrop":3675,"Ġnational":3676,"Ġtrad":3677,"Ġpregn":3678,"Ġpaint":3679,"Ġappoint":3680,"Ġdancing":3681,"ĠIntern":3682,"dd":3683,"Ġbott":3684,"Ġtelephone":3685,"Ġtotally":3686,"Ġmuseum":3687,"Ġord":3688,"Ġreluct":3689,"Ġdepart":3690,"Ġidi":3691,"Ġspl":3692,"Ġunless":3693,"ĠArabic":3694,"Ġbi":3695,"Ġsmiled":3696,"Ġsolution":3697,"Ġavail":3698,"Ġcharacter":3699,"Ġopportunity":3700,"ees":3701,"asons":3702,"ĠFar":3703,"Ġlights":3704,"rated":3705,"Ġnon":3706,"ĠBrit":3707,"Ġlargest":3708,"Ġservice":3709,"eral":3710,"irm":3711,"Ġplaces":3712,"Ġforever":3713,"Ġju":3714,"Ġeverywhere":3715,"Ġ8":3716,"Ġnearly":3717,"Ġliter":3718,"Ġsepar":3719,"Ġlistened":3720,"nic":3721,"Ġemot":3722,"ĠThere":3723,"itude":3724,"itiz":3725,"Ġstories":3726,"Ġdiscovered":3727,"Ġsongs":3728,"gl":3729,"Ġpred":3730,"Ġrap":3731,"Because":3732,"Ġsaved":3733,"Ġexpress":3734,"host":3735,"men":3736,"rop":3737,"ironment":3738,"ume":3739,"Ġdesperate":3740,"Ġcheap":3741,"Ġshoot":3742,"Ġhandsome":3743,"airo":3744,"Ġrecognize":3745,"Ġhesit":3746,"Ġusual":3747,"Ġalcohol":3748,"Ġfighting":3749,"ils":3750,"Ġstudies":3751,"Ġregion":3752,"Ġclearly":3753,"Ġtaller":3754,"Ġbigger":3755,"Ġhorri":3756,"Rima":3757,"Ġwashing":3758,"ube":3759,"Ġdistance":3760,"Ġ9":3761,"Ġcookies":3762,"Ġess":3763,"ĠFacebook":3764,"ĠYork":3765,"Ġbreath":3766,"cell":3767,"Ġroof":3768,"Ġsooner":3769,"Ġcondition":3770,"Ġgoal":3771,"Ġshit":3772,"ĠLinda":3773,"empt":3774,"Ġdelicious":3775,"Ġcab":3776,"Ġmeas":3777,"Ġunl":3778,"Ġunable":3779,"Ġpocket":3780,"Ġfigured":3781,"Ġprivate":3782,"Ġdetermined":3783,"Ġpsych":3784,"John":3785,"ned":3786,"Ġforce":3787,"Ġjudge":3788,"Ġexhausted":3789,"ev":3790,"under":3791,"Ġimagine":3792,"ential":3793,"Ġprogress":3794,"Ġelectric":3795,"inated":3796,"Ġthou":3797,"ĠCairo":3798,"Ġflower":3799,"Ġrule":3800,"omen":3801,"Ġsearch":3802,"Ġconnect":3803,"Ġ7":3804,"Doing":3805,"Ġsuspicious":3806,"Ġduty":3807,"hern":3808,"Ġpaying":3809,"Ġraise":3810,"omb":3811,"Ġmap":3812,"Ġfuck":3813,"pa":3814,"Ġnation":3815,"Ġstom":3816,"Ġlazy":3817,"Algerian":3818,"ope":3819,"Ġdreams":3820,"Ġexample":3821,"isted":3822,"ĠEve":3823,"gged":3824,"Ġoppos":3825,"Ġinclud":3826,"Ġaband":3827,"pper":3828,"Ġindepend":3829,"Ġarticle":3830,"Ġaccepted":3831,"Ġbehavior":3832,"Ġug":3833,"Ġvote":3834,"ugged":3835,"razil":3836,"Ġmeal":3837,"Ġpencil":3838,"rets":3839,"Ġstren":3840,"Ġcover":3841,"Never":3842,"Ġspot":3843,"Ġspeed":3844,"Ġenjoying":3845,"rees":3846,"Ġbas":3847,"ulous":3848,"cip":3849,"yle":3850,"Ġmanage":3851,"Ġsuppose":3852,"Ġdepressed":3853,"fortunately":3854,"Ġcentury":3855,"Ġexplan":3856,"Ġsoul":3857,"Ġtong":3858,"Ġghost":3859,"Ġshocked":3860,"Ġchanges":3861,"Ġsuccessful":3862,"Ġchecked":3863,"ĠFarid":3864,"ĠHow":3865,"Ġhung":3866,"Ġenter":3867,"bye":3868,"ĠNorth":3869,"ference":3870,"Ġpath":3871,"Ġparked":3872,"From":3873,"wed":3874,"Ġtight":3875,"owing":3876,"Ġenvironment":3877,"Ġfurther":3878,"Ġrepe":3879,"Ġretired":3880,"Ġwhom":3881,"Ġcalls":3882,"Ġbeauty":3883,"reedom":3884,"Sorry":3885,"Yesterday":3886,"orld":3887,"though":3888,"Ġclock":3889,"Le":3890,"Ġhearing":3891,"Ġtells":3892,"ius":3893,"Ġcitiz":3894,"Ġaccomp":3895,"Ġbadly":3896,"Ġmotiv":3897,"ĠFriday":3898,"Ġholiday":3899,"Ġwide":3900,"Ġwebs":3901,"Ġsuperm":3902,"Ġcommunic":3903,"Ġjumped":3904,"Ġowe":3905,"Ġthirsty":3906,"Ġuseful":3907,"Ġholding":3908,"dom":3909,"erg":3910,"apt":3911,"Ġsimp":3912,"Ġrequest":3913,"urity":3914,"Ġlicense":3915,"imistic":3916,"uted":3917,"ouraged":3918,"Ġbrain":3919,"erve":3920,"Ġemer":3921,"ips":3922,"Ġchicken":3923,"Ġplenty":3924,"Ġwhenever":3925,"âĢľ":3926,"Ġ18":3927,"ipe":3928,"Ġfaith":3929,"Ġtempt":3930,"co":3931,"iest":3932,"oved":3933,"rain":3934,"Ġfed":3935,"Ġlack":3936,"Ġgent":3937,"Ġweap":3938,"Ġamb":3939,"Ġadvant":3940,"Ġfinger":3941,"val":3942,"rael":3943,"Ġassume":3944,"Ġglo":3945,"Ġinflu":3946,"arently":3947,"amb":3948,"Ġmember":3949,"ators":3950,"Ġsize":3951,"Ġcoo":3952,"Ġcurious":3953,"Ġseason":3954,"Ġexcell":3955,"Ġpercent":3956,"Ġvegetables":3957,"Ġmail":3958,"Ġpoem":3959,"Ġavailable":3960,"ĠDay":3961,"mon":3962,"ĠSatur":3963,"Ġbecoming":3964,"Ġcontract":3965,"stron":3966,"Ġsociety":3967,"God":3968,"Ġmark":3969,"Ġhabit":3970,"Ġclasses":3971,"Ġdetails":3972,"Ġneighbors":3973,"Ġmiles":3974,"Ġwoods":3975,"Ġpropos":3976,"Ġrum":3977,"Ġdisg":3978,"Ġmult":3979,"Then":3980,"Ġsalt":3981,"Ġsang":3982,"Ġmath":3983,"Ġcig":3984,"Ġpoured":3985,"Ġrac":3986,"Ġpoison":3987,"Ġupstairs":3988,"Ġfoc":3989,"Ġschedule":3990,"unte":3991,"Ġteen":3992,"Ġacqu":3993,"Ġmagaz":3994,"Ġoccur":3995,"iting":3996,"Ġamount":3997,"Ġpassport":3998,"Ġartist":3999,"Ġsilent":4000,"Ġinvestig":4001,"ĠIf":4002,"Ġonline":4003,"Ġrose":4004,"Ġreasons":4005,"Ġburned":4006,"Ġrecommend":4007,"yond":4008,"ĠThis":4009,"Ġtrick":4010,"Ġresign":4011,"cons":4012,"Ġkicked":4013,"icide":4014,"Ġstaring":4015,"tered":4016,"Ġsisters":4017,"Ġphoto":4018,"Ġappointment":4019,"Ġ30":4020,"Ġsurr":4021,"Ġdepend":4022,"Ġeffort":4023,"Ġshout":4024,"apers":4025,"Ġtreated":4026,"Ġflying":4027,"Ġfrightened":4028,"Ġugly":4029,"Ġsimply":4030,"Ġgentle":4031,"Ġjuice":4032,"phan":4033,"Ã©":4034,"Ġcarp":4035,"Ġevil":4036,"Ġpleasure":4037,"Ġissue":4038,"Ġeducation":4039,"Ġcritic":4040,"uments":4041,"Ġstomach":4042,"Ġexcellent":4043,"kn":4044,"Ġconfident":4045,"ĠStreet":4046,"ining":4047,"Ġbow":4048,"eter":4049,"Ġbal":4050,"Ġannoun":4051,"Ġvolunte":4052,"born":4053,"iod":4054,"Ġimpress":4055,"ĠPark":4056,"Ġstrugg":4057,"orter":4058,"Ġmodern":4059,",âĢĿ":4060,"iving":4061,"ingu":4062,"Ġocean":4063,"Ġreact":4064,"ode":4065,"Ġexplanation":4066,"Ġsupermarket":4067,"usion":4068,"ivil":4069,"Ġinvite":4070,"Ġtongue":4071,"ials":4072,"Ġears":4073,"ĠUS":4074,"Ġbeyond":4075,"ata":4076,"Ġhappiness":4077,"Ġlately":4078,"Ġcris":4079,"oman":4080,"Ġevidence":4081,"Ġhanging":4082,"Ġcreated":4083,"Ġtoile":4084,"Ġuns":4085,"ipped":4086,"Ġbrown":4087,"Ġpregnant":4088,"Ġdia":4089,"ĠGree":4090,"orses":4091,"Ġdish":4092,"Ġbark":4093,"atch":4094,"ocr":4095,"anced":4096,"vere":4097,"Ġaccused":4098,"Ġcrim":4099,"Algiers":4100,"Ġculture":4101,"Ġcredit":4102,"ded":4103,"ician":4104,"tery":4105,"Ġability":4106,"Ġcho":4107,"aret":4108,"cially":4109,"Ġpolite":4110,"Ġarmy":4111,"Ġtickets":4112,"asing":4113,"Ġrarely":4114,"Ġspending":4115,"Ġfallen":4116,"Ġthin":4117,"Ġrom":4118,"Ġplants":4119,"Ġhighly":4120,"Ġmembers":4121,"ĠDo":4122,"itation":4123,"ili":4124,"Ġintended":4125,"Ġemail":4126,"Ġenjoys":4127,"Ġlaid":4128,"Ġargument":4129,"Ġclaims":4130,"Last":4131,"occ":4132,"Ġdiet":4133,"ĠBrazil":4134,"Ġworkers":4135,"ĠDan":4136,"Ġmemory":4137,"Ġintelligent":4138,"looking":4139,"eor":4140,"Ġpron":4141,"Ġslight":4142,"Ġsurvive":4143,"Ġpossibility":4144,"ban":4145,"Ġled":4146,"Ġinse":4147,"Ġhelps":4148,"Ġacting":4149,"liar":4150,"Ġ199":4151,"Ġyellow":4152,"Two":4153,"iven":4154,"Ġrele":4155,"resident":4156,"Ġcomplic":4157,"Ġfavour":4158,"Ġilleg":4159,"Ġreluctant":4160,"Ġloss":4161,"Ġforty":4162,"ateful":4163,"Ġpoet":4164,"Ġskiing":4165,"Ġdisease":4166,"ĠFadil":4167,"Ġactiv":4168,"Ġcommunity":4169,"Ġdeserve":4170,"ham":4171,"Ġlog":4172,"eless":4173,"ĠAmericans":4174,"Ġsli":4175,"aches":4176,"Ġjokes":4177,"Ġdeli":4178,"Ġorange":4179,"Ġkinds":4180,"nel":4181,"ening":4182,"Ġanger":4183,"por":4184,"Ġcand":4185,"Ġresc":4186,"Stay":4187,"Ġclimate":4188,"cher":4189,"do":4190,"iny":4191,"Ġdig":4192,"Ġcy":4193,"itary":4194,"Ġhero":4195,"Ġnine":4196,"Ġwelcome":4197,"Ġsheep":4198,"ores":4199,"ĠJew":4200,"Ġswear":4201,"Ġperfectly":4202,"verage":4203,"ago":4204,"Ġsla":4205,"Ġfasc":4206,"Ġgrass":4207,"Ġmountains":4208,"Ġwarned":4209,"Ġexercise":4210,"Ġshape":4211,"Ġmater":4212,"Ġfrust":4213,"cul":4214,"uary":4215,"Ġrub":4216,"Ġscar":4217,"Ġguard":4218,"ivid":4219,"Ġfro":4220,"Ġyes":4221,"order":4222,"Ġjoy":4223,"Ġprocess":4224,"Ġperiod":4225,"ĠWorld":4226,"Somebody":4227,"Ġuniverse":4228,"oe":4229,"uja":4230,"ctors":4231,"Ġmidnight":4232,"Ġwebsite":4233,"view":4234,"Ġattempt":4235,"Ġfalling":4236,"Ġassumed":4237,"Ġpressure":4238,"Ġvictim":4239,"ites":4240,"ama":4241,"Ġstone":4242,"Ġmann":4243,"Ġcards":4244,"ibility":4245,"Ġzoo":4246,"Ġprincip":4247,"Ġdrugs":4248,"Ġstrength":4249,"Ġfreedom":4250,"hest":4251,"Ġgri":4252,"Ġinstruct":4253,"Ġmeth":4254,"Ġretire":4255,"Ġcleaned":4256,"Ġresearch":4257,"Ġmaybe":4258,"Ġcouch":4259,"Ġpersuade":4260,"Ġruns":4261,"Ġtoilet":4262,"Ġtool":4263,"law":4264,"ĠHar":4265,"ashion":4266,"Ġpieces":4267,"year":4268,"Ġcommitted":4269,"Ġcleaning":4270,"ĠSaturday":4271,"Ġpositive":4272,"gers":4273,"icago":4274,"Ġgoodbye":4275,"Ġremained":4276,"mates":4277,"atives":4278,"ĠTur":4279,"Ġputting":4280,"Ġclassroom":4281,"Ġrefuse":4282,"ald":4283,"Ġbrave":4284,"Ġdisp":4285,"ĠâĢĵ":4286,"ĠMuslims":4287,"Ġdivorced":4288,"Ġmotorcy":4289,"Ġglob":4290,"Ġgrateful":4291,"Ġdoors":4292,"ĠChicago":4293,"Ġbes":4294,"Ġhomes":4295,"Ġcoron":4296,"Ġtraveling":4297,"Ġannoyed":4298,"Ġanxious":4299,"See":4300,"icated":4301,"Ġstairs":4302,"Ġappeared":4303,"Ġbiggest":4304,"Ġregular":4305,"Ġtheory":4306,"Ġnote":4307,"izing":4308,"Ġcosts":4309,"Ġprofessional":4310,"Ġhug":4311,"Ġscrat":4312,"ĠItaly":4313,"ĠItalian":4314,"Japan":4315,"ky":4316,"Ġhorses":4317,"stand":4318,"aint":4319,"Ġaccent":4320,"Ġsons":4321,"Ġcivil":4322,"Ġsocks":4323,"Ġprove":4324,"Ġprices":4325,"Ġreality":4326,"ĠEuropean":4327,"omeday":4328,"Ġgloves":4329,"Ġgym":4330,"igr":4331,"Ġidiot":4332,"Ab":4333,"lished":4334,"Ġhole":4335,"ival":4336,"ĠEngland":4337,"Ġparking":4338,"Ġcloser":4339,"nam":4340,"Ġastron":4341,"Ġdent":4342,"Ġcareless":4343,"Ġ100":4344,"Ġspends":4345,"Ġcrisis":4346,"Ber":4347,"hamed":4348,"Ġgro":4349,"Ġrate":4350,"ipl":4351,"Ġadvantage":4352,"Ġpants":4353,"Ġthick":4354,"Ġmistaken":4355,"Ġsilence":4356,"Children":4357,"Ġcigaret":4358,"Ġfill":4359,"Ġlocated":4360,"Ġtranslation":4361,"Ġcapt":4362,"Ġtemperature":4363,"Ġmirror":4364,"ana":4365,"Ġlad":4366,"Ġscene":4367,"Ġcontr":4368,"Ġsecurity":4369,"ĠCanada":4370,"uk":4371,"zen":4372,"Ġpic":4373,"Ġstraw":4374,"While":4375,"Ġaccess":4376,"ĠInternet":4377,"Acc":4378,"hib":4379,"Ġnone":4380,"Ġvan":4381,"Ġincred":4382,"Ġsalary":4383,"Ġcarrying":4384,"Ġchose":4385,"asses":4386,"ember":4387,"ĠDon":4388,"Ġpage":4389,"Ġhost":4390,"Ġaction":4391,"Ġfamiliar":4392,"affes":4393,"Ġmotivated":4394,"apped":4395,"arily":4396,"Ġpushed":4397,"Ġblank":4398,"Ġsoldiers":4399,"Ġpossibly":4400,"Ġhorrible":4401,"Ar":4402,"Ġhij":4403,"Ġcompan":4404,"ĠIsrael":4405,"ĠChristian":4406,"Exc":4407,"hetic":4408,"Ġhire":4409,"Ġacted":4410,"Ġanswers":4411,"Ġcenter":4412,"Ġadopted":4413,"ixt":4414,"Ġsaf":4415,"Ġtruly":4416,"Ġshoulder":4417,"avirus":4418,"Ġdocument":4419,"Ġlesson":4420,"ĠYouT":4421,"Ġmagn":4422,"Ġreligious":4423,"Ġbelongs":4424,"Wait":4425,"Ġwit":4426,"Ġyen":4427,"Ġconstruct":4428,"Ġcontrib":4429,"Ġfoolish":4430,"Ġdare":4431,"Ġfant":4432,"ids":4433,"Ġrooms":4434,"Ġmodel":4435,"Ġflag":4436,"Ġexperienced":4437,"Algerians":4438,"\",":4439,"ped":4440,"wise":4441,"eds":4442,"Ġrelie":4443,"Ġstat":4444,"stit":4445,"Ġashamed":4446,"Ġcancer":4447,"ĠAt":4448,"Ġthoughts":4449,"Ġguests":4450,"Ġkilomet":4451,"aled":4452,"Ġcourt":4453,"Ġdivorce":4454,"Ġmethod":4455,"ially":4456,"pir":4457,"Ġthee":4458,"Ġgate":4459,"Ġham":4460,"Ġexamination":4461,"Ġhoney":4462,"Ġgrabbed":4463,"ĠTr":4464,"Ġfinal":4465,"Ġkeeping":4466,"Ġregard":4467,"Ġrecognized":4468,"Ġpuzz":4469,"Ġsuicide":4470,"Ġdetect":4471,"Ġneighbour":4472,"Ġrespond":4473,"Ġborrowed":4474,"Ġast":4475,"Ġancient":4476,"Ġearthqu":4477,"Kaby":4478,"Ġcoach":4479,"Ġdisag":4480,"Ġvalue":4481,"ients":4482,"mber":4483,"Ġske":4484,"Ġcities":4485,"aries":4486,"iff":4487,"Ġvisiting":4488,"Ġcapable":4489,"Ġprevent":4490,"Excuse":4491,"olution":4492,"Ġsmo":4493,"Ġillness":4494,"Ġdegree":4495,"Call":4496,"Ġintention":4497,"Ġblock":4498,"Ġrepair":4499,"Ġvideos":4500,"Love":4501,"Ġstared":4502,"Ġelev":4503,"Ġfingers":4504,"Ġcomplicated":4505,"None":4506,"Ġaverage":4507,"Ġmix":4508,"arrow":4509,"Ġhill":4510,"Ġpill":4511,"imp":4512,"imate":4513,"Ġcomb":4514,"ortug":4515,"Ġrights":4516,"ption":4517,"Ġdestroyed":4518,"Ġlit":4519,"Ġunb":4520,"umn":4521,"Ġshows":4522,"Ġpoliceman":4523,"Ġproposal":4524,"bage":4525,"son":4526,"Ġlovely":4527,"Ġdesire":4528,"Ġcopy":4529,"Ġpicnic":4530,"Ġsmarter":4531,"Ġchem":4532,"Ġspirit":4533,"ĠYouTube":4534,"gency":4535,"orocc":4536,"Ġpor":4537,"Ġwhis":4538,"ĠMars":4539,"Ġremoved":4540,"Unfortunately":4541,"Ġfrequ":4542,"met":4543,"Sp":4544,"Ġtroub":4545,"Ġgeneral":4546,"ĠRussia":4547,"the":4548,"Ġfurn":4549,"Ġaccording":4550,"Ġdamage":4551,"hange":4552,"iety":4553,"Ġdefend":4554,"Ġsales":4555,"Ġirrit":4556,"Ġtradition":4557,"Ġhijab":4558,"Ġlat":4559,"estern":4560,"Ġcoronavirus":4561,"nal":4562,"Ġchat":4563,"urance":4564,"Ġstarts":4565,"Ġsweater":4566,"Ġterms":4567,"Ġdom":4568,"Ġbud":4569,"ilities":4570,"Ġstronger":4571,"Ġcamping":4572,"Ġinternational":4573,"mate":4574,"ran":4575,"Ġrang":4576,"Ġgreatest":4577,"Ġpowerful":4578,"Leave":4579,"ĠMay":4580,"Ġpassion":4581,"Ġcooked":4582,"Ġmatters":4583,"Ġjoined":4584,"Ġport":4585,"Ġdistur":4586,"Ġgraduated":4587,"Sha":4588,"fact":4589,"Ġaunt":4590,"Ġrab":4591,"ively":4592,"Ġremark":4593,"ground":4594,"Ġuncom":4595,"Ġconce":4596,"Ġcolour":4597,"Although":4598,"According":4599,"Ġsac":4600,"Ġbetray":4601,"pecially":4602,"Ġengaged":4603,"Ġbattle":4604,"Ġfailure":4605,"Ġenemies":4606,"Pl":4607,"cast":4608,"gent":4609,"Tomorrow":4610,"atin":4611,"Ġsees":4612,"Ġlean":4613,"Ġattacked":4614,"ability":4615,"Once":4616,"Ġsymp":4617,"Ġclaimed":4618,"Ġpotatoes":4619,"ĠBritish":4620,"Ġmotorcycle":4621,"Ġbased":4622,"Ġmel":4623,"Three":4624,"Ġcrossed":4625,"aving":4626,"Ġheaven":4627,"Ġthief":4628,"Ġadded":4629,"illy":4630,"employ":4631,"ologist":4632,"Ġsalad":4633,"Ġpolitics":4634,"Ġfacts":4635,"Ġspecies":4636,"oms":4637,"arian":4638,"Ġpassen":4639,"ĠAlgerians":4640,"Ġleader":4641,"Ġentirely":4642,"Ġsuffering":4643,"Ġabandoned":4644,"inc":4645,"Ġfal":4646,"esus":4647,"Ġeager":4648,"Whose":4649,"Ġaggress":4650,"Ġnoon":4651,"aging":4652,"Ġcooper":4653,"Ġillegal":4654,"ession":4655,"Islam":4656,"Ġflood":4657,"Ġchildhood":4658,"Ġpatience":4659,"Ġflew":4660,"bered":4661,"mith":4662,"isions":4663,"sequ":4664,"iles":4665,"Ġspr":4666,"Ġdefe":4667,"Ġarr":4668,"Ġquar":4669,"Ġstrict":4670,"wards":4671,"Ġdentist":4672,"inct":4673,"Ġchanging":4674,"Ġinterview":4675,"Ġmedical":4676,"Ġapologized":4677,"Ġmagazine":4678,"Ġuncomfortable":4679,"App":4680,"Read":4681,"Ġlent":4682,"Ġplate":4683,"Ġburied":4684,"Ġselling":4685,"Ġintroduced":4686,"ux":4687,"Ġtask":4688,"Ġtheater":4689,"Ġbite":4690,"Ġfinding":4691,"Ġparticip":4692,"Ġcousin":4693,"Ġtend":4694,"Ġcommand":4695,"Ġkissing":4696,"Ġterror":4697,"Ġproducts":4698,"hemat":4699,"Ġsurface":4700,"pre":4701,"Ġsomeday":4702,"asion":4703,"Ġnap":4704,"aly":4705,"Ġgrown":4706,"Ġphotos":4707,"male":4708,"Ġscreaming":4709,"Ġbrief":4710,"Ġhigher":4711,"Ġopposite":4712,"Ġsale":4713,"ĠPh":4714,"Ġstreets":4715,"Ġtastes":4716,"Ġiron":4717,"exic":4718,"Ġsquir":4719,"Ġissues":4720,"kay":4721,"now":4722,"Ġrise":4723,"Ġhumans":4724,"Ġtranslated":4725,"Ġdisappeared":4726,"Ġarguing":4727,"known":4728,"Ġhob":4729,"Ġremains":4730,"Ġunderstands":4731,"Ġbasement":4732,"uits":4733,"anger":4734,"Ġfirm":4735,"allow":4736,"Ġdownstairs":4737,"Ġends":4738,"Ġmilitary":4739,"Ġtouched":4740,"min":4741,"yard":4742,"Ġaim":4743,"Ġstub":4744,"Ġfinds":4745,"Ġcheek":4746,"Ġserved":4747,"Ġcloset":4748,"Ġaudience":4749,"Ġut":4750,"Ġfence":4751,"Ġpush":4752,"Ġobe":4753,"Ġcareer":4754,"ĠPr":4755,"Ġfinan":4756,"Ġcrack":4757,"Ġwriter":4758,"During":4759,"zed":4760,"Ġgif":4761,"Ġrough":4762,"ilos":4763,"ulty":4764,"Before":4765,"Ġcurrent":4766,"Ġsafety":4767,"sc":4768,"ware":4769,"Ġparts":4770,"Ġtrusted":4771,"bits":4772,"fa":4773,"rand":4774,"word":4775,"Ġtent":4776,"Ġsaving":4777,"Ġexpert":4778,"Ġsmells":4779,"Ġfortune":4780,"Ġliber":4781,"iped":4782,"ĠKing":4783,"Ġreasonable":4784,"Ġindivid":4785,"ebook":4786,"Ġcomplaining":4787,"Ġdeveloped":4788,"rance":4789,"Ġnotebook":4790,"Ġjam":4791,"Ġheadache":4792,"Ġconfidence":4793,"Ġsolar":4794,"Ġescaped":4795,"Ġtail":4796,"Ġthanks":4797,"Ġbelow":4798,"Ġespecially":4799,"Ġridic":4800,"Ġclimbed":4801,"Ġdirection":4802,"Ġthousands":4803,"affe":4804,"Ġapply":4805,"Ġpermit":4806,"Ġcriminal":4807,"ox":4808,"Ġdrew":4809,"Ġbound":4810,"urse":4811,"Ġactor":4812,"Ġcomplained":4813,"Ġcastle":4814,"eed":4815,"oses":4816,"Ġcomplex":4817,"Ġburst":4818,"ker":4819,"Ġpig":4820,"icient":4821,"Ġconference":4822,"ĠSouth":4823,"ĠPal":4824,"ĠPortug":4825,"Ġcere":4826,"Ġachieve":4827,"iplom":4828,"Pol":4829,"sing":4830,"Ġdouble":4831,"Ġsuffe":4832,"Ġunus":4833,"Ġfemale":4834,"Ġdrives":4835,"Ġreply":4836,"ĠWar":4837,"Ġpal":4838,"Ġpil":4839,"Ġnaked":4840,"Ġresour":4841,"Ġasks":4842,"Ġcontain":4843,"ĠNuja":4844,"place":4845,"Ġsuspected":4846,"Ġbench":4847,"Ġvarious":4848,"Ġdata":4849,"Ġmic":4850,"Ġamused":4851,"Ġexcuse":4852,"Ġsigned":4853,"Ġgreet":4854,"ades":4855,"aph":4856,"ĠKore":4857,"Ġwalks":4858,"Ġrains":4859,"Ġattractive":4860,"Ġorigin":4861,"Ġwealthy":4862,"Ġcave":4863,"ĠSe":4864,"Ġpoll":4865,"Ġshared":4866,"Ġ15":4867,"my":4868,"erable":4869,"Ġcro":4870,"aker":4871,"ĠPresident":4872,"Ġfriendship":4873,"Ġchest":4874,"inet":4875,"Ġdoctors":4876,"Ġformer":4877,"Ġcandy":4878,"ĠSh":4879,"Ġspeakers":4880,"Ġcheer":4881,"Ġcheating":4882,"Ġnumbers":4883,"Ġfluent":4884,"Ġbaked":4885,"erved":4886,"Ġfashion":4887,"atory":4888,"Ġshock":4889,"Ġterrified":4890,"Ġtalented":4891,"lig":4892,"mosp":4893,"Ġmer":4894,"aka":4895,"Ġgramm":4896,"Ġsucceeded":4897,"Ġproperty":4898,"Ġyouth":4899,"asy":4900,"Ġquality":4901,"Ġsometime":4902,"Ġoptimistic":4903,"uous":4904,"Ġsink":4905,"Ġlips":4906,"ĠSo":4907,"raft":4908,"Ġtraveled":4909,"Ġfactory":4910,"Ġargue":4911,"Ġdeeply":4912,"Ġbottom":4913,"Ġearthquake":4914,"orocco":4915,"Ġdiplom":4916,"Ġge":4917,"Ġstock":4918,"ological":4919,"Ġcounter":4920,"Rem":4921,"ji":4922,"Ġwheel":4923,"Ġdrum":4924,"Ġclever":4925,"Ġpurcha":4926,"Ġromantic":4927,"Ġsuffered":4928,"ruct":4929,"Ġunemploy":4930,"ĠMy":4931,"Ġpolicy":4932,"Ġchamp":4933,"Ġreceive":4934,"Ġtempted":4935,"gs":4936,"iring":4937,"Ġwinning":4938,"Ġfold":4939,"Ġprize":4940,"Turn":4941,"cles":4942,"for":4943,"Ġtooth":4944,"Ġmall":4945,"Ġnurse":4946,"ching":4947,"Ġalarm":4948,"udd":4949,"obile":4950,"Ġforgiven":4951,"Ġreleased":4952,"Ġfought":4953,"riger":4954,"Ġrelated":4955,"Ġsignific":4956,"Re":4957,"Ġdy":4958,"irts":4959,"Ġoffended":4960,"Ġdesert":4961,"Ġboots":4962,"Ġgrowth":4963,"Ġelected":4964,"Ġcreate":4965,"Ġtotal":4966,"Ġglobal":4967,"fl":4968,"vent":4969,"Ġlower":4970,"Ġpra":4971,"vert":4972,"Ġreve":4973,"Ġcomment":4974,"ĠMexic":4975,"rav":4976,"Ġroll":4977,"ague":4978,"Ġactive":4979,"Ġteaches":4980,"Ġpretending":4981,"Ġrefriger":4982,"Ġinsurance":4983,"pril":4984,"Cl":4985,"Ġtap":4986,"Ġeld":4987,"aching":4988,"alled":4989,"Ġatmosp":4990,"Ġtrade":4991,"Show":4992,"wing":4993,"Ġfurious":4994,"Ġpacked":4995,"Ġknock":4996,"Ġheaded":4997,"Ġpronoun":4998,"hel":4999,"Ġtrack":5000,"ĠNo":5001,"Ġriding":5002,"Ġequal":5003,"Ġsource":5004,"hus":5005,"house":5006,"lied":5007,"vard":5008,"iment":5009,"Ġreject":5010,"Ġrole":5011,"Ġbran":5012,"Ġgiraffe":5013,"cience":5014,"Ġstruck":5015,"Ġfridge":5016,"Ġrelative":5017,"Ġdetail":5018,"Ġgarbage":5019,"Without":5020,"Ġbenef":5021,"Ġoriginal":5022,"Ġruined":5023,"Ġfavourite":5024,"Ġobey":5025,"Ġnu":5026,"Ġsevere":5027,"Ġsofa":5028,"elt":5029,"ĠRome":5030,"Ġowns":5031,"Ġignored":5032,"Bring":5033,"rer":5034,"Ġunderstanding":5035,"Ġrepres":5036,"Ġstubborn":5037,"More":5038,"town":5039,"uries":5040,"Ġthri":5041,"ayed":5042,"Ġdear":5043,"Ġconditions":5044,"Ġsurvived":5045,"Ġjourney":5046,"Ġclouds":5047,"lin":5048,"Ġrail":5049,"Ġdece":5050,"Ġdelight":5051,"ĠSc":5052,"ĠLet":5053,"Ġgrou":5054,"Ġphilos":5055,"Ġdepends":5056,"Ġbags":5057,"Ġallerg":5058,"Ġsmiling":5059,"Ġefforts":5060,"Ġprovide":5061,"Ġturning":5062,"Ġrapid":5063,"Ġskept":5064,"hab":5065,"Ġho":5066,"oto":5067,"Ġswore":5068,"Ġincident":5069,"Ġcurrently":5070,"Ġconduct":5071,"Ġburning":5072,"ship":5073,"Ġforth":5074,"urt":5075,"Ġhurts":5076,"Ġofficer":5077,"Ġcircum":5078,"Ġfalse":5079,"Each":5080,"ration":5081,"Ġsin":5082,"llo":5083,"ulated":5084,"Ġfully":5085,"Ġfigs":5086,"Ġincrease":5087,"Ġcustomers":5088,"Ġfifty":5089,"Ġblew":5090,"Americ":5091,"mail":5092,"Ġweigh":5093,"Ġrot":5094,"Ġconven":5095,"Ġmedia":5096,"Ġhonor":5097,"Ġemergency":5098,"Gir":5099,"bon":5100,"Ġsouth":5101,"Ġgay":5102,"atures":5103,"Ġturns":5104,"Ġremembered":5105,"Ġprepare":5106,"Ġtowels":5107,"Ġdevelopment":5108,"Ġthreatened":5109,"priate":5110,"cut":5111,"chan":5112,"lor":5113,"Ġje":5114,"Ġattended":5115,"Ġconserv":5116,"Ġstands":5117,"Ġwrites":5118,"Ġhyp":5119,"Ġporch":5120,"hara":5121,"Ġspo":5122,"Ġsport":5123,"elve":5124,"ĠLatin":5125,"Ġdaughters":5126,"Ġcares":5127,"Ġdiscussed":5128,"Ġstepped":5129,"Ġprofessor":5130,"Ġdebt":5131,"Ġjournal":5132,"Ġwitness":5133,"ara":5134,"Ġanytime":5135,"Ġscrew":5136,"Ġapparently":5137,"Ġserve":5138,"Ġairpl":5139,"Ġgrandpa":5140,"Ġsuffer":5141,"iders":5142,"Ġstret":5143,"Ġunw":5144,"Ġnowhere":5145,"Ġscary":5146,"Ġmessages":5147,"Ġmurdered":5148,"Ġpackage":5149,"Ġindustry":5150,"Ġkilometers":5151,"craft":5152,"iture":5153,"ashing":5154,"Ġweed":5155,"gery":5156,"Ġlessons":5157,"Ġresponsibility":5158,"Ġsquare":5159,".âĢĿ":5160,"ners":5161,"anc":5162,"anted":5163,"Ġjew":5164,"Ġpale":5165,"Ġstranger":5166,"Ġowner":5167,"Ġlarger":5168,"Berber":5169,"Ġridiculous":5170,"Ġstyle":5171,"Ġconsequ":5172,"Ġflash":5173,"Ġ12":5174,"Ġpleasant":5175,"glasses":5176,"Ġonto":5177,"ĠApril":5178,"olar":5179,"Ġplayers":5180,"Ġdecor":5181,"Ġcommit":5182,"Ġdifficulty":5183,"Ġfrustrated":5184,"ĠHarvard":5185,"zer":5186,"Ġet":5187,"Ġdust":5188,"isc":5189,"ancy":5190,"Ġbeard":5191,"Ġlif":5192,"Ġshook":5193,"Ġresist":5194,"Ġmission":5195,"Ġdiscouraged":5196,"umped":5197,"Ġoptions":5198,"Ġanti":5199,"Ġelevator":5200,"isy":5201,"ID":5202,"mes":5203,"Ġvers":5204,"Ġnorth":5205,"Ġnarrow":5206,"iding":5207,"Ġstage":5208,"Ġstress":5209,"roat":5210,"Ġrare":5211,"Ġdeaf":5212,"Ġarch":5213,"Ġroses":5214,"soci":5215,"Ġinsisted":5216,"Ġagreement":5217,"ĠUni":5218,"Ġincluding":5219,"Ġshr":5220,"ĠJune":5221,"Ġrope":5222,"Ġcoast":5223,"Ġofficial":5224,"Ġintroduce":5225,"Dr":5226,"eah":5227,"Ġfaces":5228,"Ġreb":5229,"Ġath":5230,"Ġric":5231,"ĠSal":5232,"Ġactions":5233,"Ġelection":5234,"Ġappears":5235,"Ġaggressive":5236,"Ġrefrigerator":5237,"bl":5238,"uese":5239,"ĠWhy":5240,"Ġfra":5241,"erson":5242,"Ġapplic":5243,"Ġcheated":5244,"Ġmusician":5245,"Being":5246,"Spe":5247,"dam":5248,"Ġinfect":5249,"ainted":5250,"Ġdele":5251,"Ġthanked":5252,"Ġshame":5253,"Ġcollap":5254,"Ġclimb":5255,"Ġbills":5256,"Ġviolence":5257,"Ġtourists":5258,"wit":5259,"Ġgain":5260,"Ġknowing":5261,"Ġdecisions":5262,"Ġmathemat":5263,"azz":5264,"vest":5265,"Ġliar":5266,"Ġknocked":5267,"Ġjoking":5268,"Ġvirt":5269,"Ġconcl":5270,"Ġviolin":5271,"Ġreplace":5272,"ocracy":5273,"Ġded":5274,"Ġyard":5275,"icing":5276,"Ġareas":5277,"Ġshorter":5278,"Ġhowever":5279,"pected":5280,"Ġ196":5281,"Ġconverted":5282,"ĠGreek":5283,"Women":5284,"ength":5285,"Ġproof":5286,"Ġconstantly":5287,"Ġchallenge":5288,"En":5289,"Man":5290,"Ġmut":5291,"Ġgoods":5292,"orthern":5293,"Ġawful":5294,"ĠGo":5295,"Ġdemon":5296,"conscious":5297,"Ġfurniture":5298,"Ġskeptical":5299,"Ġfever":5300,"Ġbecomes":5301,"Ġdowntown":5302,"Ġminds":5303,"Ġadmire":5304,"Ġconcent":5305,"Ġphysical":5306,"Ġwishes":5307,"ĠSmith":5308,"Ġpretend":5309,"Ġadvance":5310,"ibly":5311,"Ġmale":5312,"ĠSpain":5313,"iking":5314,"Ġproperly":5315,"Ġstealing":5316,"attoo":5317,"Ġsurrounded":5318,"itor":5319,"Ġodd":5320,"Ġshel":5321,"Ġsymb":5322,"Ġannoying":5323,"Ġparticularly":5324,"Ġannounced":5325,"Ġinsect":5326,"Ġtun":5327,"Ġtattoo":5328,"Ġdumb":5329,"ushing":5330,"Ġhelpful":5331,"Ġgrave":5332,"Ġparties":5333,"Ġimpression":5334,"Ġlaund":5335,"Ġoccup":5336,"Ġdaily":5337,"iform":5338,"elled":5339,"Ġstrang":5340,"Ġminor":5341,"Ġestab":5342,"Ġhesitant":5343,"Ġoccurred":5344,"Ġstrawber":5345,"Ġunusual":5346,"husi":5347,"gu":5348,"idays":5349,"ading":5350,"ĠKy":5351,"ublic":5352,"ĠDe":5353,"Ġsunglasses":5354,"Ġdreamed":5355,"Ġgenerous":5356,"Ġcanceled":5357,"Sm":5358,"inate":5359,"Ġtoler":5360,"Ġheight":5361,"Ġnotes":5362,"Ġplaced":5363,"Ġprim":5364,"Ġbitter":5365,"rowned":5366,"Ġcorrectly":5367,"Ġmentioned":5368,"Ġtechnology":5369,"Ġpity":5370,"Ġnuts":5371,"Ġmyst":5372,"ulate":5373,"osen":5374,"izes":5375,"Ġatmosphere":5376,"Time":5377,"Ġpow":5378,"Ġow":5379,"Ġkick":5380,"Ġlob":5381,"Ġopening":5382,"Ġnearby":5383,"Ġunfair":5384,"Ġmaterial":5385,"Ġallergic":5386,"Eng":5387,"Ġfake":5388,"ĠMennad":5389,"ucky":5390,"Ġwarning":5391,"Ġsmaller":5392,"Ġelephan":5393,"Ġwalls":5394,"Ġedge":5395,"Ġcrowded":5396,"Ġdepartment":5397,"Ġfinancial":5398,"Ġsen":5399,"Ġsite":5400,"Ġep":5401,"ste":5402,"Ġexpression":5403,"Ġadj":5404,"ĠRoman":5405,"Ġattitude":5406,"Ġcharged":5407,"Happ":5408,"oot":5409,"Ġmouse":5410,"Hello":5411,"Ġjustice":5412,"Ġwondering":5413,"Ġinfluence":5414,"aul":5415,"Ġfond":5416,"Ġshelf":5417,"Ġuniform":5418,"Ġcontent":5419,"enses":5420,"Ġpurse":5421,"Ġcreative":5422,"iver":5423,"Ġdess":5424,"ĠAb":5425,"Ġpean":5426,"Ġimpat":5427,"Ġlands":5428,"Ġappearance":5429,"Ġorders":5430,"Ġsymbol":5431,"19":5432,"Hum":5433,"fers":5434,"mar":5435,"zing":5436,"athered":5437,"Ġspare":5438,"aughter":5439,"Ġignor":5440,"Lear":5441,"rite":5442,"Ġsilly":5443,"Ġlines":5444,"rial":5445,"Help":5446,"illing":5447,"usting":5448,"Ġreads":5449,"Ġincome":5450,"Ġinsult":5451,"Ġlaws":5452,"Ġdiam":5453,"Ġvalu":5454,"Ġdeserves":5455,"Ġattracted":5456,"ĠPortuguese":5457,"reak":5458,"Ġtoys":5459,"Ġpier":5460,"Ġbackyard":5461,"Ġtwelve":5462,"Ġswitch":5463,"Ġpoints":5464,"Ġsplit":5465,"Ġbeside":5466,"List":5467,"Ġpand":5468,"Ġhugged":5469,"Ġrack":5470,"ĠCol":5471,"Ġattic":5472,"Ġcrush":5473,"Ġkilling":5474,"Ġconscious":5475,"ĠCanadians":5476,"rate":5477,"Ġmisunder":5478,"Ġmiserable":5479,"Ġdisagree":5480,"nes":5481,"Ġpup":5482,"Ġsail":5483,"ĠFor":5484,"ĠJesus":5485,"Ġchosen":5486,"Ġprevious":5487,"Ġsurgery":5488,"Ġjeans":5489,"overy":5490,"Ġpounds":5491,"Ġokay":5492,"rig":5493,"Ġworn":5494,"athers":5495,"Ġguide":5496,"Ġshad":5497,"Ġcomputers":5498,"Ġcollection":5499,"ĠPalest":5500,"Watch":5501,"Ġwasting":5502,"resp":5503,"Ġqual":5504,"Ġcaptain":5505,"Ġreported":5506,"Ġencour":5507,"ya":5508,"Ġnod":5509,"verty":5510,"Ġlect":5511,"Ġcomfort":5512,"Ġsword":5513,"Ġpoverty":5514,"Ġpresents":5515,"Ġhidden":5516,"Ġdeny":5517,"Ġcops":5518,"Ġyelling":5519,"Ġignore":5520,"Ġlabor":5521,"Ġcong":5522,"Whatever":5523,"Ġhappier":5524,"Ġsleeps":5525,"Ġgraduate":5526,"Ġdegrees":5527,"Ġpassengers":5528,"Bet":5529,"Se":5530,"Ġtied":5531,"Ġsixt":5532,"itched":5533,"Ġunex":5534,"ĠMondays":5535,"Ġoblig":5536,"Ġassistant":5537,"Ġcompanies":5538,"Des":5539,"Say":5540,"Ġpure":5541,"Ġlion":5542,"adays":5543,"ĠAm":5544,"Ġvirus":5545,"Ġchances":5546,"liable":5547,"Ġconsum":5548,"Ġsettle":5549,"Ġdistract":5550,"lected":5551,"Ġindependent":5552,"French":5553,"hold":5554,"arc":5555,"Ġtrash":5556,"ears":5557,"Ġschools":5558,"Ġoldest":5559,"Ġtransport":5560,"Ġcalcul":5561,"Ġdiary":5562,"Ġselfish":5563,"Ġlaundry":5564,"back":5565,"well":5566,"Ġlink":5567,"Ġpapers":5568,"ĠMorocco":5569,"Ġdecl":5570,"Ġbroad":5571,"Ġsecrets":5572,"Ġquietly":5573,"Ġcelebrate":5574,"Ġdessert":5575,"da":5576,"how":5577,"inating":5578,"Ġborder":5579,"Ġgre":5580,"Ġsweat":5581,"Ġoccasion":5582,"ĠAfrican":5583,"Ġautumn":5584,"Ġcitizen":5585,"Ġimpatient":5586,"pen":5587,"Ġwra":5588,"Ġpond":5589,"Ġuncon":5590,"ĠSa":5591,"anged":5592,"Ġsupper":5593,"Ġdrawing":5594,"Ġplanted":5595,"Ġfifteen":5596,"Maria":5597,"Ġemployees":5598,"Ġnet":5599,"Ġstream":5600,"Ġcruel":5601,"Ġclassmates":5602,"weight":5603,"Ġsounded":5604,"Ġnovels":5605,"Ġairplane":5606,"eding":5607,"stances":5608,"ulations":5609,"Ġcompos":5610,"Ġfamilies":5611,"Ġpunish":5612,"Ġviolent":5613,"Ġteenager":5614,"pack":5615,"Ġvoc":5616,"Ġoverw":5617,"Ġfuneral":5618,"Ġreput":5619,"Ġtries":5620,"Ġcolon":5621,"Ġwaves":5622,"Ġgathered":5623,"Ġhom":5624,"Ġrow":5625,"Ġblow":5626,"Ġtomato":5627,"Ġexciting":5628,"Fin":5629,"etic":5630,"icles":5631,"ĠEast":5632,"Ġtextbook":5633,"Ġtaxes":5634,"Ġsteps":5635,"iant":5636,"Ġmental":5637,"ament":5638,"Ġcock":5639,"Ġremove":5640,"Ġphr":5641,"Ġbillion":5642,"Ġcreep":5643,"Ġhistor":5644,"ĠIndia":5645,"Ġperformance":5646,"Act":5647,"Ġali":5648,"ulf":5649,"Ġworker":5650,"agers":5651,"Ġpassword":5652,"Ġpunct":5653,"Ġsuitcases":5654,"Ġdirectly":5655,"Ġelectricity":5656,"Ġweapon":5657,"Ġirritated":5658,"Having":5659,"Me":5660,"Ġtip":5661,"itect":5662,"Ġloan":5663,"Ġrecover":5664,"Ġthroughout":5665,"Ph":5666,"writ":5667,"Ġbunch":5668,"Ġcher":5669,"amps":5670,"Ġgod":5671,"romise":5672,"Ġhomeless":5673,"Ġadult":5674,"Ġcontains":5675,"Ġ16":5676,"Ġminim":5677,"Ġrefer":5678,"Ġcorrupt":5679,"Ġgifts":5680,"ples":5681,"Ġplain":5682,"Ġexec":5683,"Ġprec":5684,"ĠOr":5685,"lika":5686,"Ġbegins":5687,"ĠIsland":5688,"Ġcauses":5689,"shirt":5690,"Ġdiscussion":5691,"Ġincreasing":5692,"Ġbarking":5693,"Ġbare":5694,"Ġmere":5695,"outef":5696,"ira":5697,"Ġotherwise":5698,"Ġtrial":5699,"Ġmajority":5700,"Ġdescribe":5701,"Ġrepeat":5702,"Ġnucle":5703,"outeflika":5704,"cous":5705,"Ġtar":5706,"Ġwand":5707,"Ġbuildings":5708,"Ġgenius":5709,"Ġsixty":5710,"Ġlegal":5711,"Ġdrawer":5712,"Ġholidays":5713,"Ġrobbed":5714,"Ġscientists":5715,"Ġgentleman":5716,"ĠUniversity":5717,"case":5718,"tes":5719,"what":5720,"Ġsear":5721,"Ġrout":5722,"Ġsoap":5723,"Ġsells":5724,"Ġexplos":5725,"Ġlimit":5726,"Ġslipped":5727,"20":5728,"of":5729,"ano":5730,"ria":5731,"umber":5732,"Ġshown":5733,"Ġrecent":5734,"Ġtraining":5735,"Ġdancer":5736,"ception":5737,"Ġelement":5738,"Ġsolved":5739,"Ġaccidentally":5740,"Ġopinions":5741,"Ġfluently":5742,"Ġstrike":5743,"omy":5744,"Ġcough":5745,"Ġvain":5746,"ĠCO":5747,"ĠTan":5748,"Ġpersonality":5749,"ĠNow":5750,"Ġadvent":5751,"Ġunique":5752,"Ġbehave":5753,"Ġcigarette":5754,"Such":5755,"ns":5756,"Ġtense":5757,"Ġbra":5758,"Ġcart":5759,"oti":5760,"anna":5761,"Ġscare":5762,"Ġshowing":5763,"ivity":5764,"Ġheads":5765,"Ġregrets":5766,"Ġboxes":5767,"Ġprior":5768,"Ġapproach":5769,"Ġhobby":5770,"boy":5771,"Ġcine":5772,"Ġsett":5773,"Ġtopic":5774,"Next":5775,"Ġdawn":5776,"Ġhighest":5777,"Ġfrequently":5778,"Shall":5779,"Men":5780,"Yeah":5781,"Ġfile":5782,"Ġgained":5783,"Ġhorn":5784,"icians":5785,"Ġmechan":5786,"Ġtherefore":5787,"ĠSy":5788,"aths":5789,"Ġpromises":5790,"Ġrained":5791,"Ġarchitect":5792,"Ġdiamond":5793,"rot":5794,"Ġwound":5795,"Ġtoy":5796,"Ġlingu":5797,"Ġrely":5798,"Ġsake":5799,"Ġpartner":5800,"ĠIslamic":5801,"Ġcolors":5802,"Ġproduce":5803,"Ġphotograph":5804,"Ġmultip":5805,"Ġconstruction":5806,"Ġgrandparents":5807,"English":5808,"gle":5809,"Ġbul":5810,"iches":5811,"ales":5812,"Ġplastic":5813,"ittee":5814,"agger":5815,"Ġbrand":5816,"Ġblamed":5817,"Ġstruct":5818,"Ġevents":5819,"Ġclothing":5820,"Ġgenerally":5821,"Ġunlucky":5822,"Ġcitizens":5823,"Bl":5824,"Ġtiny":5825,"erk":5826,"Ġmud":5827,"Ġfog":5828,"Ġjunk":5829,"Ġmeters":5830,"Ġsne":5831,"Ġenthusi":5832,"Ġsuggestion":5833,"Ġwisdom":5834,"Ġweapons":5835,"Ġvaluable":5836,"bum":5837,"olf":5838,"Ġfest":5839,"Ġhel":5840,"Ġange":5841,"Ġunre":5842,"Ġmakeup":5843,"Ġlawn":5844,"Ġpresence":5845,"Ġsilver":5846,"gen":5847,"sive":5848,"Ġti":5849,"ino":5850,"Ġbegged":5851,"Ġseats":5852,"Ġaltern":5853,"hand":5854,"Ġcomments":5855,"ĠFin":5856,"Ġdism":5857,"Ġactress":5858,"Ġrequire":5859,"Ġincreased":5860,"Ġindependence":5861,"Ġrescue":5862,"Ġblanket":5863,"Ġmystery":5864,"300":5865,"Te":5866,"kin":5867,"Ġthroat":5868,"ott":5869,"chool":5870,"Ġnoisy":5871,"Ġapplied":5872,"Ġfellow":5873,"Ġtort":5874,"Ġfocus":5875,"Ġsacri":5876,"Ġpilot":5877,"Ġconservative":5878,"erves":5879,"Ġsings":5880,"Ġinvitation":5881,"Ġentrance":5882,"ĠUnion":5883,"Ġsecretary":5884,"Ġsexual":5885,"eath":5886,"ties":5887,"Ġliqu":5888,"utions":5889,"Ġauthority":5890,"Ġinternet":5891,"Ġresources":5892,"ti":5893,"Ġreven":5894,"olves":5895,"Ġdecla":5896,"ĠWest":5897,"Ġpreparing":5898,"Ġ50":5899,"Ġcustomer":5900,"Ġnegative":5901,"Ġfantastic":5902,"Ġbetrayed":5903,"Ġmathematics":5904,"VID":5905,"hi":5906,"ms":5907,"orted":5908,"Ġqueen":5909,"Ġbelief":5910,"Ġbreaking":5911,"ĠHol":5912,"Ġloudly":5913,"Ġfucking":5914,"standing":5915,"About":5916,"Ġsquirrel":5917,"Ġunemployed":5918,"Ġunexpected":5919,"Pro":5920,"Ġboo":5921,"Ġforb":5922,"enter":5923,"Ġuseless":5924,"Ġ11":5925,"Ġhurried":5926,"Ġscientific":5927,"Ġbelly":5928,"First":5929,"sion":5930,"Ġmeals":5931,"White":5932,"emic":5933,"Ġdanced":5934,"Ġhumor":5935,"ealand":5936,"Ġmaid":5937,"Ġconsidering":5938,"Ġpersuaded":5939,"ĠZealand":5940,"Ġlatest":5941,"gon":5942,"wh":5943,"Ġrushed":5944,"ounts":5945,"Ġdisaster":5946,"Ġgrade":5947,"Ġgranted":5948,"Ġarriving":5949,"ĠYear":5950,"Ġrequires":5951,"Ġpostp":5952,"Ġorganized":5953,"Ġruin":5954,"Listen":5955,"Ġsixteen":5956,"Ġreputation":5957,"down":5958,"mit":5959,"Ġrode":5960,"Ġbrush":5961,"Ġremembers":5962,"Ġveh":5963,"Ġtalent":5964,"Ġimmigr":5965,"Ġordinary":5966,"Ġtraditional":5967,"Ġindividual":5968,"Ken":5969,"Ġneare":5970,"Ġjog":5971,"ogram":5972,"ĠPol":5973,"Ġmillions":5974,"garian":5975,"Ġrobber":5976,"Ġpuppy":5977,"Ġmanner":5978,"Comp":5979,"Ġbomb":5980,"Ġmerc":5981,"Ġnons":5982,"Ġhaun":5983,"athetic":5984,"otion":5985,"Ġstro":5986,"Ġspin":5987,"elie":5988,"Ġarrog":5989,"Ġcontest":5990,"Ġbegun":5991,"Ġ198":5992,"Ġpublished":5993,"Ġgrades":5994,"Ġimproved":5995,"Ġcompetition":5996,"Ġfortun":5997,"eorge":5998,"Ġslightly":5999,"Ġinstructions":6000,"Che":6001,"aired":6002,"Ġtherap":6003,"Ġhiking":6004,"urd":6005,"Ġprefers":6006,"Ġskills":6007,"ervation":6008,"Ġabsor":6009,"Ġfields":6010,"Ġautom":6011,"Ġdocuments":6012,"Ġsearched":6013,"Ġlength":6014,"Ġinstr":6015,"lex":6016,"Ġtrap":6017,"ĠBible":6018,"ivered":6019,"ĠWestern":6020,"Ġconfessed":6021,"Ġexchange":6022,"Ġsubs":6023,"Ġdemocracy":6024,"Ġstatement":6025,"box":6026,"Ġliterature":6027,"Remember":6028,"Ġelder":6029,"Ġgroups":6030,"uine":6031,"yal":6032,"Ġcases":6033,"Ġox":6034,"stick":6035,"rol":6036,"Ġenvelop":6037,"Ġimagination":6038,"Ġsandwiches":6039,"Ġurgent":6040,"ĠThurs":6041,"Ġpointed":6042,"Ġcandid":6043,"New":6044,"bly":6045,"Ġloose":6046,"Ġgor":6047,"Ġstates":6048,"asts":6049,"Ġoverweight":6050,"Ġwatches":6051,"ĠTues":6052,"Ġperhaps":6053,"Ġdifferently":6054,"Ġhumanity":6055,"Ġclimbing":6056,"Ġcinema":6057,"Ġstun":6058,"Ġforces":6059,"Ġitem":6060,"Ġdiss":6061,"Ġcheaper":6062,"Ġsurprising":6063,"Ġvacc":6064,"onse":6065,"acts":6066,"outhern":6067,"tering":6068,"Ġinvented":6069,"Ġseries":6070,"Ġhunting":6071,"Ġkidding":6072,"Ġtreatment":6073,"ĠMaria":6074,"Ġsmooth":6075,"gin":6076,"krain":6077,"ĠWhen":6078,"Ġdim":6079,"Ġna":6080,"otic":6081,"Ġstays":6082,"Ġwhist":6083,"Ġmetal":6084,"Ġgreater":6085,"Ġsentenced":6086,"Ġdepression":6087,"Ġerror":6088,"going":6089,"Ġoperation":6090,"Ġghosts":6091,"Ġsides":6092,"ona":6093,"Ġmobile":6094,"orrect":6095,"Ġgoals":6096,"Ġmyster":6097,"Ġalbum":6098,"Ġexpects":6099,"Ġassign":6100,"Ġinsane":6101,"Ġ197":6102,"Ġpurs":6103,"Ġnegoti":6104,"Ġhomesick":6105,"alloween":6106,"Ġrejected":6107,"ĠCOVID":6108,"Con":6109,"Hold":6110,"Ġwounded":6111,"Ġhi":6112,"utch":6113,"Ġwherever":6114,"issed":6115,"Ġplanets":6116,"Ġdisappear":6117,"Ġresponse":6118,"Ġdivided":6119,"Ġleaned":6120,"Ġdemonstr":6121,"Cats":6122,"Em":6123,"Russ":6124,"cest":6125,"mony":6126,"Ġassoci":6127,"Ġbless":6128,"ĠOs":6129,"Ġaddition":6130,"Ġbabysit":6131,"Ġmemor":6132,"China":6133,"Ġsuspended":6134,"Ġemotional":6135,"Ġrabbit":6136,"Ġcooperative":6137,"ĠKyoto":6138,"ero":6139,"Ġreliable":6140,"ĠJuly":6141,"ification":6142,"Ġheavily":6143,"Ġdisappoint":6144,"Ġlecture":6145,"Father":6146,"Muslim":6147,"rim":6148,"Ġpink":6149,"ĠOn":6150,"Ġcrash":6151,"Ġswimmer":6152,"Ġreform":6153,"Ġyelled":6154,"ĠQue":6155,"Ġdamaged":6156,"Ġprincess":6157,"Ġmicro":6158,"heart":6159,"Ġaside":6160,"Ġalp":6161,"Ġseek":6162,"anned":6163,"Ġclar":6164,"Ġblo":6165,"Ġbeings":6166,"Ġsnakes":6167,"Ġsincere":6168,"Ġdirector":6169,"Ġpuzzled":6170,"Ġpillow":6171,"Ġwrapped":6172,"oop":6173,"ppers":6174,"ĠSwed":6175,"Ġambit":6176,"Ġbrings":6177,"Ġnights":6178,"Ġaccustom":6179,"ĠHun":6180,"Ġslam":6181,"Ġbreathe":6182,"Ġintelligence":6183,"Ġmeasure":6184,"Ġcircumstances":6185,"Ah":6186,"mic":6187,"Ġbab":6188,"Ġscreen":6189,"Ġstrate":6190,"Ġtreas":6191,"Ġraw":6192,"Ġfacing":6193,"Ġoverwhel":6194,"Ad":6195,"Bu":6196,"Ġpin":6197,"Ġoven":6198,"Ġthrown":6199,"acle":6200,"istry":6201,"Ġowned":6202,"Ġlanded":6203,"Ġoption":6204,"Write":6205,"wood":6206,"Ġmask":6207,"Ġnations":6208,"ada":6209,"Ġjazz":6210,"geous":6211,"Ġsomewhat":6212,"Ġspell":6213,"ĠCal":6214,"Ġlasted":6215,"Ġmayor":6216,"Ġmedication":6217,"Ġcommunicate":6218,"aptop":6219,"Ġenvelope":6220,"Ġgather":6221,"Ġknee":6222,"geon":6223,"Ġimage":6224,"Ġguest":6225,"Ġputs":6226,"Ġ14":6227,"Ġrepaired":6228,"Ġdealing":6229,"Ġseconds":6230,"Ġcouscous":6231,"Ġconvert":6232,"Ġgrammar":6233,"Ġjewel":6234,"Ġconsequences":6235,"Ġeth":6236,"Ġdict":6237,"Ġlaptop":6238,"Ġgang":6239,"Ġgaz":6240,"etch":6241,"Ġrush":6242,"Ġtrunk":6243,"olic":6244,"Ġchannel":6245,"Ġcommittee":6246,"Ġentertain":6247,"Ġcaf":6248,"Ġpolitician":6249,"Ġmagic":6250,"Ġaccomplish":6251,"Ġtools":6252,"ĠTurk":6253,"Ġceremony":6254,"Ġphilosoph":6255,"ares":6256,"ebr":6257,"rast":6258,"hew":6259,"hai":6260,"Ġcraw":6261,"Ġbelt":6262,"Ġjun":6263,"Ġvot":6264,"Ġrocks":6265,"Ġkindness":6266,"Ġfruits":6267,"Ġrelatives":6268,"Ġgiant":6269,"Ġmosqu":6270,"Ġproduction":6271,"Ġessential":6272,"Giraffes":6273,"rict":6274,"Ġdated":6275,"arant":6276,"Ġspider":6277,"ĠBl":6278,"ĠBudd":6279,"ĠCon":6280,"Ġ13":6281,"Ġyoungest":6282,"Ġsetting":6283,"ricult":6284,"Ġdollar":6285,"Ġmotion":6286,"Ġleads":6287,"Ġhundreds":6288,"Ġsympathetic":6289,"Ġlobby":6290,"brew":6291,"jud":6292,"mind":6293,"vant":6294,"ĠJane":6295,"ĠMarch":6296,"Ġconsult":6297,"Ġsigns":6298,"Ġexistence":6299,"ĠThursday":6300,"Hi":6301,"lace":6302,"spe":6303,"ĠX":6304,"Ġfate":6305,"Ġshift":6306,"ĠAll":6307,"Ġshoulders":6308,"ĠJan":6309,"ĠMed":6310,"Ġ25":6311,"Ġskirt":6312,"Ġsnake":6313,"everal":6314,"Ġrainy":6315,"olded":6316,"Ġbreathing":6317,"Ġreplaced":6318,"ography":6319,"Ġunlocked":6320,"Ġnuclear":6321,"Mom":6322,"Ġsque":6323,"Ġduck":6324,"esome":6325,"Ġancest":6326,"urry":6327,"Ġcompared":6328,"Ġscen":6329,"Ġtrained":6330,"Ġdoubts":6331,"Ġhorror":6332,"Ġbeaten":6333,"Ġprovided":6334,"Ġincredible":6335,"off":6336,"ufact":6337,"asp":6338,"lymp":6339,"alking":6340,"Ġadults":6341,"Ġinterests":6342,"ocrat":6343,"Ġinformed":6344,"Christ":6345,"Ġeffective":6346,"Ġbalance":6347,"Ġrelieved":6348,"Ġmixed":6349,"Ġtroubled":6350,"ĠTuesday":6351,"Tatoeba":6352,"bow":6353,"rid":6354,"Ġi":6355,"Ġtire":6356,"Ġbars":6357,"Ġgoat":6358,"ĠPlease":6359,"Ġminister":6360,"Ġprincipal":6361,"Ġsignificant":6362,"ompl":6363,"icip":6364,"Ġintim":6365,"ĠMin":6366,"Ġaccur":6367,"ĠHalloween":6368,"Ġimportance":6369,"Ġexperiment":6370,"Ġrestaurants":6371,"Almost":6372,"ener":6373,"Ġspite":6374,"Ġblocked":6375,"Ġroommate":6376,"Ġrecovered":6377,"Ġmassive":6378,"Ġrelaxed":6379,"Ġseparate":6380,"Ġshouted":6381,"Ġaston":6382,"Ġaccustomed":6383,"kward":6384,"Ġsir":6385,"Ġknees":6386,"ookie":6387,"abor":6388,"Ġorbit":6389,"Ġovercome":6390,"Ġawkward":6391,"Ġirre":6392,"Ġerr":6393,"Ġaffected":6394,"Ġrelatively":6395,"Gu":6396,"itable":6397,"orough":6398,"usive":6399,"Ġpersonally":6400,"Ġpassing":6401,"Ġconsists":6402,"Ġweekends":6403,"Ġappropriate":6404,"Ġfrozen":6405,"Kabylie":6406,"Ġpandemic":6407,"water":6408,"Ġdried":6409,"rian":6410,"Think":6411,"Ġvase":6412,"izzy":6413,"Ġswam":6414,"Ġaccompl":6415,"Ġ17":6416,"gging":6417,"Ġdresses":6418,"Ġgeneration":6419,"Ġtexted":6420,"Ġsensitive":6421,"Ġnaive":6422,"Jim":6423,"OK":6424,"Several":6425,"Ġwha":6426,"Ġfol":6427,"acher":6428,"ibi":6429,"Ġmovement":6430,"Ġcausing":6431,"ucked":6432,"Ġargued":6433,"Ġreplied":6434,"Ġscientist":6435,"Ġbasic":6436,"Ġrumor":6437,"Ġcaptured":6438,"Ġnonsense":6439,"Ind":6440,"Mother":6441,"pite":6442,"omas":6443,"Ġshore":6444,"aghet":6445,"Ġgrap":6446,"Ġflies":6447,"Whenever":6448,"Ġappeal":6449,"Ġheading":6450,"Ġtallest":6451,"jaia":6452,"Ġvictory":6453,"Ġinsects":6454,"aghetti":6455,"Open":6456,"onest":6457,"Ġcaut":6458,"Ġpride":6459,"athy":6460,"ĠOlymp":6461,"Ġfarmer":6462,"Ġadvise":6463,"Ġreduce":6464,"Ġgrows":6465,"Ġbothered":6466,"Ġrising":6467,"Ġdevil":6468,"Ġbothering":6469,"ophone":6470,"Ġpaintings":6471,"Ġvolunteer":6472,"Germ":6473,"SA":6474,"lings":6475,"Ġspect":6476,"Ġexagger":6477,"asty":6478,"Ġlover":6479,"Ġgray":6480,"Ġimpact":6481,"Whoever":6482,"Ġtrains":6483,"Ġcharming":6484,"Ġheartb":6485,"Ġbattery":6486,"Ġcrossing":6487,"Ġencouraged":6488,"Ġextraord":6489,"Ġracist":6490,"Ġreaction":6491,"jam":6492,"Ġbone":6493,"Ġpess":6494,"Ġank":6495,"ĠAre":6496,"osaur":6497,"Ġvul":6498,"Ġkiller":6499,"Ġindeed":6500,"Ġpatients":6501,"Ġsoldier":6502,"Ġconstant":6503,"Ġdetective":6504,"Baya":6505,"hy":6506,"Ġing":6507,"Ġsore":6508,"Ġdrowned":6509,"Ġstaff":6510,"abul":6511,"Ġchips":6512,"ckets":6513,"Ġpeel":6514,"ĠNor":6515,"Ġpossess":6516,"Ġsoftware":6517,"Ġcancel":6518,"Water":6519,"ĠWhite":6520,"Ġpressed":6521,"Ġnic":6522,"Ġbears":6523,"Ġformed":6524,"Ġtrapped":6525,"Ġvoted":6526,"Ġintent":6527,"Ġmanufact":6528,"Ġquarter":6529,"Ġguarant":6530,"Ġmostly":6531,"Ġachieved":6532,"Police":6533,"Ġrepresent":6534,"Ġrapidly":6535,"Actually":6536,"ront":6537,"ints":6538,"onic":6539,"Ġfart":6540,"ams":6541,"opher":6542,"Ġunp":6543,"Ġunknown":6544,"ĠJust":6545,"auc":6546,"Ġcrashed":6547,"ension":6548,"Ġmisses":6549,"ĠUkrain":6550,"Stud":6551,"Ġdarkness":6552,"Ġcoward":6553,"Ġnecklace":6554,"Ġcarpet":6555,"Ġladder":6556,"Ġchemical":6557,"Despite":6558,"'.":6559,"rant":6560,"sp":6561,"ught":6562,"Ġfrog":6563,"Ġwasted":6564,"illa":6565,"odies":6566,"Ġwheat":6567,"Ġunconscious":6568,"istent":6569,"Ġcoinc":6570,"Ġtwins":6571,"ĠThan":6572,"Ġdecent":6573,"Ġdriven":6574,"Ġfox":6575,"Ġadvanced":6576,"Ġtransfer":6577,"Ġcharges":6578,"Ġsym":6579,"Ġworrying":6580,"Ġposted":6581,"Ġessay":6582,"Ġapplication":6583,"ault":6584,"vy":6585,"ednes":6586,"stead":6587,"anta":6588,"uled":6589,"ĠKen":6590,"Ġskill":6591,"Ġpainful":6592,"Doesn":6593,"Ġeffects":6594,"Ġengineer":6595,"Ġdelivered":6596,"Ġflashlight":6597,"Ġnearest":6598,"Ġhaunted":6599,"Ġfortunate":6600,"Ġwings":6601,"Ġwolf":6602,"Ġlugg":6603,"Ġped":6604,"Ġpork":6605,"aming":6606,"Ġblond":6607,"ĠHebrew":6608,"Ġleading":6609,"Ġrespected":6610,"Ġlimited":6611,"Ġbottles":6612,"Ġbowl":6613,"Ġdialect":6614,"Ġpupils":6615,"ĠPalestin":6616,"Ġminimum":6617,"Ġexplosion":6618,"Ġluggage":6619,"Rec":6620,"aid":6621,"iat":6622,"tar":6623,"ĠWhere":6624,"Ġtoast":6625,"Ġmort":6626,"Ġhook":6627,"Ġbeating":6628,"Ġease":6629,"Ġplat":6630,"andal":6631,"Ġages":6632,"agement":6633,"Ġadvert":6634,"ĠPl":6635,"Ġgiraffes":6636,"Ġshoe":6637,"ĠHaw":6638,"Ġlightning":6639,"Ġinterrup":6640,"Ġinterpre":6641,"ĠJewish":6642,"Ġdefeat":6643,"Find":6644,"oj":6645,"oly":6646,"Ġwave":6647,"Ġdizzy":6648,"Ġment":6649,"Ġcas":6650,"Ġcode":6651,"Ġgrav":6652,"Ġnorthern":6653,"iforn":6654,"Ġabsence":6655,"Ġsnowing":6656,"Ġcentre":6657,"Ġwooden":6658,"Ġrecommended":6659,"Sc":6660,"iber":6661,"oes":6662,"Ġdil":6663,"ishes":6664,"Ġpages":6665,"Ġvo":6666,"ĠLe":6667,"Ġawesome":6668,"Ġpriest":6669,"Ġforms":6670,"Ġbutterf":6671,"Ġincredibly":6672,"Ġbranch":6673,"Dad":6674,"Qu":6675,"ua":6676,"Ġnurs":6677,"Ġthorough":6678,"alt":6679,"Ġexists":6680,"Ġproved":6681,"Ġwaiter":6682,"anges":6683,"Ġremote":6684,"Ġstops":6685,"Ġmemories":6686,"ĠEgyptian":6687,"Muslims":6688,"Like":6689,"Soon":6690,"Ġaid":6691,"anas":6692,"vey":6693,"Ġsax":6694,"Ġchief":6695,"Ġbackpack":6696,"Ġours":6697,"uction":6698,"Ġdifficulties":6699,"Ġcafe":6700,"Ġceiling":6701,"Ġapprove":6702,"ĠSundays":6703,"Ġsteak":6704,"Ġaccompan":6705,"Ġdisgusting":6706,"Ġastronaut":6707,"stitute":6708,"ĠMexico":6709,"habet":6710,"Happy":6711,"Ġhelmet":6712,"ĠHolmes":6713,"pes":6714,"Ġtit":6715,"Ġpipe":6716,"asks":6717,"Ġhast":6718,"Ġisol":6719,"Ġgods":6720,"roph":6721,"Ġsem":6722,"Ġrat":6723,"ĠDutch":6724,"Ġbitch":6725,"Ġcompleted":6726,"phones":6727,"Ġdevast":6728,"Ġshooting":6729,"Ġinvestigation":6730,"Ġcontrad":6731,"Ġowes":6732,"Ġambitious":6733,"ifornia":6734,"Eat":6735,"cope":6736,"Ġder":6737,"Ġbitten":6738,"Ġstamps":6739,"ula":6740,"ĠBr":6741,"istics":6742,"ously":6743,"uded":6744,"Ġrolled":6745,"Ġcoins":6746,"Ġsupply":6747,"Ġshalt":6748,"ĠWednes":6749,"Ġgenuine":6750,"Ġoppon":6751,"Ġprotest":6752,"Ġregretted":6753,"ĠTrump":6754,"Ġdiplomatic":6755,"Ġdedicated":6756,"Ġnodded":6757,"ĠOsaka":6758,"abulary":6759,"Bill":6760,"Ġfiction":6761,"eness":6762,"Ġinit":6763,"alent":6764,"Ġvast":6765,"Ġexpand":6766,"Ġcrimes":6767,"Ġterrit":6768,"Ġproposed":6769,"Ġ40":6770,"Ġspecific":6771,"Ġregularly":6772,"Ġelephant":6773,"Ġforbid":6774,"\"?":6775,"gain":6776,"Ġwanna":6777,"Ġsarc":6778,"Ġlamp":6779,"Ġreward":6780,"Ġsailing":6781,"ĠCar":6782,"Ġprince":6783,"Ġwaters":6784,"ĠGu":6785,"Ġresident":6786,"Ġassured":6787,"Ġcutting":6788,"Ġleaders":6789,"Ġnewspapers":6790,"Ġprevented":6791,"Ġmanners":6792,"Apparently":6793,"Ġvocabulary":6794,"ebruary":6795,"Ġlemon":6796,"nder":6797,"olve":6798,"Ġideal":6799,"ĠBerlin":6800,"Ġclassical":6801,"Ġobst":6802,"Ġholds":6803,"Ġgunsh":6804,"Ġtypical":6805,"Ġpollution":6806,"Money":6807,"Âł":6808,"Ġwig":6809,"Ġgreed":6810,"Ġinher":6811,"ley":6812,"Ġreck":6813,"store":6814,"Ġspaghetti":6815,"Ġune":6816,"udden":6817,"Ġbucket":6818,"Ġtalkative":6819,"Ġappet":6820,"Ġcontinues":6821,"Ġcups":6822,"Ġchairs":6823,"Ġdevoted":6824,"Ġcellphone":6825,"ĠIndian":6826,"Ġpredict":6827,"Ġmeasures":6828,"Ġetern":6829,"Ġjewelry":6830,"Jane":6831,"Work":6832,"fall":6833,"Ġsib":6834,"Ġnail":6835,"Ġbutt":6836,"Ġclin":6837,"Ġchain":6838,"Ġadmin":6839,"Ġvegetarian":6840,"Ġreminds":6841,"Ġactivity":6842,"Ġhammer":6843,"Ġpeanuts":6844,"Ġsettled":6845,"ĠTurkish":6846,"gment":6847,"Ġwiped":6848,"Ġspilled":6849,"Ġsupplies":6850,"Ġsits":6851,"Ġclosely":6852,"Ġdebate":6853,"Ġbleeding":6854,"Ġanxiety":6855,"Ġscratch":6856,"Sure":6857,"Ġpays":6858,"Ġnut":6859,"sters":6860,"oops":6861,"roken":6862,"Ġharvest":6863,"ĠRep":6864,"Ġfourth":6865,"Ġrisks":6866,"Ġcows":6867,"Ġthrowing":6868,"Ġdescribed":6869,"Ġmultiple":6870,"ograms":6871,"hole":6872,"kind":6873,"uise":6874,"uals":6875,"Ġtag":6876,"isher":6877,"Ġbarn":6878,"urning":6879,"Ġmanip":6880,"Ġloving":6881,"Ġphones":6882,"Ġmush":6883,"Ġrefuge":6884,"Ġhumili":6885,"Ġdistingu":6886,"Ġfollows":6887,"Ġvalid":6888,"Ġobsessed":6889,"Ġpurchased":6890,"Ġfestival":6891,"Ġdeclared":6892,"ĠJanuary":6893,"uddenly":6894,"Ġfuss":6895,"Ġstink":6896,"Ġlip":6897,"osity":6898,"ĠMid":6899,"Ġprime":6900,"Ġfled":6901,"Ġ24":6902,"pring":6903,"Ġvisitors":6904,"Ġexcused":6905,"Ġinsp":6906,"Ġroads":6907,"Ġsupportive":6908,"Ġinvestment":6909,"olley":6910,"Ġcharacters":6911,"Ġ2004":6912,"ĠBritain":6913,"Ġfocused":6914,"Ġvictims":6915,"Ġbudget":6916,"Ġathlet":6917,"Ġgorgeous":6918,"Cle":6919,"Over":6920,"iation":6921,"Ġhabits":6922,"Ġeuro":6923,"Ġstew":6924,"keep":6925,"roll":6926,"Ġflir":6927,"Ġflour":6928,"Ġexpectations":6929,"ieth":6930,"Ġsolid":6931,"Ġtasted":6932,"Ġsending":6933,"Ġappreciated":6934,"Ġhello":6935,"Ġearned":6936,"ĠTurkey":6937,"Ġarrange":6938,"Ġshadow":6939,"Ġdistracted":6940,"Ġgrey":6941,"Ġalphabet":6942,"Ġmushroom":6943,"ris":6944,"Ġu":6945,"ĠHis":6946,"Ġcared":6947,"esh":6948,"Ġworries":6949,"Ġvolley":6950,"However":6951,"Ġque":6952,"ĠOne":6953,"Ġswims":6954,"Ġaddicted":6955,"Ġunivers":6956,"Ġcultural":6957,"load":6958,"Ġprayed":6959,"Ġliterally":6960,"Ġgreeted":6961,"Ġtarget":6962,"ĠHungarian":6963,"Ġphilosophy":6964,"NA":6965,"pts":6966,"xic":6967,"rels":6968,"Ġpills":6969,"alley":6970,"Ġarmed":6971,"Ġincorrect":6972,"Ġsunny":6973,"Ġterribly":6974,"Ġtexting":6975,"Ġcompetitive":6976,"Ġtypes":6977,"Ġconnected":6978,"ĠHowever":6979,"Ġdeleted":6980,"Su":6981,"Ġwest":6982,"Ġdrow":6983,"isa":6984,"Ġgal":6985,"Ġweb":6986,"Ġsection":6987,"ctic":6988,"Ġcomic":6989,"respect":6990,"iously":6991,"Ġskating":6992,"Ġtransform":6993,"Ġexams":6994,"Ġfalls":6995,"Ġstores":6996,"Ġbrill":6997,"Ġpoems":6998,"Ġsenior":6999,"Ġtreasure":7000,"ĠCalifornia":7001,"coming":7002,"ivers":7003,"oons":7004,"Ġsou":7005,"Ġsorrow":7006,"erous":7007,"Ġcrew":7008,"Ġanal":7009,"Ġseas":7010,"cember":7011,"istan":7012,"Ġvir":7013,"Ġagricult":7014,"Ġletting":7015,"Ġscore":7016,"Ġguns":7017,"ĠAsia":7018,"Ġidentity":7019,"Ġdesigned":7020,"Ġsearching":7021,"ĠBuddh":7022,"Suddenly":7023,"aire":7024,"ye":7025,"Ġwid":7026,"Ġmal":7027,"Ġnasty":7028,"Ġstabbed":7029,"Welcome":7030,"estic":7031,"Ġintrig":7032,"ĠMa":7033,"ĠMos":7034,"Ġexpressed":7035,"ĠCD":7036,"ansl":7037,"Ġacts":7038,"anguage":7039,"ugust":7040,"Ġpicking":7041,"Ġexception":7042,"Shouldn":7043,"Ġindustrial":7044,"Ġambul":7045,"ĠSalima":7046,"Ġpowers":7047,"minded":7048,"Ġankle":7049,"ĠWednesday":7050,"Ġvolleyball":7051,"Ġpitch":7052,"Ġsoil":7053,"Ġintense":7054,"ounding":7055,"Ġchop":7056,"cknow":7057,"ĠMira":7058,"ĠCity":7059,"Ġcomplim":7060,"Ġdispl":7061,"Ġbuys":7062,"ĠGreat":7063,"ĠPe":7064,"ĠPro":7065,"Ġperman":7066,"Ġforehead":7067,"Ġdemanded":7068,"Ġsneak":7069,"Res":7070,"isp":7071,"Ġlung":7072,"itan":7073,"imately":7074,"Ġgoats":7075,"Ġconqu":7076,"ĠFebruary":7077,"Ġnowadays":7078,"ĠCath":7079,"Ġmoves":7080,"Ġphoned":7081,"Ġpainter":7082,"Ġsitu":7083,"Ġanswering":7084,"Ġsubway":7085,"Ġrented":7086,"Ġpotential":7087,"Ġinclude":7088,"Ġbullet":7089,"ĠBejaia":7090,"Ġcabin":7091,"ĠKorean":7092,"Ġdelighted":7093,"Ġshelter":7094,"Ġestablished":7095,"Ġacknow":7096,"Ġbac":7097,"erry":7098,"Ġnails":7099,"atically":7100,"Ġthunder":7101,"Though":7102,"Ġbackground":7103,"Ġshaking":7104,"Ġsnoring":7105,"Ġlistens":7106,"Ġ202":7107,"Ġmenu":7108,"Ġhoriz":7109,"Ġsafely":7110,"Ġpractical":7111,"Ġequip":7112,"Ġskinny":7113,"Ġemotions":7114,"Ġdeliver":7115,"chers":7116,"Ġutter":7117,"Ġstrangers":7118,"Ġpunctual":7119,"Ġintimid":7120,"Im":7121,"ique":7122,"mark":7123,"Ġcandle":7124,"Ġoutdo":7125,"ĠBouteflika":7126,"iece":7127,"ĠMoses":7128,"Ġcarbon":7129,"Ġgrab":7130,"Ġshake":7131,"Ġhath":7132,"Ġhats":7133,"Ġconstit":7134,"Ġrescued":7135,"Ġconvenient":7136,"Ġversion":7137,"Ġarrogant":7138,"Ġvoices":7139,"Ġpi":7140,"ighed":7141,"Ġbrace":7142,"Ġparent":7143,"Ġpoker":7144,"ĠYid":7145,"ificial":7146,"Ġcollected":7147,"Ġverb":7148,"Ġconnection":7149,"Ġcommunication":7150,"Ġcarpenter":7151,"pered":7152,"uces":7153,"yl":7154,"asm":7155,"Ġgamb":7156,"Ġbeans":7157,"lection":7158,"upiter":7159,"Ġexhib":7160,"Ġprohib":7161,"Ġenorm":7162,"raham":7163,"Ġcoin":7164,"Ġswitched":7165,"Ġpockets":7166,"avy":7167,"ĠVen":7168,"Ġnormally":7169,"Ġorganization":7170,"Ġgolden":7171,"Ġlocker":7172,"Ġaffection":7173,"Gr":7174,"Ġtank":7175,"Ġsed":7176,"Ġbent":7177,"Ġbass":7178,"alm":7179,"Ġsauce":7180,"Ġtear":7181,"ĠBar":7182,"ĠFu":7183,"itty":7184,"Ġfunction":7185,"Ġserving":7186,"Ġstove":7187,"Ġdreaming":7188,"onym":7189,"Ġrepeated":7190,"porary":7191,"ructure":7192,"Ġunwilling":7193,"Ġjogging":7194,"Ġambulance":7195,"Aust":7196,"awn":7197,"bur":7198,"Ġ...":7199,"Ġtid":7200,"rete":7201,"Ġlux":7202,"Ġteles":7203,"oles":7204,"Ġvisa":7205,"Ġgreatly":7206,"Ġembr":7207,"Ġdiscover":7208,"Ġconcer":7209,"ietnam":7210,"Ġprotection":7211,"Ġ300":7212,"orthy":7213,"harm":7214,"Ġobjects":7215,"Ġphysics":7216,"Anyone":7217,"Ġ1990":7218,"Ġcandles":7219,"Ġthrilled":7220,"Ġrevenge":7221,"Ġaccomplished":7222,"made":7223,"Ġlaughter":7224,"Ġdozen":7225,"Ġsting":7226,"Ġsav":7227,"Ġshell":7228,"ĠEl":7229,"ĠEaster":7230,"Ġwins":7231,"ĠNot":7232,"ĠNational":7233,"Ġdiscount":7234,"Ġindic":7235,"Ġproduced":7236,"Ġsuperior":7237,"Ġofficials":7238,"chair":7239,"Ġbananas":7240,"Ġbalcon":7241,"ĠDecember":7242,"Learning":7243,"Ġpunishment":7244,"Ġjunior":7245,"ĠHawai":7246,"Use":7247,"iro":7248,"war":7249,"Ġtore":7250,"Ġfuel":7251,"Ġfulf":7252,"Ġwel":7253,"enth":7254,"Ġsevent":7255,"Ġspoon":7256,"Ġmusical":7257,"Ġconvicted":7258,"Ġpostc":7259,"Soci":7260,"Ġrenew":7261,"Ġslee":7262,"Ġpeaceful":7263,"Ġprivacy":7264,"Ġcousins":7265,"Ġtorn":7266,"Ġpanic":7267,"ĠJews":7268,"50":7269,"Sit":7270,"Ġbones":7271,"Ġcure":7272,"Ġnerves":7273,"Ġang":7274,"Ġhitting":7275,"aying":7276,"Ġec":7277,"imated":7278,"Ġstable":7279,"Ġshining":7280,"Ġrust":7281,"Ġrug":7282,"Ġtrail":7283,"osis":7284,"Ġimam":7285,"Ġcleared":7286,"Ġvision":7287,"Ġhurting":7288,"Ġinterrupt":7289,"lands":7290,"Ġbringing":7291,"Shut":7292,"Ġtourist":7293,"Ġactivities":7294,"Ġfascinating":7295,"Ġcigarettes":7296,"writing":7297,"Fr":7298,"fire":7299,"rots":7300,"ucy":7301,"inter":7302,"Ġcakes":7303,"anes":7304,"Ġgall":7305,"ali":7306,"step":7307,"Ġsector":7308,"Ġsheet":7309,"Ġleather":7310,"Ġconcept":7311,"ĠMan":7312,"ĠRom":7313,"Ġchap":7314,"ointed":7315,"Ġregister":7316,"Ġsyn":7317,"ika":7318,"Ġanticip":7319,"Ġattempted":7320,"Ġtiger":7321,"Ġerrors":7322,"Ġpessimistic":7323,"Ġbrilliant":7324,"Boston":7325,"Hurry":7326,"Send":7327,"va":7328,"Ġult":7329,"Ġsan":7330,"asive":7331,"Ġeast":7332,"ĠBak":7333,"ĠBel":7334,"Ġupd":7335,"osy":7336,"Ġsomehow":7337,"ĠEvery":7338,"Ġdislike":7339,"Ġconscience":7340,"azid":7341,"efully":7342,"ercury":7343,"Ġbehavi":7344,"Ġcongrat":7345,"aves":7346,"cery":7347,"fish":7348,"jo":7349,"Ġgig":7350,"acles":7351,"Whether":7352,"Ġattached":7353,"Ġpromotion":7354,"licop":7355,"Ġaffairs":7356,"Ġcentral":7357,"Ġchecking":7358,"Ġimagined":7359,"Ġvariety":7360,"Ġrevolution":7361,"Ġfascinated":7362,"Ġfolded":7363,"Ġangel":7364,"Ġmosquit":7365,"Ġequipment":7366,"Ġbalcony":7367,").":7368,"Car":7369,"fle":7370,"Ġwitch":7371,"Ġfab":7372,"lete":7373,"Ġhers":7374,"Ġtrump":7375,"Ġalike":7376,"ups":7377,"Ġcommer":7378,"ĠSome":7379,"Ġoranges":7380,"Ġprecious":7381,"Ġprejud":7382,"ĠEm":7383,"Ġdecades":7384,"Ġfoods":7385,"ĠYazid":7386,"Ġfooled":7387,"Ġvolc":7388,"derer":7389,"Ġadopt":7390,"Ġemotion":7391,"Ġpoetry":7392,"Ġremarkable":7393,"Ġprecise":7394,"Ġslammed":7395,"Bob":7396,"Scient":7397,"tains":7398,"xicated":7399,"reg":7400,"Ġdies":7401,"Ġcries":7402,"ita":7403,"Ġnick":7404,"Ġgoss":7405,"rency":7406,"Ġagent":7407,"Ġintoxicated":7408,"Ġglanced":7409,"ĠNet":7410,"orders":7411,"ĠDad":7412,"Ġpoliticians":7413,"Ġeducated":7414,"Ġassistance":7415,"ĠInternational":7416,"Speak":7417,"Ġrobbery":7418,"ocratic":7419,"Ġextraordinary":7420,"bb":7421,"gian":7422,"lock":7423,"asant":7424,"Ġgender":7425,"unched":7426,"opaths":7427,"ĠSha":7428,"ĠCha":7429,"Ġdisor":7430,"Ġscandal":7431,"Ġsurely":7432,"ords":7433,"Ġconfl":7434,"Ġinfrast":7435,"Ġsunlight":7436,"Ġticklish":7437,"Ġdiscussing":7438,"Ġnecessarily":7439,"Ġmarks":7440,"Ġtricks":7441,"Ġstatue":7442,"Ġparticipate":7443,"Ġvehicle":7444,"Russia":7445,"Ġtone":7446,"Ġpunch":7447,"Ġhelicop":7448,"Ġbeef":7449,"ĠBrown":7450,"andom":7451,"rows":7452,"Ġeleven":7453,"Ġdistant":7454,"Ġtranslating":7455,"Ġpracticing":7456,"Ġinjuries":7457,"Ġmurderer":7458,"Ġgradually":7459,"Ġmaintain":7460,"Ġuncertain":7461,"Ġsuitable":7462,"Ġenvy":7463,"ographer":7464,"Ġdirections":7465,"Ġestate":7466,"Ġprimary":7467,"Ġstunned":7468,"Ġcoincidence":7469,"Ob":7470,"Ġsouthern":7471,"Ġbodies":7472,"Ġpear":7473,"Ġbee":7474,"adan":7475,"Ġasse":7476,"Ġworship":7477,"ila":7478,"Ġfears":7479,"Ġovers":7480,"Ġdisrespect":7481,"Ġscrap":7482,"Ġshade":7483,"Ġmonkey":7484,"Ġfairy":7485,"Ġbanana":7486,"Ġchemistry":7487,"Ġcherry":7488,"Ġdilig":7489,"ĠFuji":7490,"bar":7491,"rs":7492,"walk":7493,"Ġmild":7494,"Ġcust":7495,"Ġheal":7496,"Ġnin":7497,"Ġstamp":7498,"cel":7499,"Ġrings":7500,"Ġdisple":7501,"Ġaward":7502,"ountain":7503,"ĠRam":7504,"Ġdecre":7505,"Ġdrivers":7506,"Ġfundam":7507,"Ġmonster":7508,"Ġslice":7509,"Ġcookie":7510,"Ġbicycles":7511,"Ġinstant":7512,"Ġembarrassing":7513,"Ġauthorities":7514,"Ġfarmers":7515,"Ġopportunities":7516,"Ġdelayed":7517,"Ġwaved":7518,"Ġseparated":7519,"Ġarranged":7520,"haraoh":7521,"Ġcafeter":7522,"jamas":7523,"Ġsaxophone":7524,"Ġaccompanied":7525,"Few":7526,"Luck":7527,"edient":7528,"Ġlap":7529,"Ġod":7530,"Ġintends":7531,"Ġsci":7532,"Ġawfully":7533,"Ġvisible":7534,"Ġconfess":7535,"eptember":7536,"ĠVietnam":7537,"Ġprisoner":7538,"Ġapproached":7539,"Ġforeigners":7540,"ollow":7541,"Ġringing":7542,"Ġscreamed":7543,"Ġlifted":7544,"Ġstruggled":7545,"Ġmaterials":7546,"Ġmutual":7547,"Ġtomatoes":7548,"Ġheartbroken":7549,"ders":7550,"oided":7551,"xual":7552,"ĠYour":7553,"Ġtune":7554,"Ġinha":7555,"Ġstir":7556,"Ġfork":7557,"Ġjar":7558,"Ġdeer":7559,"ĠCl":7560,"Ġcompass":7561,"ĠPer":7562,"Instead":7563,"bec":7564,"Ġexcl":7565,"Ġavoided":7566,"Ġclosest":7567,"Ġdeveloping":7568,"Ġzero":7569,"Ġrecorded":7570,"ĠAnne":7571,"Ġhyd":7572,"Ġdespite":7573,"Ġsalesman":7574,"Ġdefeated":7575,"Ġcheeks":7576,"Ġrevealed":7577,"Drink":7578,"Ġcollapsed":7579,"Ġlandscap":7580,"Ġconsciousness":7581,"Ġvulner":7582,"Or":7583,"ena":7584,"Ġpace":7585,"ĠID":7586,"acity":7587,"ĠAugust":7588,"Ġexpenses":7589,"Ġtwin":7590,"Ġguards":7591,"ĠGrand":7592,"prints":7593,"Ġhunger":7594,"Ġwinds":7595,"Ġwarmer":7596,"Ġhaircut":7597,"Ġsunset":7598,"ĠThen":7599,"Ġtemple":7600,"ĠSpace":7601,"Ġprayer":7602,"Ġearns":7603,"Ġlevels":7604,"Japanese":7605,"Ġinfrastructure":7606,"put":7607,"uz":7608,"orable":7609,"Ġpour":7610,"rier":7611,"Ġnep":7612,"unis":7613,"laim":7614,"ĠMoon":7615,"Ġcoal":7616,"Ġbrushed":7617,"Ġhandwriting":7618,"Ġincomp":7619,"Ġdiscovery":7620,"working":7621,"Ġesc":7622,"Ġpacking":7623,"Ġcriticism":7624,"Ġgrocery":7625,"ĠKorea":7626,"Ġsarcastic":7627,"cies":7628,"cuff":7629,"mad":7630,"hada":7631,"Ġinex":7632,"acing":7633,"children":7634,"Ġrage":7635,"Ġvent":7636,"ĠSov":7637,"Ġcarries":7638,"ĠCent":7639,"Ġblowing":7640,"Ġharsh":7641,"issors":7642,"ĠGreen":7643,"Ġprett":7644,"ĠWashing":7645,"Ġfixing":7646,"Ġpicky":7647,"Ġsystems":7648,"Ġships":7649,"Ġviews":7650,"Ġcritical":7651,"Ġresigned":7652,"Ġstruggling":7653,"Ġdiagn":7654,"Ġscarf":7655,"Ġweighs":7656,"Ġadminist":7657,"ĠSoviet":7658,"ĠWashington":7659,"Jud":7660,"corn":7661,"Ġyog":7662,"ida":7663,"ette":7664,"irds":7665,"Ġrange":7666,"Ġrecipe":7667,"Ġpasses":7668,"Ġsnee":7669,"Ġsubst":7670,"Ġcostume":7671,"Ġdeserved":7672,"Ġservices":7673,"Ġreview":7674,"Ġqualified":7675,"Check":7676,"Ġplatform":7677,"ĠCatholic":7678,"Ġcafeteria":7679,"Hop":7680,"Right":7681,"aign":7682,"break":7683,"rating":7684,"vable":7685,"Ġdates":7686,"Ġmile":7687,"itated":7688,"ĠSeptember":7689,"Ġlongest":7690,"Ġlottery":7691,"Ġblog":7692,"Ġshahada":7693,"Ġcounting":7694,"Ġarrives":7695,"Wouldn":7696,"umbled":7697,"Ġopposed":7698,"Ġtyph":7699,"Ġinjury":7700,"Ġreminded":7701,"Ġmysterious":7702,"Ġsympt":7703,"iar":7704,"wife":7705,"Ġera":7706,"Ġsoph":7707,"omers":7708,"Ġdough":7709,"Ġpit":7710,"irmed":7711,"Ġshirts":7712,"Ġabuse":7713,"arty":7714,"Ġorphan":7715,"Ġroot":7716,"agon":7717,"Ġscolded":7718,"Ġacid":7719,"appro":7720,"Ġshortly":7721,"Ġdrawn":7722,"Ġrequested":7723,"Ġmercy":7724,"Ġbenefits":7725,"while":7726,"Ġelderly":7727,"ĠQueen":7728,"ĠMiddle":7729,"Ġenormous":7730,"Ġbehaviour":7731,"Ġgossip":7732,"Under":7733,"Wow":7734,"mare":7735,"Ġdump":7736,"Ġstones":7737,"acific":7738,"Ġproceed":7739,"Ġload":7740,"ĠSat":7741,"ĠLib":7742,"agram":7743,"oseph":7744,"Ġvisits":7745,"Ġarrival":7746,"Ġfigures":7747,"Ġmodest":7748,"Ġtravels":7749,"Ġefficient":7750,"Ġstarved":7751,"Ġintellect":7752,"Ġurban":7753,"Ġdebts":7754,"Ġfancy":7755,"Ġlogical":7756,"Ġladies":7757,"Ġbenefit":7758,"Ġappetite":7759,"cling":7760,"live":7761,"Ġax":7762,"Ġfans":7763,"Ġfaint":7764,"Ġheathers":7765,"alog":7766,"stood":7767,"uto":7768,"Ġwanting":7769,"Ġexceed":7770,"Ġresin":7771,"ĠPaul":7772,"Ġbreast":7773,"Ġfastest":7774,"Ġcomplaints":7775,"Ġjumping":7776,"chief":7777,"Ġsmoked":7778,"Ġstrawberry":7779,"Ġstrawberries":7780,"ĠSahara":7781,"Ġsubscri":7782,"Ġgalax":7783,"ĠBakir":7784,"Ġnephew":7785,"free":7786,"Ġsust":7787,"Ġtoss":7788,"Ġdread":7789,"Ġbore":7790,"Ġpepper":7791,"agne":7792,"Ġnightmare":7793,"ĠPharaoh":7794,"Ġstandard":7795,"Ġartificial":7796,"...\"":7797,"loaded":7798,"Ġunderest":7799,"Ġdependent":7800,"Ġadventure":7801,"Buy":7802,"Ġclinic":7803,"Scientists":7804,"Won":7805,"ws":7806,"Ġdorm":7807,"Ġpine":7808,"unci":7809,"Ġwithd":7810,"Ġrandom":7811,"Ġens":7812,"itement":7813,"iance":7814,"Ġbrick":7815,"Ġhousehold":7816,"Ġhandcuff":7817,"Ġpromoted":7818,"oko":7819,"Ġhighway":7820,"Ġsets":7821,"Ġpattern":7822,"Ġpenal":7823,"Ġtemperatures":7824,"Ġfilms":7825,"Ġtunnel":7826,"Ġstructure":7827,"Ġliquid":7828,"Ġaccurate":7829,"ĠRepublic":7830,"Hand":7831,"Sw":7832,"inna":7833,"Ġdug":7834,"Ġborders":7835,"Ġmamm":7836,"Ġfare":7837,"Ġfier":7838,"Ġye":7839,"Ġporn":7840,"Ġspiders":7841,"ĠSw":7842,"Ġopera":7843,"Ġsurren":7844,"Ġfewer":7845,"Ġsubur":7846,"Ġparrot":7847,"Ġclosing":7848,"Ġservant":7849,"Ġburnt":7850,"Ġcampaign":7851,"Ġpraying":7852,"Ġresear":7853,"Ġstruggle":7854,"Ġliberty":7855,"Ġbabies":7856,"Ġstrategy":7857,"Ġconflict":7858,"Ġties":7859,"amal":7860,"Ġrural":7861,"Ġloyal":7862,"Ġdrama":7863,"Ġswall":7864,"Ġfaults":7865,"Ġarticles":7866,"Ġtravelling":7867,"Ġcenturies":7868,"Ġinstit":7869,"Ġinstinct":7870,"napped":7871,"Ġexplore":7872,"Ġapology":7873,"Ġignoring":7874,"Ġcircle":7875,"Ġtroubles":7876,"Ġencourage":7877,"Finally":7878,"Ġphrase":7879,"ojban":7880,"Ġvulnerable":7881,"?!":7882,"Haven":7883,"Mon":7884,"five":7885,"gage":7886,"erior":7887,"Ġsuits":7888,"Ġtroops":7889,"Ġspy":7890,"Ġagrees":7891,"ĠJac":7892,"ĠMo":7893,"ĠMt":7894,"Ġdrain":7895,"Ġscissors":7896,"ĠTo":7897,"Ġhandled":7898,"Ġattorn":7899,"ĠNove":7900,"Ġdifferences":7901,"Ġassault":7902,"Ġquicker":7903,"Ġpopcorn":7904,"Ġapproaching":7905,"Ġbatter":7906,"Ġrobot":7907,"Ġnaturally":7908,"Ġexperiences":7909,"Ġcontribute":7910,"Ġoriginally":7911,"zerland":7912,"witzerland":7913,"Ġignorance":7914,"Ġunconv":7915,"Ġdispleased":7916,"ĠNovember":7917,"life":7918,"ping":7919,"rane":7920,"vis":7921,"Ġpharm":7922,"Ġnest":7923,"Ġthus":7924,"Ġsuck":7925,"handed":7926,"Ġexit":7927,"Ġouts":7928,"Ġhappily":7929,"ĠJim":7930,"Ġlaunched":7931,"Ġprotected":7932,"Ġskipped":7933,"Ġcelebrated":7934,"Ġperformed":7935,"Ġprinciples":7936,"Ġsquee":7937,"Ġgreedy":7938,"Ġflirting":7939,"Austral":7940,"Fuck":7941,"uan":7942,"omic":7943,"Ġgum":7944,"Ġwashes":7945,"rie":7946,"Ġneat":7947,"oded":7948,"estyle":7949,"ĠComm":7950,"ĠRe":7951,"Ġkidn":7952,"Ġkidnapped":7953,"Ġentering":7954,"Ġwarming":7955,"Ġforecast":7956,"Ġburgl":7957,"Ġsuffers":7958,"Ġscheduled":7959,"Ġincluded":7960,"ĠBrazilian":7961,"Ġconclusion":7962,"Ġconcentrate":7963,"ĠColumb":7964,"Ġdeclined":7965,"Ġtitle":7966,"ĠRamadan":7967,"Hopefully":7968,"Add":7969,"hop":7970,"wan":7971,"Ġbald":7972,"Ġfoss":7973,"oogle":7974,"Young":7975,"atell":7976,"Ġprosper":7977,"Ġbug":7978,"Ġgrin":7979,"Ġreservation":7980,"ĠPacific":7981,"Ġstrand":7982,"cont":7983,"Ġdesc":7984,"Ġcattle":7985,"ysis":7986,"Ġprescri":7987,"Ġadmits":7988,"works":7989,"Ġsecretly":7990,"Ġrecords":7991,"Ġcontacted":7992,"Ġresemb":7993,"Ġpsychiat":7994,"Ġretirement":7995,"Ġdisturbed":7996,"Ġignorant":7997,"Ġforbidden":7998,"Ġsiblings":7999,"Ġtrumpet":8000,"Gl":8001,"Ġtires":8002,"ouder":8003,"Ġdirt":8004,"Ġbun":8005,"Ġbart":8006,"Ġbanned":8007,"Ġmum":8008,"Ġpir":8009,"Ġbees":8010,"ĠII":8011,"sec":8012,"Ġjury":8013,"Ġunimp":8014,"anda":8015,"Ġcarrots":8016,"Ġcompromise":8017,"Ġafterwards":8018,"Ġcounted":8019,"Ġending":8020,"Ġsnack":8021,"Ġconfirm":8022,"Ġcollar":8023,"Ġbreaks":8024,"Ġcorpor":8025,"Ġstrongly":8026,"henomen":8027,"Ġpunched":8028,"Ġallows":8029,"Ġsupported":8030,"Ġcope":8031,"Ġtower":8032,"Ġshops":8033,"Ġprofession":8034,"ĠAsian":8035,"Ġchallenges":8036,"Ġimpressive":8037,"Ġrailway":8038,"Ġinspired":8039,"Ġnickn":8040,"Ġhelicopter":8041,"Av":8042,"bul":8043,"foot":8044,"rough":8045,"tub":8046,"worthy":8047,"Ġreception":8048,"Ġcliff":8049,"ĠCong":8050,"ressing":8051,"Ġdram":8052,"Ġharass":8053,"Ġ21":8054,"Ġinvent":8055,"Ġreturning":8056,"lessly":8057,"Ġreflect":8058,"Start":8059,"Ġexchan":8060,"Ġexcess":8061,"Ġexperts":8062,"Ġdeadly":8063,"Ġtested":8064,"Ġpurple":8065,"Ġdestination":8066,"Ġbullied":8067,"ungle":8068,"Ġdemands":8069,"Ġshouting":8070,"Ġchoices":8071,"Ġpronounce":8072,"Humans":8073,"Ġcreepy":8074,"Ġcorruption":8075,"Ġinstrument":8076,"Ġoverwhelmed":8077,"ĠUkraine":8078,"Ġunimpressed":8079,"eel":8080,"spect":8081,"Ġtends":8082,"hal":8083,"omin":8084,"omer":8085,"Ġdial":8086,"edy":8087,"Ġfaced":8088,"Ġpenn":8089,"usic":8090,"Ġshots":8091,"Ġalibi":8092,"ĠMad":8093,"Ġunto":8094,"ĠHind":8095,"Ġexamples":8096,"Ġsimpl":8097,"shine":8098,"Ġservants":8099,"Ġeighteen":8100,"Ġlimits":8101,"Ġinnocence":8102,"Ġspirits":8103,"Ġhesitate":8104,"ĠAtl":8105,"Ġmerely":8106,"Ġopponent":8107,"Esperanto":8108,"ygen":8109,"Ġbond":8110,"Ġmug":8111,"ari":8112,"Ġonions":8113,"Ġseeds":8114,"Ġquant":8115,"icking":8116,"Ġappointed":8117,"Ġstopping":8118,"Ġexcitement":8119,"Ġtranslations":8120,"Ġengagement":8121,"Ġcampus":8122,"Ġdelay":8123,"Ġsavings":8124,"respond":8125,"Ġgrapes":8126,"Ġguarantee":8127,"Recently":8128,"tained":8129,"Ġtoxic":8130,"Ġbacked":8131,"Ġlun":8132,"Ġphenomen":8133,"Ġrates":8134,"Ġplates":8135,"Ġspicy":8136,"Ġcloth":8137,"Ġbrains":8138,"Ġscale":8139,"ĠThai":8140,"Ġcheat":8141,"Ġaddict":8142,"Ġtests":8143,"Ġsuggesting":8144,"ucing":8145,"Ġannivers":8146,"Ġpianist":8147,"Ġgrief":8148,"Ġjournalist":8149,"Ġalternative":8150,"speaking":8151,"Ġpermanent":8152,"Either":8153,"School":8154,"cakes":8155,"Ġpad":8156,"Ġpul":8157,"Ġpist":8158,"stagram":8159,"Ġshed":8160,"Ġsole":8161,"artial":8162,"Ġbackwards":8163,"ĠEd":8164,"Ġblessed":8165,"Ġtwent":8166,"Ġmustn":8167,"Ġmeetings":8168,"ockey":8169,"Ġregist":8170,"Ġcorrespond":8171,"Ġaccidents":8172,"Ġdistrib":8173,"ebb":8174,"Ġbathtub":8175,"Ġballs":8176,"Ġidentify":8177,"Ġwidely":8178,"Ġslapped":8179,"Ġroute":8180,"Ġtelescope":8181,"Cut":8182,"fi":8183,"nish":8184,"lement":8185,"etime":8186,"Ġstressed":8187,"stan":8188,"Ġaspect":8189,"Ġjungle":8190,"Ġtra":8191,"ĠCla":8192,"ĠChar":8193,"Ġgull":8194,"liament":8195,"Ġsweets":8196,"Ġparad":8197,"Ġproduces":8198,"Ġspacecraft":8199,"Ġvalues":8200,"Ġflav":8201,"Ġfifth":8202,"Ġdescription":8203,"Ġbasis":8204,"Ġscratched":8205,"Ġconvenience":8206,"Ġtolerate":8207,"Ġmisunderstood":8208,"Ġintentions":8209,"alentine":8210,"Sociopaths":8211,"unciation":8212,"ranean":8213,"Ġanniversary":8214,"fy":8215,"ipping":8216,"wide":8217,"Ġwre":8218,"Ġwire":8219,"Ġtons":8220,"itate":8221,"orse":8222,"Ġhood":8223,"ido":8224,"Ġtrait":8225,"igs":8226,"ĠJack":8227,"raq":8228,"Ġoverhe":8229,"Ġoverse":8230,"Ġbride":8231,"Ġbookstore":8232,"Ġflock":8233,"Ġpajamas":8234,"Ġconfirmed":8235,"Ġdining":8236,"Ġdepos":8237,"apping":8238,"Ġsecure":8239,"Ġhearts":8240,"Ġtrusts":8241,"itches":8242,"hens":8243,"Ġtranslator":8244,"Ġ194":8245,"Ġcurtain":8246,"Ġveter":8247,"ĠFranc":8248,"Ġpulling":8249,"Ġburden":8250,"Ġweakness":8251,"ilipp":8252,"ĠChristianity":8253,"Ġrelief":8254,"Ġdisturb":8255,"Ġlifestyle":8256,"witter":8257,"Ġitems":8258,"Ġclarinet":8259,"Ġprohibited":8260,"11":8261,"Cont":8262,"fight":8263,"rise":8264,"Ġsank":8265,"has":8266,"Ġfry":8267,"Ġanaly":8268,"Ġink":8269,"Ġkitten":8270,"odern":8271,"Ġloaded":8272,"assy":8273,"Ġexposed":8274,"agues":8275,"Ġrifle":8276,"ĠTunis":8277,"ĠOcean":8278,"ĠWill":8279,"Ġconfront":8280,"Ġassert":8281,"Ġsidewalk":8282,"ĠInstagram":8283,"Ġapproved":8284,"Ġbanks":8285,"Ġruled":8286,"Ġbelonged":8287,"Ġobserv":8288,"Ġloser":8289,"Ġdragon":8290,"Ġdeliber":8291,"ĠSea":8292,"Ġcheerful":8293,"Ġtape":8294,"Ġinterpreter":8295,"Ġcustody":8296,"Ġattorney":8297,"Br":8298,"Ivy":8299,"Old":8300,"mers":8301,"incing":8302,"Ġsod":8303,"rep":8304,"Ġdumped":8305,"Ġbom":8306,"Ġcage":8307,"orp":8308,"Ġhen":8309,"Ġrecon":8310,"Ġspark":8311,"Ġclue":8312,"Ġchoo":8313,"obic":8314,"Ġprem":8315,"Ġprey":8316,"Ġovernight":8317,"Ġhopeless":8318,"Ġguilt":8319,"elly":8320,"Ġrecy":8321,"Ġelsewhere":8322,"Ġconcrete":8323,"Ġdefense":8324,"Ġkeyboard":8325,"ĠMrs":8326,"awa":8327,"Ġobserved":8328,"Ġobjective":8329,"Ġcreatures":8330,"Ġfreak":8331,"Ġacquaint":8332,"Ġreveal":8333,"ĠMexican":8334,"Ġvirtue":8335,"Ġoccupied":8336,"ĠAbraham":8337,"Ġpostponed":8338,"Ġcandidate":8339,"Ġingred":8340,"Ġeuros":8341,"Ġtyphoon":8342,"fice":8343,"ini":8344,"Ġsatell":8345,"Ġlouder":8346,"Ġyield":8347,"Ġinqu":8348,"Ġjerk":8349,"ulu":8350,"aste":8351,"asted":8352,"oline":8353,"ĠJupiter":8354,"Ġpee":8355,"ĠMil":8356,"ĠMiss":8357,"Ġpartners":8358,"ĠTe":8359,"ogy":8360,"Ġwinner":8361,"Ġrecall":8362,"ĠHouse":8363,"Ġcooks":8364,"Ġraising":8365,"Ġarguments":8366,"Ġprofit":8367,"iko":8368,"Ġimproving":8369,"iterranean":8370,"Ġflex":8371,"ronic":8372,"Ġfaithful":8373,"Ġscarce":8374,"Ġknocking":8375,"Smoking":8376,"Ġenthusiastic":8377,"ĠHawaii":8378,"Luckily":8379,"ĠJacob":8380,"Jack":8381,"iac":8382,"ta":8383,"inals":8384,"Ġbake":8385,"Ġmand":8386,"Ġfried":8387,"Ġalthough":8388,"ulting":8389,"ĠBill":8390,"quet":8391,"berg":8392,"ĠMom":8393,"ometown":8394,"ĠCould":8395,"oune":8396,"Ġbloss":8397,"Ġbuses":8398,"ĠGeorge":8399,"ĠNA":8400,"Ġcountryside":8401,"Ġdinosaur":8402,"Ġinsist":8403,"Ġlocation":8404,"Ġrespects":8405,"Ġobserve":8406,"Ġislands":8407,"Ġ60":8408,"Marie":8409,"Ġmiracle":8410,"Ġdiseases":8411,"Ġpoisoned":8412,"Ġmagazines":8413,"Ġpronunciation":8414,"Ġbriefcase":8415,"American":8416,"Ġrotten":8417,"Ġaliens":8418,"ĠMediterranean":8419,"keeper":8420,"ebboune":8421,"Cons":8422,"Death":8423,"rous":8424,"Ġlacks":8425,"Ġnerve":8426,"Ġhometown":8427,"Ġhamb":8428,"atis":8429,"Ġjum":8430,"Ġplot":8431,"quar":8432,"ques":8433,"ardon":8434,"ĠJud":8435,"Ġripped":8436,"Ġoverd":8437,"ĠRed":8438,"Ġshave":8439,"Ġmoral":8440,"Ġdriveway":8441,"Ġsunshine":8442,"Ġgrandchildren":8443,"Ġdealt":8444,"Ġprisoners":8445,"oids":8446,"headed":8447,"Ġsatisfact":8448,"Ġenvironmental":8449,"Ġacquainted":8450,"Ġpuzzle":8451,"Ġricher":8452,"Ġinterrupted":8453,"Ġdrowning":8454,"Ġassemb":8455,"Ġhambur":8456,"),":8457,"fit":8458,"ga":8459,"iner":8460,"Ġbol":8461,"Ġbaking":8462,"Ġpissed":8463,"Ġsafer":8464,"chy":8465,"Ġvalley":8466,"Ġexpelled":8467,"Ġlets":8468,"ĠGr":8469,"Ġperf":8470,"Ġfounded":8471,"Ġexamined":8472,"umbling":8473,"Ġtrem":8474,"Ġapprox":8475,"friendly":8476,"Ġconcerns":8477,"Ġdamn":8478,"Ġthankful":8479,"Ġcollecting":8480,"Ġrisky":8481,"Ġcounts":8482,"Ġabandon":8483,"Ġspoiled":8484,"Ġalien":8485,"ĠMinister":8486,"ĠThanks":8487,"Ġterritory":8488,"steps":8489,"cure":8490,"no":8491,"oor":8492,"Ġapt":8493,"Ġwounds":8494,"Ġsip":8495,"Ġbache":8496,"erb":8497,"aro":8498,"Ġpant":8499,"Ġthumb":8500,"Ġseed":8501,"ĠLojban":8502,"Ġflesh":8503,"Ġpawn":8504,"Ġlearnt":8505,"Ġcracked":8506,"Ġcharity":8507,"Ġpresented":8508,"Ġreports":8509,"Ġrenov":8510,"olly":8511,"Ġcultures":8512,"ĠAnge":8513,"Ġurged":8514,"Ġcancelled":8515,"Ġbiology":8516,"Ġvolunteered":8517,"Ġbloom":8518,"Ġintrigued":8519,"Little":8520,"bes":8521,"ipt":8522,"liness":8523,"tr":8524,"uham":8525,"Ġwink":8526,"Ġpoo":8527,"Ġheels":8528,"Ġinappro":8529,"ador":8530,"Ġtrim":8531,"Ġtraged":8532,"hant":8533,"lph":8534,"Ġven":8535,"umes":8536,"Ġexport":8537,"Ġadapt":8538,"Ġhardest":8539,"Ġnumerous":8540,"avid":8541,"Ġcleaner":8542,"Ġmessed":8543,"Ġsweep":8544,"Ġbargain":8545,"viously":8546,"Ġprofile":8547,"Ġheavier":8548,"Ġdestruct":8549,"Ġjudgment":8550,"Ġdisgusted":8551,"Ġteenagers":8552,"Ġcivilization":8553,"Ġneighbours":8554,"Emily":8555,"Ġhorizon":8556,"Ġfundamental":8557,"Ġsymptoms":8558,"Tok":8559,"ki":8560,"overs":8561,"uum":8562,"Ġsam":8563,"oty":8564,"ĠIraq":8565,"acious":8566,"Ġseated":8567,"Ġfemin":8568,"Ġwhoever":8569,"Ġroots":8570,"Ġgrace":8571,"Ġfined":8572,"Ġbusinesses":8573,"Ġfourteen":8574,"Ġsuggestions":8575,"Ġcurtains":8576,"Ġgenerations":8577,"Ġchairman":8578,"hard":8579,"Ġfreaked":8580,"Ġrumors":8581,"Ġpassionate":8582,"ĠPhilipp":8583,"Ġdrummer":8584,"Ġchampagne":8585,"Ġpraise":8586,"Ġstretched":8587,"Ġsacrifice":8588,"Ġunconvinced":8589,"Mat":8590,"bag":8591,"moon":8592,"til":8593,"tles":8594,"Ġwrest":8595,"Ġther":8596,"Ġpump":8597,"Ġlions":8598,"Ġknives":8599,"oos":8600,"ctions":8601,"Ġalright":8602,"aps":8603,"ĠMe":8604,"obe":8605,"ĠEx":8606,"Ġdisorder":8607,"Ġscat":8608,"Ġglance":8609,"Ġcamel":8610,"Ġchased":8611,"Ġrecovery":8612,"Ġconfusing":8613,"Ġartists":8614,"Ġextent":8615,"Ġinstantly":8616,"aiwan":8617,"Ġforeigner":8618,"Ġlawyers":8619,"Ġprojects":8620,"Ġdeparture":8621,"Ġdependable":8622,"Ġwhispered":8623,"Ġcrops":8624,"stein":8625,"Ġadjust":8626,"Ġinsulted":8627,"Ġcomposition":8628,"Ġmechanic":8629,"Ġisolated":8630,"Ġupper":8631,"Ed":8632,"Too":8633,"point":8634,"uh":8635,"Ġtables":8636,"Ġbang":8637,"Ġfits":8638,"encing":8639,"itals":8640,"Ġaspir":8641,"term":8642,"ops":8643,"Ġtracks":8644,"Ġunmar":8645,"Thomas":8646,"ĠFather":8647,"Ġchip":8648,"ittens":8649,"Ġcoats":8650,"Ġdecline":8651,"Ġattacks":8652,"Ġmoments":8653,"umpy":8654,"Ġcurrency":8655,"ĠValentine":8656,"Ġinstall":8657,"Ġ2019":8658,"Ġcalend":8659,"Ġguitarist":8660,"Ġlowered":8661,"Ġamazed":8662,"Ġkilograms":8663,"coat":8664,"Ġdelivery":8665,"Ġpraised":8666,"Close":8667,"Ġinhabit":8668,"Ġtren":8669,"Ġtoes":8670,"Ġincon":8671,"keys":8672,"storm":8673,"Ġtrous":8674,"ĠAd":8675,"osing":8676,"Ġcomposed":8677,"Ġscholar":8678,"ĠTwitter":8679,"Ġpersons":8680,"Ġfrank":8681,"Ġhunt":8682,"Ġskate":8683,"Ġdepth":8684,"Ġbusinessman":8685,"Ġexplaining":8686,"Ġabsurd":8687,"Ġtestify":8688,"Ġpasta":8689,"Ġparan":8690,"Ġvacuum":8691,"Ġapproval":8692,"Ġbankrupt":8693,"uriosity":8694,"Ġpropose":8695,"ilingual":8696,"Ġpairs":8697,"Ġdelicate":8698,"Ġsensible":8699,"Ġannounce":8700,"Ġdeceived":8701,"Ġdecorated":8702,"Ġcollapse":8703,"Ġcoughing":8704,"Ġsacrific":8705,"Ġoxygen":8706,"ĠSwedish":8707,"Ġhumiliated":8708,"Australia":8709,"Ġbartender":8710,"Hun":8711,"ao":8712,"ext":8713,"lines":8714,"Ġdwell":8715,"Ġtheat":8716,"Ġpushing":8717,"Ġstiff":8718,"outs":8719,"uting":8720,"artment":8721,"ĠAustralian":8722,"Ġappla":8723,"Ġmatches":8724,"Ġshovel":8725,"Ġbold":8726,"Ġquestioned":8727,"Ġhumid":8728,"rices":8729,"Ġdistinct":8730,"Ġfootsteps":8731,"Ġconsideration":8732,"Ġofficers":8733,"ergart":8734,"Ġvolunteers":8735,"Ġrubbed":8736,"Ġquarrel":8737,"Ġathlete":8738,"Ġinfected":8739,"Ġelementary":8740,"Ġimmigrants":8741,"Ġbutterfly":8742,"Ġluxury":8743,"Ġoverseas":8744,"Ġwives":8745,"Ġwolves":8746,"Ġfist":8747,"Ġly":8748,"Ġnaught":8749,"Ġinev":8750,"abled":8751,"Ġseeking":8752,"Ġfeatures":8753,"ĠJul":8754,"Ġexports":8755,"Ġrivers":8756,"Ġadorable":8757,"Ġbrut":8758,"Ġprint":8759,"Ġbush":8760,"Ġmole":8761,"Ġstring":8762,"ologists":8763,"Ġtrig":8764,"Ġfreezing":8765,"Ġinspir":8766,"Ġpractically":8767,"Ġbehaved":8768,"aware":8769,"Ġcreating":8770,"Ġcelebrating":8771,"Ġharmful":8772,"Ġdragged":8773,"Ġstatus":8774,"Ġdomestic":8775,"Ġblonde":8776,"Ġdevastated":8777,"Ġfussy":8778,"Light":8779,"Mike":8780,"Out":8781,"Pass":8782,"bish":8783,"zes":8784,"Ġdull":8785,"Ġbum":8786,"Ġolive":8787,"ĠIran":8788,"ooked":8789,"Ġunne":8790,"Ġmansion":8791,"ĠSanta":8792,"berries":8793,"Ġripe":8794,"Ġcompre":8795,"Ġharb":8796,"ĠGal":8797,"ĠDr":8798,"Ġslave":8799,"Ġregions":8800,"Ġexcuses":8801,"Ġconvincing":8802,"Ġmoder":8803,"Ġtasty":8804,"Ġdiab":8805,"lights":8806,"Ġavoiding":8807,"Ġcustoms":8808,"Ġdetermine":8809,"Ġchickens":8810,"Ġsacred":8811,"Ġhistorical":8812,"ĠTaninna":8813,"ĠFinnish":8814,"Ġtransferred":8815,"Ġvolcano":8816,"Ġpistol":8817,"uhammad":8818,"Long":8819,"sha":8820,"tail":8821,"Ġwars":8822,"Ġwicked":8823,"Ġfries":8824,"Ġneut":8825,"entially":8826,"Ġshine":8827,"ifying":8828,"Ġusers":8829,"umi":8830,"ĠSwitzerland":8831,"ĠJoseph":8832,"Ġchim":8833,"Ġspelling":8834,"Ġbusier":8835,"Ġchef":8836,"Ġmeteor":8837,"liest":8838,"Ġframe":8839,"Ġbeds":8840,"Ġsushi":8841,"Ġgrandma":8842,"Ġlaughs":8843,"Ġzone":8844,"Ġrelationships":8845,"Ġmanagement":8846,"Ġwhisper":8847,"Ġbranches":8848,"ĠScot":8849,"Better":8850,"Ġtherapist":8851,"hearted":8852,"Ġdistinguish":8853,"Ġwelc":8854,"Ġcalendar":8855,"Music":8856,"Promise":8857,"Prices":8858,"bled":8859,"eff":8860,"giving":8861,"pret":8862,"uate":8863,"Ġbin":8864,"Ġcot":8865,"Ġfountain":8866,"orters":8867,"Ġsew":8868,"Ġabd":8869,"Ġtricked":8870,"ander":8871,"lav":8872,"Ġcovers":8873,"Ġmoons":8874,"Ġsurgeon":8875,"Ġcontem":8876,"Ġkindergart":8877,"Ġsnowed":8878,"Stand":8879,"Ġsixth":8880,"Always":8881,"Ġcomplaint":8882,"Ġmainly":8883,"Ġsexy":8884,"Ġbeneath":8885,"ortunately":8886,"Ġphysically":8887,"Ġhallway":8888,"Ġopposition":8889,"Ġfantasy":8890,"Really":8891,"Learn":8892,"Ġpierced":8893,"Ġobliged":8894,"Ġthoroughly":8895,"Ġfierce":8896,"Ġtrousers":8897,"Ġunnecess":8898,"Co":8899,"Four":8900,"fess":8901,"nis":8902,"pher":8903,"uare":8904,"Ġtale":8905,"Ġpets":8906,"Ġhockey":8907,"usions":8908,"verted":8909,"icies":8910,"alas":8911,"Ġathe":8912,"Dogs":8913,"igen":8914,"ĠMal":8915,"ĠMart":8916,"Ġimages":8917,"Ġsmiles":8918,"Ġunderw":8919,"issions":8920,"ĠPona":8921,"Ġpoly":8922,"Ġaccounts":8923,"Ġdrift":8924,"Ġhatred":8925,"Ġstandards":8926,"Ġreceiving":8927,"Ġballoon":8928,"Ġsteam":8929,"Ġsurviv":8930,"Ġholes":8931,"Ġstarving":8932,"loe":8933,"ijing":8934,"Ġnationality":8935,"Ġcontrary":8936,"Ġmethods":8937,"Ġdye":8938,"Ġlifetime":8939,"Ġrichest":8940,"Human":8941,"Ġoccasionally":8942,"sticks":8943,"Ġresidents":8944,"four":8945,"Ġtub":8946,"Ġcos":8947,"ingly":8948,"othes":8949,"adium":8950,"Ġrank":8951,"Ġleak":8952,"Ġexten":8953,"Ġunit":8954,"olite":8955,"Ġcompare":8956,"Ġpolicies":8957,"Ġrefuses":8958,"Ġinterfe":8959,"workers":8960,"ĠStar":8961,"grand":8962,"Ġtemporary":8963,"Ġbaggage":8964,"Ġ2015":8965,"Ġsteel":8966,"Ġreligions":8967,"Ġhonestly":8968,"Ġ--":8969,"Mrs":8970,"Ġ2006":8971,"Ġ80":8972,"Ġalcoholic":8973,"Ġhoneymoon":8974,"Ġmushrooms":8975,"Ġgullible":8976,"BI":8977,"rical":8978,"ĠThese":8979,"Ġted":8980,"Ġwool":8981,"Ġbak":8982,"Ġgest":8983,"Ġunion":8984,"atered":8985,"Ġvine":8986,"uman":8987,"ĠJones":8988,"ĠMother":8989,"agn":8990,"Ġaccus":8991,"Ġcrushed":8992,"ĠHok":8993,"Ġtruthful":8994,"Ġsmallest":8995,"Ġsung":8996,"Ġcapacity":8997,"Ġreduced":8998,"Ġleaf":8999,"Ġcamer":9000,"Ġbeginner":9001,"Ġcatching":9002,"Ġcomplains":9003,"Ġtouching":9004,"Ġdevice":9005,"Ġmachines":9006,"Ġeighty":9007,"Ġtorto":9008,"Ġsources":9009,"Ġsplend":9010,"Ġspotted":9011,"Ġdispos":9012,"Ġregarded":9013,"Ġremarks":9014,"Ġoutdoors":9015,"Ġdisrespectful":9016,"Ġpenalty":9017,"ĠColumbus":9018,"cow":9019,"gir":9020,"low":9021,"lia":9022,"long":9023,"uild":9024,"oust":9025,"erus":9026,"ancing":9027,"eters":9028,"Ġspaces":9029,"ola":9030,"ieves":9031,"ĠMic":9032,"ogen":9033,"Ġaccord":9034,"Ġattending":9035,"Ġdesper":9036,"ferent":9037,"Ġacce":9038,"Ġobedient":9039,"Ġforgetting":9040,"Ġfilth":9041,"Ġsufficient":9042,"Ġtreats":9043,"Ġbullse":9044,"Ġforests":9045,"Transl":9046,"Ġdishonest":9047,"ĠIsraeli":9048,"Ġsympathy":9049,"Ġracket":9050,"Ġtransportation":9051,"ĠPolish":9052,"Ġfolk":9053,"Ġreckless":9054,"Ġuneasy":9055,"Ġcommercial":9056,"Ġexchanged":9057,"Great":9058,"iable":9059,"Ġdense":9060,"onia":9061,"Ġmice":9062,"Ġpony":9063,"Ġthread":9064,"roc":9065,"uten":9066,"ilst":9067,"Ġoutra":9068,"ĠBank":9069,"Ġcoma":9070,"Ġvia":9071,"ĠCookie":9072,"Ġamusing":9073,"Ġscri":9074,"Ġimpolite":9075,"Ġowners":9076,"Ġopens":9077,"Ġskip":9078,"Ġcolder":9079,"Ġtrustworthy":9080,"Ġlegend":9081,"Ġhalfway":9082,"Ġdivers":9083,"Ġseatb":9084,"Ġofficially":9085,"Ġvegetable":9086,"Ġidentified":9087,"force":9088,"Ġdyed":9089,"Ġmisunderstanding":9090,"Guess":9091,"ĠPalestinians":9092,"Obviously":9093,"Ġlandscape":9094,"ĠFrancis":9095,"Due":9096,"George":9097,"Hal":9098,"Up":9099,"eem":9100,"ÃŃ":9101,"ĠDid":9102,"inging":9103,"Ġgently":9104,"otes":9105,"ushes":9106,"Ġash":9107,"Ġalert":9108,"Ġunin":9109,"Ġunaware":9110,"Ġfeared":9111,"Ġproc":9112,"Ġnoble":9113,"Ġclient":9114,"Ġbuzz":9115,"Ġflame":9116,"Ġwaitress":9117,"Ġimper":9118,"Ġshaved":9119,"Ġelim":9120,"Ġboiling":9121,"Ġentit":9122,"ĠWould":9123,"Ġbeloved":9124,"Ġbehaving":9125,"Ġphotographer":9126,"ousands":9127,"Ġdeserted":9128,"Ġthreatening":9129,"Ġkingdom":9130,"Ġdespise":9131,"Ġtemptation":9132,"Ġbowling":9133,"Ġspiritual":9134,"Ġchampion":9135,"Ġfrag":9136,"Ġabsorbed":9137,"Ġdisappointment":9138,"Ġastonished":9139,"Ġsemester":9140,"Ġtragedy":9141,"Ġunmarried":9142,"Ġkindergarten":9143,"bi":9144,"lers":9145,"ĠWho":9146,"Ġtender":9147,"Ġcord":9148,"Ġfame":9149,"acha":9150,"ille":9151,"celand":9152,"Ġunple":9153,"olars":9154,"ĠMount":9155,"Ġlasts":9156,"Ġdisob":9157,"Ġblink":9158,"Ġ22":9159,"ĠNative":9160,"Ġslip":9161,"Ġforgave":9162,"Ġadmired":9163,"Ġassure":9164,"ĠState":9165,"Ġcontinent":9166,"Another":9167,"Ġcommunities":9168,"Ġcompete":9169,"Ġhousing":9170,"Ġreluctantly":9171,"Ġpredicted":9172,"Ġ90":9173,"Ġinfection":9174,"guard":9175,"ĠAmaz":9176,"Ġphrases":9177,"Ġwhistle":9178,"Germany":9179,"ĠRomans":9180,"Bad":9181,"Mark":9182,"col":9183,"dish":9184,"person":9185,"Ã¡":9186,"Ġdign":9187,"Ġboun":9188,"Ġpens":9189,"Ġknight":9190,"ĠAir":9191,"Ġunfortunately":9192,"Ġmankind":9193,"Ġeveryday":9194,"bert":9195,"Ġawait":9196,"Ġreserved":9197,"Ġconspir":9198,"Ġthirties":9199,"Ġtrips":9200,"Ġcolleagues":9201,"Ġhotels":9202,"Ġcontrolled":9203,"Ġstuffed":9204,"Ġoptim":9205,"Ġ500":9206,"Ġcreature":9207,"Ġcloudy":9208,"kaido":9209,"Ġsurfing":9210,"Ġbiased":9211,"Ġpencils":9212,"Ġblocks":9213,"Ġpalace":9214,"Ġdrums":9215,"Ġexecuted":9216,"Ġathletic":9217,"Ġinappropriate":9218,"Ġinterfere":9219,"Ġunpleasant":9220,"DP":9221,"fying":9222,"rum":9223,"Ġsorts":9224,"Ġmax":9225,"orious":9226,"aser":9227,"Ġrelease":9228,"Ġneedle":9229,"Ġupside":9230,"udes":9231,"Ġbacks":9232,"Ġexpense":9233,"agic":9234,"Ġscored":9235,"Ġbluff":9236,"angle":9237,"Ġdiffer":9238,"peare":9239,"ĠHer":9240,"ficial":9241,"Ġconsiders":9242,"Ġasshole":9243,"Ġaircraft":9244,"Ġdepri":9245,"Ġaddressed":9246,"Ġtremb":9247,"Ġsecondary":9248,"Ġacceptable":9249,"Ġsilk":9250,"ganized":9251,"Until":9252,"Ġprograms":9253,"Ġchopped":9254,"Ġfroze":9255,"Ġunbelie":9256,"Ġterrorist":9257,"Ġpurchase":9258,"respons":9259,"Ġreferred":9260,"elieve":9261,"ĠVenus":9262,"ĠNether":9263,"Ġstranded":9264,"igenous":9265,"Fortunately":9266,"Rep":9267,"Ten":9268,"Wash":9269,"oard":9270,"inent":9271,"Ġshat":9272,"anic":9273,"Ġfainted":9274,"oral":9275,"Ġheather":9276,"Ġstadium":9277,"oples":9278,"ĠBob":9279,"Ġlocks":9280,"Ġclown":9281,"ĠAustria":9282,"Donald":9283,"Ġattent":9284,"kespeare":9285,"sels":9286,"Ġpayment":9287,"Ġtransm":9288,"Ġsubm":9289,"Ġsignal":9290,"ĠGermans":9291,"Ġreceipt":9292,"Ġpoorly":9293,"Ġworthy":9294,"Ġcorrected":9295,"Ġmarrying":9296,"Ġloses":9297,"Ġshark":9298,"Ġemployee":9299,"Ġwaist":9300,"ĠDania":9301,"Ġrabbits":9302,"Ġindividuals":9303,"Ġsituations":9304,"Ġgambling":9305,"Ġsustain":9306,"Ġtwentieth":9307,"10":9308,"Earth":9309,"President":9310,"bble":9311,"dge":9312,"gor":9313,"power":9314,"Ġic":9315,"Ġaster":9316,"Ġlid":9317,"Ġowed":9318,"Ġthieves":9319,"ayer":9320,"Ġrew":9321,"ado":9322,"Ġseized":9323,"Ġsheets":9324,"ĠBen":9325,"Thousands":9326,"Ġhelpless":9327,"ĠSan":9328,"ĠLulu":9329,"ĠFBI":9330,"berry":9331,"Ġeater":9332,"Ġovert":9333,"Ġkeen":9334,"Ġactual":9335,"Ġregards":9336,"Ġelements":9337,"aza":9338,"Ġdeadline":9339,"Ġstrongest":9340,"ĠInter":9341,"Ġcontrovers":9342,"Ġdenies":9343,"ommod":9344,"Ġimmediate":9345,"Ġradical":9346,"Ġprivile":9347,"Ġbanjo":9348,"Ġdespised":9349,"Ġdespair":9350,"Ġastronomy":9351,"aphnis":9352,"Ġphilosopher":9353,"Ġbeliefs":9354,"Ġancestors":9355,"Ġeternal":9356,"ĠClaus":9357,"ĠTunisia":9358,"Ġwelcomed":9359,"Ġcotton":9360,"Mercury":9361,"Very":9362,"och":9363,"win":9364,"Ġward":9365,"Ġtheft":9366,"Ġdolph":9367,"Ġstim":9368,"Ġteasing":9369,"ilip":9370,"anny":9371,"oli":9372,"oln":9373,"Ġvom":9374,"Ġcrap":9375,"Ġinvention":9376,"Ġwindy":9377,"Ġadmir":9378,"Ġdressing":9379,"Ġadding":9380,"Ġdreamt":9381,"isms":9382,"Ġlanding":9383,"atural":9384,"Ġfiles":9385,"Ġexploded":9386,"Ġpreferred":9387,"Ġsubjects":9388,"Ġbesides":9389,"Ġseverely":9390,"ĠOlympic":9391,"Ġmentally":9392,"Ġgunshots":9393,"Ġrefugees":9394,"Ġanalysis":9395,"Ġdiagnosed":9396,"Ġnickname":9397,"ĠCongress":9398,"Ġperfume":9399,"Half":9400,"Rel":9401,"Talk":9402,"War":9403,"bies":9404,"mel":9405,"zens":9406,"Ġ.":9407,"Ġwage":9408,"Ġwatered":9409,"ashes":9410,"Ġheating":9411,"Ġbeaches":9412,"acco":9413,"ifferent":9414,"geons":9415,"Ġtimid":9416,"ulating":9417,"ulsive":9418,"ouses":9419,"ummer":9420,"Ġbuff":9421,"Ġadap":9422,"iana":9423,"Ġgrain":9424,"Ġswallow":9425,"ĠTaiwan":9426,"ĠJohnson":9427,"Ġacade":9428,"Ġinches":9429,"Ġinterpret":9430,"Ġcharm":9431,"Ġextended":9432,"Ġbarber":9433,"Ġelections":9434,"Ġrides":9435,"Choose":9436,"isticated":9437,"boat":9438,"Ġhonesty":9439,"Ġfatal":9440,"Ġflights":9441,"Ġspreading":9442,"ĠBeijing":9443,"ĠUSA":9444,"ĠGreece":9445,"Ġresource":9446,"Ġholy":9447,"Ġ1970":9448,"Ġethnic":9449,"Ġagriculture":9450,"Ġapproximately":9451,"Ġfilthy":9452,"Pa":9453,"Ġbumped":9454,"Ġoak":9455,"Ġcane":9456,"Ġabund":9457,"olving":9458,"Ġhappiest":9459,"ĠSup":9460,"Ġoffend":9461,"Ġamounts":9462,"Ġhandy":9463,"ionship":9464,"Ġrested":9465,"soever":9466,"Ġmedal":9467,"Ġ195":9468,"Ġflows":9469,"Ġjoint":9470,"Ġjoining":9471,"Ġ2014":9472,"Ġbossy":9473,"ommon":9474,"Ġprovides":9475,"Exp":9476,"Ġvolume":9477,"ĠMarika":9478,"Ġneglected":9479,"Ġinflation":9480,"Ġidiots":9481,"Ġaccompany":9482,"Ġgrocer":9483,"kerchief":9484,"Ġnetwork":9485,"Ġdismissed":9486,"Ġassignment":9487,"Frank":9488,"Ġprecisely":9489,"Ġdiligent":9490,"Ġgalaxy":9491,"Ġbachelor":9492,"Ġinhabitants":9493,"Ġcameras":9494,"Boy":9495,"Linda":9496,"gic":9497,"part":9498,"Ġtact":9499,"Ġsought":9500,"Ġmasks":9501,"Ġcuriosity":9502,"Ġhal":9503,"ĠIr":9504,"lying":9505,"hang":9506,"Ġoutbreak":9507,"Ġvague":9508,"Ġpeak":9509,"Ġpeoples":9510,"ĠMike":9511,"Ġamuse":9512,"Ġbooked":9513,"ipes":9514,"ĠGoogle":9515,"ubs":9516,"Ġskilled":9517,"Ġrestrain":9518,"obert":9519,"Ġvegan":9520,"Ġpractices":9521,"Ġexplo":9522,"Ġbathing":9523,"Ġembassy":9524,"Ġmillionaire":9525,"Exper":9526,"Ġmuseums":9527,"Ġcriticized":9528,"Ġromance":9529,"Ġfilling":9530,"Ġcombination":9531,"Ġconceal":9532,"Ġpigs":9533,"Ġpalm":9534,"Ġcroc":9535,"ĠBlack":9536,"ĠMoscow":9537,"Ġconstitution":9538,"Ġswallowed":9539,"Ġburglar":9540,"Ġfossil":9541,"Ġtherm":9542,"Ġnaughty":9543,"Ġunnecessary":9544,"Change":9545,"Food":9546,"France":9547,"Grand":9548,"Nice":9549,"Peter":9550,"aac":9551,"food":9552,"eria":9553,"ora":9554,"ala":9555,"alid":9556,"rill":9557,"ads":9558,"Ġatomic":9559,"abs":9560,"Ġdeals":9561,"ested":9562,"Ġvamp":9563,"Ġmanual":9564,"Ġagency":9565,"ĠMark":9566,"Ġwrist":9567,"Ġblown":9568,"Ġflames":9569,"Ġhandkerchief":9570,"Ġperspect":9571,"Ġfinishing":9572,"Ġaccommod":9573,"ĠChloe":9574,"Ġminer":9575,"Ġkisses":9576,"Ġcuts":9577,"Ġlandl":9578,"Ġcooperate":9579,"Ġrubber":9580,"Ġunbear":9581,"Ġcolours":9582,"Ġstretch":9583,"Ġestablish":9584,"Ġelephants":9585,"Ġpeanut":9586,"Ġspinach":9587,"Ġhandcuffed":9588,"Friend":9589,"Other":9590,"Par":9591,"Pay":9592,"oqu":9593,"inction":9594,"Ġwing":9595,"icious":9596,"cho":9597,"Ġplun":9598,"Ġunaf":9599,"Ġunfortun":9600,"ĠBec":9601,"obia":9602,"Ġgrat":9603,"Ġchildish":9604,"ĠRic":9605,"Ġsharing":9606,"ĠNe":9607,"ĠNaz":9608,"Ġelbow":9609,"Ġresting":9610,"ĠHot":9611,"Ġquestioning":9612,"Ġeleg":9613,"brush":9614,"Ġindo":9615,"Ġgarlic":9616,"Ġpropag":9617,"Ġexisted":9618,"Ġestimate":9619,"alem":9620,"Ġidentical":9621,"Ġpregnancy":9622,"Ġinfluential":9623,"Ġpoisonous":9624,"America":9625,"Phone":9626,"Ġreforms":9627,"ĠiP":9628,"aborate":9629,"Ġcompliment":9630,"Ġtraum":9631,"ĠNASA":9632,"ĠPhilippines":9633,"Ġunafraid":9634,"Paul":9635,"Quit":9636,"Ġtide":9637,"inese":9638,"Ġwages":9639,"ouch":9640,"Ġdub":9641,"Ġdared":9642,"isible":9643,"Ġcert":9644,"arin":9645,"Ġfert":9646,"Ġpy":9647,"Ġinner":9648,"atical":9649,"icate":9650,"Ġreign":9651,"Ġcanoe":9652,"Ġabilities":9653,"Ġabusive":9654,"Weren":9655,"ĠAlex":9656,"Ġplumber":9657,"igning":9658,"Ġlovers":9659,"Ġquitting":9660,"agle":9661,"Ġoverlook":9662,"Ġscholars":9663,"Ġresort":9664,"ĠPeter":9665,"Ġshares":9666,"Ġheadphones":9667,"Ġdiscrim":9668,"Ġtransition":9669,"Ġsunrise":9670,"Ġartistic":9671,"Ġgrandson":9672,"Ġteams":9673,"Ġillusion":9674,"Ġformal":9675,"Ġturkey":9676,"Ġdesigner":9677,"Ġslightest":9678,"nament":9679,"Ġcompanion":9680,"Ġmagnetic":9681,"incoln":9682,"Ġaimed":9683,"Speaking":9684,"Ġcockro":9685,"Ġtherapy":9686,"Ġinstruments":9687,"Ġinherited":9688,"Ġacknowled":9689,"Ġbracelet":9690,"Ġincompet":9691,"ĠCentral":9692,"Ġtossed":9693,"ĠHokkaido":9694,"Ġunfortunate":9695,"Europe":9696,"Words":9697,"com":9698,"dri":9699,"inations":9700,"hael":9701,"Ġfires":9702,"llas":9703,"see":9704,"Ġsaus":9705,"Ġspray":9706,"reeze":9707,"udent":9708,"Ġchores":9709,"Ġcompar":9710,"Ġdisli":9711,"Ġunderground":9712,"Ġgraph":9713,"Ġgrumpy":9714,"Ġflute":9715,"ĠGen":9716,"ĠOb":9717,"Ġsingers":9718,"Ġmature":9719,"Ġslower":9720,"Ġrunner":9721,"Ġconfusion":9722,"Ġsummit":9723,"Ġbehold":9724,"Ġshortage":9725,"Ġshallow":9726,"Ġcopies":9727,"Ġequally":9728,"Ġemphas":9729,"Ġcriticize":9730,"Ġfrost":9731,"Ġresponded":9732,"Ġmelted":9733,"Ġpassenger":9734,"Ġ1962":9735,"Ġbarefoot":9736,"Christmas":9737,"Ġnicer":9738,"Ġchopsticks":9739,"Ġinevitable":9740,"ĠBecause":9741,".,":9742,"Ac":9743,"Ali":9744,"De":9745,"Much":9746,"Sa":9747,"Ġbon":9748,"arly":9749,"Ġheated":9750,"Ġweighed":9751,"Ġtex":9752,"Ġpled":9753,"Ġfee":9754,"Ġintr":9755,"ĠMatt":9756,"Ġrocket":9757,"agalog":9758,"Ġsmashed":9759,"action":9760,"Ġtwisted":9761,"Ġperce":9762,"ocated":9763,"Ġhunter":9764,"Ġprompt":9765,"Ġslim":9766,"Ġpreserve":9767,"Ġfreely":9768,"Ġforgets":9769,"Ġinstalled":9770,"Ġdeeper":9771,"Ġirrespons":9772,"Ġsexually":9773,"Ġspecialist":9774,"Ġbelongings":9775,"Ġcowboy":9776,"Ġinternal":9777,"Ġtechnical":9778,"Ġslaves":9779,"ĠPrime":9780,"screen":9781,"Ġtorture":9782,"Students":9783,"Ġastronauts":9784,"Ġgenuinely":9785,"ĠYidir":9786,"onymous":9787,"Ġsurrender":9788,"Ġresearchers":9789,"Ġbatteries":9790,"Ġsoda":9791,"Ġinconven":9792,"ĠScotland":9793,".'":9794,"Nuja":9795,"iam":9796,"rison":9797,"tell":9798,"Ġx":9799,"Ġtin":9800,"Ġmast":9801,"Ġcore":9802,"aning":9803,"Ġfucked":9804,"lly":9805,"Ġstain":9806,"Ġstake":9807,"Ġvit":9808,"ĠCome":9809,"Ġsmok":9810,"Ġscr":9811,"Ġblushed":9812,"Israel":9813,"Ġswept":9814,"ĠGDP":9815,"Ġdecade":9816,"Ġremar":9817,"ogue":9818,"Ġmarked":9819,"ĠDep":9820,"Ġlaunch":9821,"Ġboiled":9822,"ugs":9823,"ĠWay":9824,"ĠWith":9825,"itcher":9826,"Ġhealthier":9827,"Ġillust":9828,"class":9829,"Ġdiversity":9830,"Ġpizzeria":9831,"Ġcells":9832,"Ġincludes":9833,"Ġsurround":9834,"Ġpolitely":9835,"Ġvanished":9836,"Ġmagnific":9837,"Ġchatting":9838,"Ġconceited":9839,"Ġliberal":9840,"Ġincreasingly":9841,"Ġlinguistic":9842,"Ġvaccine":9843,"Ġbabysitter":9844,"Ġscenery":9845,"Ġcompassion":9846,"Mill":9847,"Mum":9848,"iased":9849,"nox":9850,"range":9851,"uis":9852,"uised":9853,"zard":9854,"Ġom":9855,"Ġtrop":9856,"Ġton":9857,"Ġmour":9858,"Ġpile":9859,"Ġgra":9860,"Ġrefe":9861,"Ġshif":9862,"Ġplus":9863,"Ġdeck":9864,"Ġouter":9865,"inder":9866,"osh":9867,"osure":9868,"Ġproced":9869,"Ġproport":9870,"Ġbutcher":9871,"Ġoffices":9872,"ĠRiver":9873,"Ġmarine":9874,"Ġplanes":9875,"conf":9876,"Ġwatermel":9877,"Ġserves":9878,"beat":9879,"Ġterrific":9880,"Anne":9881,"Ġbillions":9882,"Ġsteep":9883,"Ġdestiny":9884,"Ġunsure":9885,"Ġunbiased":9886,"Polit":9887,"Between":9888,"Ġwhale":9889,"Ġcasual":9890,"Ġgravity":9891,"Ġconcerts":9892,"Avoid":9893,"Ġregistered":9894,"Ġparadise":9895,"Ġbakery":9896,"Ġtortoise":9897,"Ġtexts":9898,"Follow":9899,"Had":9900,"Hist":9901,"Pick":9902,"lon":9903,"Ġbla":9904,"ller":9905,"Ġreass":9906,"Ġmelt":9907,"irs":9908,"Ġcann":9909,"opes":9910,"Ġplum":9911,"aki":9912,"akers":9913,"ours":9914,"Ġinte":9915,"ĠEU":9916,"Ġprote":9917,"Ġglory":9918,"ĠPri":9919,"Ġboil":9920,"Ġobnox":9921,"Ġconfron":9922,"ricane":9923,"Ġannual":9924,"Ġsteady":9925,"Ġsticks":9926,"Ġverge":9927,"Ġimprovement":9928,"Ġoperate":9929,"Ġdigital":9930,"Ġcooperation":9931,"Reading":9932,"Ġgifted":9933,"Ġunemployment":9934,"Ġepis":9935,"Ġbroadcast":9936,"Ġpriority":9937,"Ġstroke":9938,"ĠSweden":9939,"Ġbacon":9940,"Ġtidy":9941,"Ġstingy":9942,"Ġpostcard":9943,"Ġprejudiced":9944,"Ġdisorganized":9945,"Ġninety":9946,"Ġparanoid":9947,"Ġbullseye":9948,"Ġentitled":9949,"Kate":9950,"Run":9951,"Sleep":9952,"Spring":9953,"bian":9954,"bell":9955,"cers":9956,"nuts":9957,"uke":9958,"Ġicy":9959,"inity":9960,"Ġbisc":9961,"anch":9962,"Ġanime":9963,"amen":9964,"Ġstare":9965,"Ġmyth":9966,"ifully":9967,"Ġjelly":9968,"Ġteased":9969,"Ġsober":9970,"Ġoutstanding":9971,"Ġvib":9972,"Ġbrid":9973,"Ġpartly":9974,"ĠTony":9975,"Ġsurvey":9976,"Ġkindly":9977,"wegian":9978,"Ġremembering":9979,"Ġmuscles":9980,"Ġcaps":9981,"Ġsolving":9982,"ĠStation":9983,"Ġillum":9984,"Ġdivine":9985,"Ġfools":9986,"Ġbehalf":9987,"Ġgraduation":9988,"Ġoccas":9989,"cript":9990,"Ġdestro":9991,"iterate":9992,"Ġpresidential":9993,"Ġorganic":9994,"Ġsoftly":9995,"rogen":9996,"Ġduties":9997,"Ġlabel":9998,"Kabyle":9999}
