#version: 0.2
Ġ t
h e
Ġ a
i n
Ġ w
Ġ s
o u
h a
r e
o m
Ġt o
Ġ d
i s
o n
Ġt he
T om
Ġ b
e r
Ġ m
e d
ha t
Ġ c
in g
a r
a n
Ġ f
e n
Ġ l
Ġ y
i t
l l
Ġt hat
o r
' t
Ġ p
Ġy ou
a s
e s
Ġ g
Ġ he
Ġ n
Ġ o
Ġa n
Ġ h
i d
Ġ ha
Ġ is
Ġd o
v e
Ġ in
Ġb e
a t
Ġt h
o w
l d
a y
Ġo f
ar y
o t
Ġ Tom
M ary
Ġw as
u s
l e
' s
Ġan d
e t
Ġ e
Ġ I
i m
v er
Ġ k
T he
i c
Ġ Mary
g h
a m
Ġ on
a l
Ġ re
Ġs t
ou ld
Ġm e
Ġw e
r i
Ġg o
Ġf or
k e
Ġl i
gh t
Ġk n
l y
s t
Ġn e
an t
Ġd id
a d
a c
en t
Ġ it
H e
s e
Ġha ve
ou t
o o
it h
Ġs a
Ġkn ow
u n
i ll
Ġw ith
r o
i on
i r
c h
u t
Ġd on
Ġh is
in k
Ġw ant
a ll
Ġa re
Ġn ot
Ġa s
he r
om e
Ġsa id
ver y
am i
u r
Ġhe r
Ġth ink
Ġa t
Y ou
Ġc an
Ġdid n
Ġs e
t er
Ġs h
Ġth is
p p
S ami
us t
Ġs he
Ġa b
Ġm y
W e
Ġha s
Ġli ke
Ġw h
o re
Ġh im
i f
c e
c t
' m
S he
h ing
on e
o p
o d
a in
Ġthe y
Ġw hat
oo k
Ġ j
I t
Ġ us
Ġyou r
Ġs u
Ġ r
Ġw or
Ġan y
Ġt e
Ġt r
Ġ A
re n
o st
en d
i l
all y
Ġa l
Ġha d
u p
Ġs o
Ġw ould
Ġp l
Ġw ill
Ġl e
a k
ha n
g e
Ġne ed
r om
Ġgo ing
Ġs p
Ġab out
Ġdo es
ou ght
re d
n d
Ġt im
a ke
a b
Ġa ll
Ġg et
Ġto ld
Ġd e
i ght
u l
Ġw he
Ġe x
Ġ un
' re
ar t
i a
Ġ out
Ġ B
es t
The y
' ll
in d
Ġb y
' ve
Ġwe re
Ġ very
Ġ up
Ġse e
Ġtim e
Ġsh ould
ou r
on g
an n
er s
Ġon e
Ġf rom
Ġc on
ay s
k ed
o s
Ġis n
as t
an d
l f
q u
is t
Ġc ould
Ġhe re
at e
W hat
T h
o l
es s
i ve
at ion
f e
Ġf e
Ġp ro
ac k
Ġbe en
r y
Ġc om
am e
d ay
l p
W h
D o
i e
Ġhe lp
' d
Ġdoes n
Ġth ought
a ve
Ġb ut
g er
Ġwh o
l a
Ġ v
ic e
d er
re s
Th is
Ġw on
i g
Ġl ook
Ġthe re
Ġin t
ou s
e p
Ġre ally
u m
Ġm an
ann i
Y anni
Ġa g
Ġgo od
Ġto o
Ġn o
Ġe very
id e
Ġha pp
se lf
Ġs ome
Ġ if
Ġne ver
Ġthe m
Ġl o
Ġj ust
t hing
ou nd
re e
Ġdo ing
or t
e l
v en
Ġ S
Ġt han
al k
w n
Ġ L
Ġ F
Ġte ll
Ġwor k
i ri
Ġg ot
Ġa r
a p
Z iri
H ow
ar d
Ġ or
is h
u d
T hat
b le
ay la
Ġm ore
e ar
Ġwhe n
Ġ J
t h
Ġc l
Ġc h
v es
Ġa f
Ġ qu
b er
c k
ost on
Ġp e
ĠB oston
e ct
r ow
Ġ M
Ġ en
Ġn ow
u ch
it t
Ġ "
Ġb ack
v ed
t her
e w
Ġh ow
om et
Ġm uch
it e
Ġh ome
Ġsp e
Ġthe ir
Ġs ay
r a
The re
op le
as s
Ġ ro
ot her
Ġst ill
Ġc o
Ġof f
Ġwant ed
W he
Ġwas n
Ġb u
Wh y
v ing
as e
in e
Ġex p
he d
a re
Ġc ar
l ger
ri end
a g
a ge
it y
ou gh
ri ed
Ġ ri
Ġpe ople
Ġ C
Ġt alk
Ġon ly
Ġs omet
M y
ac e
i ld
Ġy ear
ic k
oo l
Ġbe t
Ġl ong
Ġhapp en
Ġe at
r al
ĠL ayla
ren ch
Ġc ome
Ġw r
Ġth ing
Ġag ain
od y
Ġkn ew
u re
Ġbe c
ĠF rench
oo d
o y
t y
Ġl ot
Ġa d
ĠA ust
i es
Ġ im
ad e
o b
i an
Ġcom p
Ġ our
ad y
Ġp re
ĠAust ral
Ġa m
Ġo ver
ĠAustral ia
lger ia
Ġt ake
at her
ou n
Ġsomet hing
Ġ E
Ġb r
i z
Ġl ast
m ent
Ġspe ak
Ġne w
Ġl et
ou se
Ġsee m
Ġint o
res s
Ġri ght
Ġm ake
Ġd ay
c c
Ġf riend
Ġp r
Ġto day
ab le
Ġdon e
Ġw ay
t s
n ing
one y
. "
f t
Ġw ent
ac h
at ed
D on
e m
Ġany thing
w ays
Ġst ud
Ġw at
Ġo ther
n g
Ġd is
Ġst ay
Ġas ked
Ġc all
Ġs m
Ġd r
Ġal ways
Ġh ouse
Ġpl ay
Ġs c
Ġm oney
Ġun der
Ġb l
Ġth ree
Ġh op
ac t
x t
Ġb us
f ore
Ġsu re
o se
Ġc han
Ġwh y
Ġm ade
Ġg r
o h
Ġman y
us e
u e
Ġs ch
l ie
Ġt w
a it
I s
Ġab le
Ġp art
y ing
Ġb ook
Ġa w
Ġsch ool
Ġwe ll
I f
or row
Ġbet ter
an s
g et
e k
ir st
Ġm o
Ġm ight
Ġaf ter
Ġha r
le ase
Ġbe fore
oun t
Ġf l
re at
Ġknow s
en ce
ur n
p t
oh n
Ġdo wn
Ġst art
Ġch ild
ic h
Ġs w
Ġfe el
Ġ R
Ġ T
i p
Ġo ld
Ġwhe re
is s
Ġlo ve
Ġw ait
D id
an g
b ody
Ġg u
Ġf ind
Ġwe ek
Ġli fe
Ġs ays
i ous
a u
ĠJ ohn
Ġim p
Ġwant s
en n
Ġle ft
Ġwould n
t ing
L et
Ġf irst
i ed
Ġbu y
A re
e ll
i le
Ġro om
i re
Ġha nd
Ġe ver
Whe n
ar k
Ġa pp
Ġ G
Ġus ed
ion s
Ġne xt
Ġp a
Ġt om
Ġhim self
itt le
Ġbe lie
ot h
Ġde c
Ġyear s
Ġm ust
Ġd if
t en
Ġp ut
Ġre m
Ġc are
Ġdo g
Ġe ven
Ġl ittle
Ġk e
ul t
Ġre ad
is e
ic t
ar n
i red
f ul
ab ly
Ġf a
Ġle ave
Ġtom orrow
m er
re st
a use
o g
le ep
is ed
Ġo p
Ġre s
Ġcould n
Ġp ers
â Ģ
Ġn ight
Ġevery thing
re ady
Ġal ready
C an
Ġj ob
Ġneed s
Ġg l
Ġsu pp
Ġpro b
Ġs ur
Ġthing s
ĠA lgeria
Ġsa w
Ġtw o
Ġ P
Ġp o
Ġhar d
Ġf in
Ġas k
Ġ 2
Ġtoo k
Ġprob ably
Ġc ame
Ġli ve
Ġcon t
he s
Ġg ir
Ġunder st
ble m
Ġhop e
an ce
Ġg ive
Ġpro blem
Ġm ar
Ġwon der
os ed
Ġa cc
Ġp er
os s
enn ad
Whe re
Ġaw ay
u ally
Ġw in
Wh o
ur a
I n
i gh
c i
Ġat t
t e
Ġp h
Ġpl an
Ġpers on
? "
f f
ig n
Ġst r
p er
Ġf ound
Ġfriend s
M ennad
Ġd ri
k ura
Ġm ay
at h
Ġme et
es ter
Ġhapp y
Ġy et
Ġs ha
Ġbe ing
Ġ O
ak es
Ġa ct
Ġbelie ve
Ġunderst and
Ġo wn
Ġte ac
Ġe ar
Ġpre t
Ġc he
Ġchild ren
Ġp ol
Ġbec ause
or y
Ġf ather
Ġare n
Ġso on
Ġg ave
Ġsh ow
t ed
Ġdr ink
u ll
ak ing
E very
Ġle arn
Ġ 1
ang u
Ġs ame
Ġ N
Ġc ha
Ġc ount
is hed
Ġen ough
c on
Ġd es
Ġhappen ed
Ġof ten
Ġwith out
u ck
g g
Ġs leep
Ġ ide
Ġt ried
Ġl angu
l es
or m
e rest
Ġ K
id ent
Ġl ate
ester day
au ght
Ġb ad
Ġf o
i ble
P lease
a il
Ġhe ard
m ore
Ġ hat
Ġre c
i v
in ce
im a
Ġint erest
Ġc r
Ġwor ld
Ġar ound
u b
Ġany more
Ġc at
Ġc le
Ġre al
er t
c ed
ar s
Ġstart ed
e red
get her
Ġlook ed
pp ed
Ġb est
it ed
Ġdo or
Ġk ind
Ġv is
Ġm or
Ġf un
Ġke ep
Ġto gether
Ġop en
Ġpl ann
Ġre p
Ġb oth
Ġm et
if e
N o
a red
Ġqu est
l i
l t
ab y
Ġe l
Ġm on
ĠS kura
Ġneed ed
Ġwr ong
an y
Ġb re
Ġtr y
k es
p r
Ġg reat
Ġs ing
or d
Ġy esterday
Ġb ought
ic al
se l
Ġnot hing
Ġm at
H ave
o c
Ġm other
Ġteac her
Ġm ost
l ish
Ġt urn
Ġb ig
s ide
Ġwat er
Ġn ame
a ut
Ġmor ning
en s
Ġpart y
Ġin v
l ed
Ġlook ing
i x
fe ren
Ġh ur
ra id
ĠB er
Ġwor d
Ġher self
Ġst op
Ġse en
Ġgir l
sel ves
Ġw om
ĠC h
Ġany one
Ġexp ect
Ġf ami
H is
Ġb oy
Ġs er
A lgeria
Ġe as
g ry
Ġwh ich
Ġw alk
Ġun t
Ġs ent
Ġaf raid
Ġf r
Ġus e
Ġide a
Ġh un
Ġl ost
or n
Ġp rom
or s
Ġh our
f fe
L ayla
Ġth r
Ġpret ty
ĠE ng
Ġha ven
Ġ end
Ġlook s
on s
ĠR ima
ren ts
Ġal one
ar ing
Ġe m
Ġs k
Ġthe se
Ġp ass
Ġit s
Ġel se
re am
b e
ĠBer ber
j oy
Ġsupp osed
Ġm ind
ent s
Ġfe lt
at ing
Ġthr ough
Ġcall ed
Ġk ill
Ġfe w
Ġw ind
id ed
Ġwat ch
Ġbus y
Ġm in
s w
Ġwh ile
Ġe ach
Ġpl ace
Ġen joy
es e
Ġplann ing
ation s
Ġs n
Ġunt il
Ġsw im
Ġshould n
Ġ D
Ġlike ly
Ġl ist
p ect
Ġbe aut
Ġcl ass
Ġl a
Ġsh o
Ġw ish
Ġb o
Ġre st
Ġsur pr
Ġe y
Ġtr ying
0 0
p e
Ġtalk ing
Ġrem em
ut h
Ġa c
Ġmon th
Ġan other
c es
Ġre l
ĠEng lish
Ġbe g
Ġpa rents
Ġli kes
ĠM on
Ġget ting
Ġdif feren
Ġ H
Ġf ood
Ġan sw
Ġb ed
Ġlangu age
m ost
al ked
Ġfami ly
Ġmar ried
Ġcom m
f ic
Ġwhe ther
y s
Ġd ays
Ġseem s
Ġf ar
us ed
er m
Ġhe ad
e ver
o k
Ġs l
at er
Ġr ain
an k
Ġre ady
Ġear ly
Ġo b
Ġb ro
Ġp ay
Ġth ose
Ġr un
n er
al s
Ġh igh
O n
u ct
Ġfor g
Ġcom ing
Ġsome one
iz e
Ġcount ry
Ġcon s
Ġha ving
iz ed
Ġhe ar
Ġp ain
Do es
if ul
ut e
ĠI t
Ġk id
Ġsu ch
l ain
o ke
Ġwork ing
Ġm iss
Ġal most
w e
Ġh ot
Ġco ld
Ġp res
Ġt ired
as on
ĠMon day
Ġ U
Ġre t
Ġremem ber
Ġyou ng
Ġbeaut iful
Ġbr other
p le
Ġb it
is ter
or k
ver s
ap an
l ic
Ġs it
at es
Ġevery one
o in
o on
Ġqu ite
Ġtr ain
Ġad v
u g
Ġthink s
Ġth ir
Ġ ent
Ġst o
Ġchan ge
Ġad m
Ġin c
Ġvis it
Ġb ir
Ġm ist
Ġdif fic
Ġmy self
Ġp lease
Ġre g
Ġdec ided
M ay
s o
ow ed
Ġstud y
Ġpol ice
he re
Ġli ves
Ġ W
re t
g ed
Ġp oss
S ome
ve l
Ġimp ort
Ġhas n
Ġdis c
it ion
Ġm us
c le
Ġs ince
Ġcon f
l ess
Ġre f
Ġph one
You r
n ight
A ll
Ġw ife
Ġtim es
Ġthe n
i b
o ld
Ġwait ing
s s
or ry
ing s
Ġd an
in ess
Ġli ving
Ġp ict
Ġar ri
im e
at ive
it al
it her
Ġli ght
Ġchan ce
Ġn ice
ol og
Ġa p
Ġdiffic ult
ĠJ apan
j ect
Ġw ar
ce pt
Ġtr ans
Ġco ll
Ġwe ren
âĢ Ļ
W ould
Ġyour self
al th
ct or
m ed
w ard
Ġs us
Ġas s
Ġseem ed
itt ed
re w
Ġd in
c hed
Ġc ry
Ġtr uth
Ġsurpr ised
Ġc ook
Ġg one
Ġcon c
ĠI s
Ġsm all
Ġthem selves
Ġmat ter
Ġg i
Ġquest ion
Ġha ir
a ir
Ġbre ak
Ġtr ue
Ġd ress
Ġmo v
Ġag o
Ġf ore
en se
Ġeas y
Ġwom an
3 0
Ġdifferen t
us s
Ġansw er
Ġin f
Ġon ce
Ġbook s
ĠA l
ot e
un ch
on d
Ġimport ant
i et
ag es
Ġf ace
Ġre ason
Ġhour s
Ġlist en
Ġbec ome
Ġst and
Ġey es
Ġd ied
ffe e
ow er
Ġk iss
Ġlet ter
ou b
re et
i ent
Ġmeet ing
Ġs ister
Ġs at
i al
Ġm om
Ġhur t
Ġt ri
Ġme an
ent ion
Ġco ffee
u al
p l
Ġn um
Ġal so
Ġgl ad
Ġs ick
i ence
Ġs et
Ġe le
Ġa ir
Ġus ually
Ġe v
Ġlong er
A s
Ġh um
o ck
Ġoff ice
ou d
ro ss
Ġsp end
Ġ2 0
a z
Ġhand s
Ġs on
Ġde p
n ess
Ġinterest ed
on t
a v
Ġmus ic
Ġl ar
l ing
Ġwe aring
b r
Ġbec ame
Ġfa v
mer ic
ert ain
Ġsu m
fe ct
Ġs ound
Ġdri ve
T ell
Ġm akes
u red
Ġc ity
Ġli ved
Ġany body
Ġs un
a pp
S t
p s
ou ble
Ġdin ner
Ġse c
o ve
n ot
Ġcomp le
u res
w here
Ġs orry
ĠK aby
i ly
Ġin d
Ġex c
m ing
Ġin ter
Ġan gry
Ġforg ot
i ers
Ġf ree
r ic
Ġfe ll
art h
Ġnew s
Ġfin ished
Ġto night
Ġne ar
Ġdo ctor
Ġfo ll
l am
Ġad d
b all
we en
Ġcha r
Ġcon v
Ġsp ent
as h
l and
Ġcle an
w ork
Ġhe art
os p
ep t
Ġwind ow
Ġfor get
Ġc or
B e
Ġc ap
Ġre d
ul ar
an ge
Ġwho le
Ġplay ing
Ġf ire
ci al
Ġ He
lger ian
Ġar t
Ġbe h
Ġd ro
Ġturn ed
Ġbu ild
o ice
Ġbet ween
Ġcan not
Ġtr ust
Ġqu ick
i er
end ed
Ġl au
un k
itt ing
ri es
Ġt able
Ġex act
ro om
Ġso l
Ġd ream
Ġafter n
ĠA meric
r ist
um p
Ġex t
Ġin s
ist s
Ġaftern oon
Ġat e
Ġle a
Ġs y
in t
Ġto wn
Ġex am
Ġagain st
Ġeat ing
Ġf ast
Ġacc ident
Ġbeh ind
as ed
c y
Ġc our
Ġf ull
Ġd oub
The se
Ġst ory
ur ing
Every one
ate ly
O ur
er n
Ġm il
ut es
im es
Ġl ater
May be
Ġl unch
Ġm aking
h ip
Ġf ig
er v
Ġm en
Ġp ark
it c
k s
Ġg row
Ġr an
Ġbus iness
Ġd et
Ġtr ouble
um b
Ġsum mer
Ġm ess
ĠS t
Ġser ious
Ġag ree
Ġf our
Ġde f
Ġsu b
Ġm ed
Ġl ess
Ġc ertain
Ġwr ite
et s
Ġnum ber
Ġgl ass
Ġtr ave
Ġprom ised
ap er
Ġfav or
l im
Ġt er
Ġhe alth
C ould
c ess
Ġla w
ic y
m an
Ġexact ly
Ġd aught
st r
as ter
Ġmov ie
Ġde ath
Ġgr and
z y
Ġcomp any
n y
Ġt aking
Ġd ist
Ġout side
Ġh or
Ġli ked
ag ed
Ġs ong
is ion
Ġmin utes
Ġword s
Ġf all
Ġbro ke
ress ed
Ġread ing
e al
Ġexp er
Ġc ut
is on
Ġk ept
Ġgu y
b ed
Ġhelp ed
Ġte am
Ġg ame
Ġg en
Ġposs ible
Ġs ix
p h
H er
Ġp op
ic s
Ġde ad
Ġs im
Ġcl ose
is m
Ġfr ont
Ġar m
it s
Ġexp lain
Ġf ight
Ġact ually
Ġmo ve
Ġbir th
N ot
Ġhat e
ak en
re ed
Ġdan ger
Ġkill ed
g iers
Ġlo c
Ġcle ar
Ġret urn
ad il
Ġab s
Ġstr ong
Ġc ost
it ies
Ġ ill
ir t
Ġh osp
Ġcomp ut
Ġgo es
Ġcomple te
Ġsus pect
ĠG od
ant s
Ġthir ty
Ġs al
Ġknow n
Ġstay ed
Ġpict ure
Ġcl ot
Ġs ign
Ġsa fe
con d
ĠIs lam
g y
Ġp at
Ġget s
Ġall owed
Ġw alked
d ered
Ġt re
ent ly
ĠCh rist
Ġc ol
Ġsn ow
Ġsh ort
. .
Ġb orn
Ġle g
Ġquest ions
ob ody
Ġstud ents
Ġhun gry
Ġc a
Ġdoub t
con om
Ġ You
t le
Ġpa id
Ġc am
Ġst ore
u ff
Ġwork s
Ġsc ared
he n
Ġt est
il ed
Ġst reet
N obody
Ġhosp ital
W ill
Ġt alked
ĠA lgerian
Ġde al
f ort
igh b
Ġb aby
Ġkid s
Ġne ighb
Ġlo ved
Ġt en
Ġwr it
id er
w ay
Ġse ll
Ġfeel ing
Ġe conom
p ort
s h
a ur
Ġ /
gg est
Ġevery body
Ġd ie
Ġsu ggest
in s
Ġst ation
Ġcom es
qu e
Ġc ou
ĠG erm
Ġdaught er
Ġ The
Ġdo ll
us lim
in ed
A t
Ġr ich
Ġproblem s
Ġbl ack
Ġthink ing
n e
Ġp ast
Ġl uck
Ġstud ying
d en
ĠT V
Ġw all
il ity
Ġwor ried
Ġr ather
up id
Ġf ix
Ġbeg an
Ġtrans l
Ġf ive
Ġlar ge
Ġ1 9
r act
Ġt ree
Ġwor ked
! "
g r
Ġse cond
o ber
Ġal ong
A nd
Ġbr ought
Ġme m
Ġlo ves
Ġst upid
at o
ĠO K
Ġl and
Ġle ast
ore d
Ġsay ing
Ġd ark
Ġhad n
pp ing
Ġte m
Ġchan ged
M any
Ġ âĢ
Ġp le
m e
a x
ie ld
ĠC an
Ġh it
Ġfoll ow
Ġ Y
T han
Ġp ur
Ġarri ved
Ġsw e
On e
Ġper m
Ġquick ly
Ġmom ent
Ġexpect ed
Ġs itting
Ġ Sami
ri ght
Ġbo x
ra w
Ġinterest ing
Ġcomput er
Ġt all
Ġfo ot
Ġclot hes
Ġha lf
Ġp ar
ic ked
Ġwr ote
Ġdis app
Ġmonth s
Ġap art
ct ober
Ġsho es
J ust
ĠU n
Ġs ide
Ġc aught
Ġmo ved
Ġro ad
Ġcont in
Ġor der
ĠCh in
Ġwe ather
Ġmist ake
Ġweek end
Ġre qu
r it
Ġr a
Ġa ge
Ġsto pped
Ġo pp
Ġpres ent
ĠO ctober
Ġwatch ing
u c
Ġpr ot
Ġother s
Ġm ad
Ġfavor ite
Ġc ur
e f
Ġaf f
Ġsec ret
Ġf ine
out h
Ġan im
ation al
e b
u ation
Ġa v
Ġwe ar
Ġcare ful
Ġlau gh
Ġfl ow
ĠM uslim
Ġfin ish
Ġwor ry
Ġbr ing
b and
at ure
Ġdr unk
Ġm a
Ġp ub
ard en
Ġas leep
Ġc ent
ĠJapan ese
Ġres p
s et
Ġhome work
Ġv ide
Ġp ri
Ġh old
lf riend
Ġpre p
Ġrest aur
Ġb ot
f er
as k
Ġpro d
at s
ain s
ian s
Ġlo se
P e
Ġadm itted
Ġcoll e
Ġwom en
F adil
ud e
Ġd uring
Ġse ver
Ġw ine
Ġpl ans
b y
us band
ĠAl giers
f ter
Ġeven ing
us h
ren t
Ġfl o
Ġt ou
Ġstud ent
B oth
u ro
Ġp ick
Ġp ie
Ġb ag
ull y
Ġsever al
Ġg arden
Ġter ri
Ġm id
itt en
Ġpo int
Ġgir lfriend
a ff
i o
Ġhum an
Ġso ld
Ġswim ming
Ġun i
Ġ ve
Ġ V
Ġbirth day
Ġb ar
S h
en ces
v ious
ou p
if ic
Ġper fect
ens ive
re ct
Ġan n
ver n
A n
Ġlearn ed
Ġbe l
cc ess
Ġwill ing
Ġp ost
Ġbeg in
Ġele ct
Ġh usband
Ġt y
ĠI n
T o
F or
Ġb icy
ar ning
ow n
N ow
Ġf ut
ut ion
Ġf act
Ġwh ite
Ġin st
k en
ie w
Ġold er
Ġf ish
Ġm ot
i ved
Ġ es
ok ing
am es
Ġh on
i ke
c l
Ġt aken
Ġp ower
Ġrep ort
Ġac cept
Ġp en
m as
an e
Ġle arning
Ġre ce
ĠF r
Ġcomplete ly
Ġ Yanni
Ġte a
Ġt ick
Ġsu per
Ġh id
A l
re en
ot s
Ġsent ence
Ġbuild ing
at ur
Ġb ath
Ġcat ch
Pe ople
Ġm ine
Ġc ra
Ġlangu ages
Ġpo or
Ġde m
r ing
Ġb ody
Ġsit uation
Ġfin ally
, "
Ġqu iet
Ġopen ed
e ad
Ġin side
A fter
Ġfut ure
ment s
at or
Ġar g
Ġgi ven
Ġtri p
Ġsu ccess
Ġsha ll
Ġspeak s
Ġshow ed
Ġinf orm
Ġhot el
Ġle ad
e e
ack s
Ġpr act
ĠCan ad
Wh ich
Ġspeak ing
air s
ay a
Ġrestaur ant
Ġr id
Ġcon d
Ġcolle ge
Ġcomp lain
Ġweek s
Ġstr ange
u gg
d le
ic ed
Ġreal ized
D an
Ġm ount
Ġn or
Ġc e
f ast
Ġac ross
vel op
Ġdoll ars
Ġj oin
Ġe arth
Ġr is
Ġte ach
Ġpro f
Ġar rest
d s
d red
Ġgo vern
d ing
Ġe ither
enn is
Ġcons ider
Ġl ying
Ġg un
Ġatt ention
Ġfa ir
et h
Ġop in
Ġte le
ĠA r
Ġpr ison
Ġche ck
Ġin j
Ġdrink ing
Ġsl ow
Ġmil k
Ġb orrow
Ġth ough
Ġbicy cle
Ġup set
Ġv ac
ort s
Ġplay ed
Ġc la
Ġtell ing
Ġli e
Ġlea ving
erv ous
Ġsomet imes
Ġp ull
Ġn ervous
Ġgen er
Ġapp ro
ain ed
u ed
Ġs il
Ġc up
Ġ ought
Ġcl im
a ger
Ġke y
u es
S o
Ġ20 1
ĠChrist mas
f ully
Ġt ennis
Ġto p
G ive
ict ion
Ġdanger ous
b it
Ġsh ot
o id
Ġd ire
Ġc al
ĠS p
Ġs ad
Ġme ans
Ġpol it
Ġflow ers
n a
Ġqu it
Ġri ver
Ġbreak fast
ic es
Ġcont ro
ent y
Ġf il
st em
Ġ Ziri
Ġhun dred
Ġcl osed
Ġb ase
ar ch
Ġcry ing
r ap
Ġexp l
en ed
Ġwor th
Ġd iv
b ers
Ġm od
Ġflo or
Every body
ĠKaby lie
N e
Ġexp ensive
Ġm ur
Ġsome body
row n
Ġ ice
Ġbl ue
Ġp un
b s
Ġ ed
in es
Ġm is
Ġdisc uss
Ġb ank
Ġen g
Ġt akes
if t
Ġde ep
Ġprot ect
Ġgu ys
Ġcou ple
ic ally
Ġm ill
Ġha ng
Ġdri ving
Ġs ense
Ġre n
Ġbe er
E ven
Ġne cess
Ġapart ment
Ġdec ision
Ġpass ed
Ġb oss
il t
Ġluck y
Ġf ool
Ġhe av
f riend
Ġdog s
ur y
am ed
i or
g es
Ġall ow
e ch
Ġtrave l
Ġcra zy
ark et
Ġgirl s
uro pe
Ġt ast
Ġgu ess
Ġwalk ing
Ġte xt
Ġap olog
u le
he ad
Ġbe ha
Ġb ill
Ġc re
ard s
Ġgr ad
C h
Ġsupp ort
Ġph ot
Ġb all
er y
Ġp aper
is hing
Ġbre ad
itc hen
oc ked
li ke
ll a
Ġadv ice
Ġd i
Ġcor rect
Ġ ir
Ġstay ing
Ġk itchen
Ġm ag
S omet
Ġsp oke
Ġprom ise
u it
Ġs and
Ġhis t
ac es
ĠS un
Ġf ired
m a
m p
Ġs end
Ġsleep ing
Ġvide o
Ġt ax
Ġc ase
Ġv oice
Ġf am
Ġpub lic
Ġsm ell
Ġse a
Ġag reed
ac ked
Ġdri ver
Ġon es
Ġst ate
c ap
r or
in ced
G o
ce ed
in ite
Ġeat en
Ġwr itten
Ġst e
Ġst uff
ist ic
in ation
t on
g an
n ger
Ġw ished
Ġf ly
Ġcomm un
Ġbro ken
Ġsy stem
Ġrel ations
g ar
med i
ĠB aya
Ġpr oud
ĠGerm an
re ad
Ġd ance
Ġres pect
or ing
Ġwrit ing
Ġ umb
Ġup on
ĠE urope
h ood
Ġtou ch
Ġyou nger
Ġcour se
ous and
Ġhor se
er a
Ġo cc
Ġext re
Ġcar ry
Ġhappen ing
a i
u ge
Ġgovern ment
Ġreal ize
Ġd en
Ġe gg
Ġb at
ĠN ew
Ġumb re
Ġw ood
ent ed
Ġch oice
Ġfore ign
u ri
it ar
i ol
âĢ Ŀ
Ġpict ures
Ġsing le
c ing
Ġfor m
Ġpre fer
S kura
Ġc op
C ome
ter n
ĠKaby le
Ġrun ning
Ġopin ion
Ġcla im
Ġc ross
Ġp ot
L ook
Ġarrest ed
Ġbl ood
Ġwe ight
Ġr ul
Ġto w
Ġcl os
Ġm os
Ġdisapp oin
Ġbe ach
vers ity
od ay
Ġm ain
Ġde velop
og n
om m
Ġinv ited
g ing
ct ion
Ġexper ience
Ġc ake
Ġenjoy ed
Ġrel ig
Ġ We
Ġhop es
c ri
Ġmed ic
Ġp os
i ves
Ġconc ern
l ight
Ġcomm on
Ġfam ous
G et
i k
c hes
e x
St op
Ġim medi
Ġs le
Ġob vious
Ġare a
Ġsp ace
ac hed
T ake
on y
Ġey e
un e
er ing
f ied
Ġt aught
Ġb ur
Ġli br
f orm
Ġrec ogn
Ġ z
Ġg ar
Ġst ep
Did n
Ġconv inced
He re
Ġse lf
om p
el s
Ġent ire
Ġextre me
Ġcha ir
B ut
Ġmist akes
b o
Ġd est
li er
pl oy
ĠUn ited
Ġhop ing
W as
Ġsm art
Ġinform ation
Ġumbre lla
u ce
ar r
Ġse x
Ġpro p
on es
Ġy ell
Ġfun ny
Ġfig ure
Ġhe ld
Ġv iol
Ġwin ter
ill ed
Ġwhat ever
Ġim ag
Ġem b
T oday
Ġ 3
Ġspe cial
ort h
er c
Ġgu itar
Ġvis ited
Ġdes k
inite ly
Ġv al
Ġev ent
Ġ ign
Ġst ood
ust om
are ly
Ġstud ied
Ġboy friend
l ine
Ġth ousand
Ġp ian
ul ts
Ġcontro l
Ġv ill
Ġwait ed
a h
Ġg rew
id ence
Ġglass es
or ies
us hed
Ġanim als
ak ed
Ġhappen s
Ġask ing
id ge
Ġhur ry
et y
Ġto ward
Every thing
ĠAmeric an
Ġlibr ary
r up
Ġass um
Ġpop ular
Ġref used
il ing
um ent
Ġneighb or
e en
t o
Ġmiss ed
Ġnecess ary
Ġbel ong
Ġimp ro
ĠChin ese
Ġb reat
Ġsho pping
Ġpart ic
r at
ĠR uss
Ġme at
Ġspe ech
ck s
Ġkiss ed
H as
it er
Ġsh op
Ġsto le
Ġd ate
s per
Ġse at
Ġhelp ing
Ġsm oking
te en
Ġimmedi ately
Ġinj ured
as es
Th ose
Ġgr ound
Ġinv est
Ġpe ace
Ġrelations hip
W ith
z e
id ay
Ġe qu
Ġresp ons
Ġsh ip
iz z
d den
Ġdef initely
Ġo pt
Ġde v
ur ch
Ġsh irt
A ren
Ġsent ences
Ġmess age
oo se
Ġsome where
Ġplay er
Ġal ive
Ġbe at
Ġes cap
Ġfor ward
Ġsh ut
Ġem p
it ive
ac ed
Ġear lier
ail s
Ġco at
Ġl ine
ĠSt ates
Ġlaw y
Ġnot iced
Ġsu dden
Ġtre es
Ġhon est
Ġli ed
Ġdro ve
ĠE arth
Ġhard ly
Ġma j
oo f
Ġsu ff
Ġmar ry
Ġwas h
Ġsound s
Y es
Ġr ad
Ġhist ory
ĠA f
ol ute
Ġprod uct
Ġsee ing
Ġdes er
Ġser v
Ġs qu
Ġst ra
Ġyour s
Ġw ed
Ġoff ic
g est
Ġ Q
Ġe ff
Ġsleep y
Ġb urn
Ġg reen
Ġsa ve
pp y
Ġplan e
Ġwat ched
Ġconc ert
Ġd am
b ook
c ome
o ll
Ġpr ice
Ġhop ed
o le
Ġ 5
Ġapp ear
Ġm outh
Ġh uge
ion al
Ġr ing
Ġex cept
Ġsur v
Ne ither
Ġcam p
Ġfe et
Ġdr ank
Ġterri ble
Ġpro ject
Ġcount ries
Ġdifferen ce
Ġeconom y
Ġsk y
c er
Ġf at
Ġd raw
Ġsu c
Ġpro v
Ġj ump
Not hing
e g
Ġprep ared
Ġwor se
ol ved
ĠM r
s y
on ed
ro d
Ġour selves
Ġapp re
e c
Ġwar m
gy pt
Ġv iew
Ġc ool
a w
Ġf ing
Ġno vel
Ġstra ight
Ġfe ar
00 0
Ġstand ing
Ġr ide
Ġabs olute
ph one
g ress
Ġm ach
Ġreg ret
t ime
Ġbl ame
ĠAl ice
Ġheav y
Ġto t
Ġmos que
Ġextreme ly
Ġc row
Ġsuc ceed
Ġc ult
fort able
Ġsus p
str uct
Ġfa il
olog y
Ġn ative
Ġnot ice
Ġen em
Ġpian o
oss ible
Than k
Ġany where
Ġwed ding
Ġl ow
Ġin n
Ġposs ib
Ġtr uck
ĠE gypt
Ġp izz
Ġo il
ĠA nd
Ġvac ation
al ity
Ġmin ute
ha r
Ġex ist
Ġpres ident
Ġprof ess
Ġno body
Ġpie ce
Ġno ise
Ġgr oup
Ġadm it
Ġcertain ly
Ġmill ion
Ġb other
Ġe ight
Ġconv ince
Ġg ift
Ġh ol
Ġmo ving
Ġarri ve
Ġrece ived
Ġmount ain
Ġsk i
ĠAmeric a
Ġt reat
Ġrul es
op h
Ġbu ilt
Ġwon dered
Ġboy s
Ġple as
Ġg as
Ġaw are
eb a
.. .
Ġsle pt
Ġimp ossible
ll ed
Ġus ing
Ġthan k
Ġeas ily
Ġcoll ect
l s
end s
ir d
Ġcap ital
Ġlisten ing
O h
ĠAf ric
Ġis s
sper ant
Ġb en
Ġro b
ato eba
Ġtem per
is es
Ġb ask
ok en
ĠIt al
Ġinc re
Ġlea ves
Ġlawy er
ress ion
hes s
Ġatt ract
Than ks
Ġappre ci
Ġke ys
Ġair port
Ġ -
Ġp ress
eal ous
ast ic
Ġch urch
f ather
Ġsm ile
Ġn orm
Ġan t
M ost
Ġoff er
Some one
Ġmid dle
Ġn atur
an ish
Ġpr in
g n
ac y
Ġd iction
Ġgot ten
Ġfeel s
Ġcar s
m b
st er
Ġreturn ed
Ġob s
Ġc ute
Ġdisappoin ted
E x
Ġfl u
he t
Ġplann ed
Ġfil m
in al
iss ion
Ġpain ting
Ġpull ed
o ver
end ing
Ġf ield
Ġl one
en cy
ck et
ha ps
is ing
le ct
Ġam ong
rent ly
Ġst ar
Ġv ol
Ġrec ently
Ġpri v
uri ous
Ġw ore
Ġend ed
Ġa uth
Ġj ud
Ġconf used
Ġcol or
res h
Ġs ight
ort un
if ied
arr ass
Ġsing ing
Ġserious ly
Ġemb arrass
Ġacc ount
Ġve get
ĠAr ab
Ġbase ball
Ġf ishing
Ġh ide
Ġth rew
Ġun like
Ġhat es
Ġj ealous
cl ock
Ġav oid
Ġswe et
id es
ir ty
Sh ould
l o
Ġp icked
ter s
Ġpro per
Ġsand w
Ġnews p
i res
Ġapp le
Ġsat is
ad ed
Ġpat ient
Ġc hess
Ġme ant
Ġtr aff
Ġbot tle
Ġ '
M r
Ġth reat
Ġann oy
Ġdr ug
Ġ What
ro ad
Ġl os
st airs
Ġun cle
Ġeat s
Ġor gan
Ġrec ord
Ġ They
Ġun c
Ġegg s
Ġc ustom
Ġfa iled
Ġdiv or
Ġmedic ine
d y
Ġc ard
Ġint ell
Ġsu itc
Ġsurpr ise
Ġmov ies
Ġf aster
Ġexc ited
Ġaff ord
Ġl im
Ġinc l
Ġsub ject
Ġc orn
it ch
d e
Ġmaj or
e y
Ġkn ife
Ġpr ay
ove red
Ġvill age
Ġ 4
ffe ct
Ġsim ple
" .
Ġ er
ri age
Ġt our
sperant o
Ġsu it
g hed
Ġob ject
U n
ĠM ar
Ġen er
Ġbask et
Ġtraff ic
Ġa ut
Ġb ored
Ġcam era
T ry
e ared
Ġam az
ke y
l er
ĠCanad ian
fe red
am p
Ġdiction ary
Ġris k
Ġsm oke
We ll
ust ed
Ġtick et
Ġwas te
ul ation
ĠA n
Ġbelie ved
Ġcat s
Ġd ating
Ġabsolute ly
Ġc ream
Ġso cial
ab les
Ġdrink s
P ut
Ġn amed
ri b
We re
Ġbu ll
Ġunderst ood
Ġf ac
Ġm arket
Ġp ack
Ġen v
Ġhar der
Ġauth or
Ġc ow
og rap
Ġrain ing
gr am
Ġlone ly
Ġc reat
Ġl oud
ut s
oc ol
om ing
ĠJ acks
Ġpizz a
Ġa head
e ep
Ġhand le
Ġfa ult
Ġcont act
ant ly
Ġfar m
c ent
Ġinter n
Ġ ur
Ġpl ays
Ġcl ub
Ġadd ress
Ġdire ct
Ġfeel ings
led ge
Ġof fered
Ġse ven
Ġth row
Ġgi ving
Ġd ad
Ġj ack
Ġdro pped
Ġde b
Ġwonder ful
Ġbegin ning
om es
Ġloc ked
Ġcomp et
s it
Ġf re
m other
Ġperm itted
on na
Ġdress ed
Ġsol ve
Ġrep l
Ġexpect ing
Ġfr uit
Ġinn oc
Ġmach ine
Ġt erm
Ġp u
ĠT ok
ch ie
ĠP ar
Ġc ir
en ced
Ġconcern ed
Ġcon vers
Ġforgot ten
Ġ id
Ġaw ake
Ġbath room
Ġc ried
le br
Ġmo on
Ġmur der
Ġpre v
Ġcrow d
Ġ (
Ġis land
Ġe ffect
Ġte eth
Ġpers u
side red
Ġinv olved
Ġgo ld
Ġb right
Ġlau ghed
Ġen c
Ġunlike ly
Ġf ur
Ġmiss ing
ord ing
Ġc ause
il ty
Ġemp ty
ve red
y o
Ġsuggest ed
Ġed uc
c ious
Ġc ell
Ġf it
Ġint rod
Ġuni versity
Ġpl ant
Ġple ased
Ġgu ilty
Ġnatur al
Ġwe ak
Ġwe ird
Ġce lebr
Ġb ike
Ġdec ide
Ġre se
Ġatt end
Ġst orm
Ġor ig
Ġw arn
at ic
Ġgrad u
Ġst ol
Ġcon sidered
Ġsp oken
Ġimp ressed
Ġf la
Ġf resh
Ġfor t
Ġor dered
Ġfore st
Ġtw ice
Ġsha r
Ġstol en
Ġb and
Ġdet erm
j a
Ġsp ring
Ġcon st
o v
un g
Ġsc ream
Ġph ys
Ġchar ac
Ġcall ing
Ġatt ack
ĠJacks on
Ġ iv
g th
Ġsk in
Ġeconom ic
Ġc ous
us es
ac he
Ġjob s
Ġ1 0
Ġcook ing
Ġopp ortun
ĠFr ance
ĠSp anish
Ġhe ll
Ġte ch
Ġj ail
Ġteac hing
ic le
Ġtw enty
Ġfl ight
Ġthir d
Ġlaugh ing
Ġm ention
Ġf if
Ġfoot ball
Ġ She
Ġsh y
Ġfoll owed
Ġslow ly
S ince
Ġch ocol
Ġrequ ired
Ġg onna
Ġgrand father
Ġpa ir
Ġcare fully
Ġso ft
Ġch ick
Ġbu ying
Ġ 6
ver se
Ġr ound
Ġso ci
Ġbl ind
Ġide as
Ġv ar
Ġpur p
ĠSun day
M ar
Ġ est
oin t
Ġarm s
Ġre ached
Ġman ager
Ġf le
Ġst ri
Ġren t
Ġto r
Ġsp orts
Ġener gy
Ġk ing
c ked
Ġinst ead
Ġh ous
Ġsha re
c ha
i um
Ġhealth y
Ġj oke
Ġsu gar
Ġcr ime
Ġr u
t ain
ou l
Ġl ay
Ġyour selves
p ar
p ri
v ision
Ġfe ed
Ġsudden ly
Ġd irty
Ġst ick
Ġab ove
Ġcal m
Ġevent ually
Ġco vered
Ġbe ar
le t
K eep
a f
Ġne g
Ġspe c
ĠChin a
Ġt al
il ar
Ġca used
Ġtech n
a ven
Ġrec omm
l ies
Ġiv y
Ġfl at
ci ent
Ġsc ience
ĠE speranto
Ġfollow ing
Ġansw ered
ĠâĢ ľ
u ced
Ġt ur
Ġty pe
Ġintell ig
Ġw ake
Ġab road
Ġde lic
Ġun f
Ġsc ient
Ġbir ds
Ġ That
Ġk il
Ġmar riage
Ġp ool
ro y
Ġd a
Ġc oun
ĠI nd
Ġpro gram
Ġlot s
ict ed
Ġplan et
Ġbeha v
Ġnorm al
en e
as c
Ġem ploy
Ġ $
ll en
as hed
Ġcr it
Ġsing er
Ġc ast
Ġbed room
Ġbir d
P er
z z
ro g
ir us
Ġim m
rup t
Ġb le
he m
ot ed
Ġpract ice
Ġde g
Ġv ict
un d
in a
c il
Ġh y
Ġwe alth
ĠT atoeba
Ġadv ised
u ly
un t
Ġeng ine
Ġtoward s
ill s
Ġman aged
ound ed
Ġl ic
ond on
Ġj our
la x
Ġhar m
a le
Ġ Z
if y
Ġde l
Ġex ha
Ġt ough
Ġre ach
Ġres ult
Ġint end
Ġsusp ic
ĠTok yo
Ġl end
Ġdo c
iz ation
Ġ201 3
Ġwith in
per ate
Ġforg ive
L ife
Ġt ie
On ly
Ġt ill
Ġm ir
Ġapolog ize
Ġstart ing
fort un
Ġnewsp aper
ur s
Ġun ha
Ġno se
Ġlo ck
ĠPar is
Ġexplain ed
Ġrad io
r ay
Ġne ck
Ġro ck
Ġloc al
Ġhat ed
Ġleg s
Ġchocol ate
Ġent ered
G ood
Ġb ri
Ġtalk s
Ġsc hed
Ġkeep s
ou red
Ġst uck
The ir
Ġf right
Ġdem and
Ġr ace
Ġtransl ate
Ġs ort
Somet imes
Ġpurp ose
Ġw oke
Ġe arn
i j
Ġ2 00
om ed
Ġsp read
ind a
Ġaf fect
Ġinf l
Ġletter s
Ġrelig ion
Ġm ood
Ġknow ledge
Ġres ults
Ġbo at
d ays
Ġbrother s
ess ed
cc er
Ġdes cri
Ġcontin ue
an ces
Ġtax i
Ġspeak er
Ġd ue
ĠGerm any
Ġw ild
Ġmat ch
Ġmean ing
Ġw a
hing s
Ġle vel
est s
Ġunha ppy
Ġf illed
Ġre v
Ġd ut
Ġwor st
ĠâĢ Ķ
ĠL ondon
Ġfriend ly
Ġrespons ible
Ġinnoc ent
Ġcan ce
Ġperson al
sh ield
Ġhid ing
Ġper form
Somet hing
g o
Ġs oup
Ġcl oud
Ġcir c
Ġchar ge
Ġden ied
oh ol
Ġra ised
c ohol
Ġw is
Ġr ude
Ġwind shield
Ġs ens
us ing
Ġteacher s
Ġperm ission
Ġm ass
Ġre lax
use um
T hings
l come
Ġ Th
ra z
Ġtele vision
Ġamaz ing
Ġd ry
am m
Ġst eal
Ġf an
Ġgrand mother
T r
Ġd ra
Ġte ars
ep end
Ġconvers ation
Ġmot or
Ġtow el
Ġjack et
Ġb arely
Ġl ab
ce an
Ġdis hes
Ġexper i
Ġty p
Ġsandw ich
Ġsatis fied
A ny
Ġl ady
He y
Ġobvious ly
ĠQ ur
ĠAfric a
n ect
Ġb an
ĠA s
Ġan x
Ġp an
Ġch oose
Ġbr idge
As k
Ġit self
ie f
end er
Ġtast e
Ġescap e
Per haps
ar ter
Ġ ver
Ġapp les
Ġfor ced
Ġrem ind
Ġshow er
Ġneighbor hood
Ġh ig
Ġpret ended
k a
s ed
Ġn ature
Ġn ames
Ġeas ier
ne y
Ġb oring
Ġrem ain
Ġcontin ued
ĠQur an
A m
M ake
Ġw ays
Ġl ake
ll ing
Ġp sy
ograp h
Ġa ud
Ġli ft
ent al
irst y
Ġsim ilar
Ġhous es
l ook
Ġth y
Ġwas hed
Ġso ccer
Ġex erc
Ġpo in
ĠRuss ian
Ġun d
Ġthir teen
b ing
Ġgo lf
Ġgrow ing
Ġhe at
Ġbe ll
Ġass ist
Ġpos ition
Ġbasket ball
at t
ĠB ut
ound s
Is n
Ġche ese
Ġimpro ve
ur al
ĠL ord
Ġhand ed
Ġfix ed
on ment
Ġdest roy
Ġappreci ate
u el
Ġbelie ves
k ing
o kes
re l
ar m
Ġbut ter
Ġwho se
Ġc ash
Ġcom fortable
Ġwindow s
Ġanim al
ĠB e
Ġpop ulation
Ġpartic ular
Ġop er
Ġgar age
Ġm aster
ld om
Ġgi ves
Ġpun ished
he red
it ions
ow s
Ġus es
Ġembarrass ed
Ġsp ir
Ġw ise
Ġd ying
ant ic
ild ren
B y
Ġ ident
Ġad op
Ġpot ato
ab bed
Ġbut ton
Ġaff air
Ġfair ly
y m
Ġa chie
Ġs our
Ġp et
Ġha ll
Ġse ldom
Ġdes p
Ġcour age
Ġsuitc ase
c ause
Ġh ired
Ġli es
Ġext ra
Ġshar p
O f
w o
Ġw et
Ġr ice
Ġlos ing
r on
in ary
Ġcar ried
Ġsur f
Ġcha llen
Ġind ust
Ġabs ent
Ġne ither
Ġdis e
Ġpolit ical
âĢ Ķ
s es
Ġwe ars
ace book
Ġwall et
bo ard
Ġst ars
Ġany way
Ġdes ign
r am
u ing
Ġc red
Ġg ames
Ġpain ted
Ġenem y
Ġcorn er
c he
Ġcon ver
Ġbo ard
Ġdro p
Ġn ational
Ġtr ad
Ġpre gn
Ġpain t
Ġapp oint
Ġdan cing
ĠIn tern
d d
Ġbot t
Ġtele phone
Ġtot ally
Ġm useum
Ġor d
Ġrel uct
Ġdep art
Ġid i
Ġsp l
Ġun less
ĠArab ic
Ġb i
Ġsm iled
Ġsol ution
Ġav ail
Ġcharac ter
Ġopportun ity
e es
as ons
ĠF ar
Ġlight s
r ated
Ġn on
ĠB rit
Ġlar gest
Ġserv ice
er al
ir m
Ġpl aces
Ġfore ver
Ġj u
Ġevery where
Ġ 8
Ġnear ly
Ġl iter
Ġse par
Ġlisten ed
n ic
Ġem ot
Ġ There
it ude
it iz
Ġst ories
Ġdisc overed
Ġsong s
g l
Ġp red
Ġr ap
Be cause
Ġsa ved
Ġexp ress
h ost
m en
ro p
ir onment
um e
Ġdes perate
Ġche ap
Ġsho ot
Ġhands ome
ai ro
Ġrecogn ize
Ġhe sit
Ġus ual
Ġal cohol
Ġfight ing
il s
Ġstud ies
Ġreg ion
Ġclear ly
Ġtall er
Ġbig ger
Ġhor ri
R ima
Ġwas hing
ub e
Ġdist ance
Ġ 9
Ġcook ies
Ġ ess
ĠF acebook
ĠY ork
Ġbreat h
ce ll
Ġr oof
Ġsoon er
Ġcond ition
Ġgo al
Ġsh it
ĠL inda
em pt
Ġdelic ious
Ġc ab
Ġme as
Ġun l
Ġun able
Ġpo cket
Ġfig ured
Ġpriv ate
Ġdeterm ined
Ġpsy ch
J ohn
n ed
Ġfor ce
Ġjud ge
Ġexha usted
e v
un der
Ġimag ine
ent ial
Ġpro gress
Ġelect ric
in ated
Ġth ou
ĠC airo
Ġfl ower
Ġr ule
om en
Ġse arch
Ġcon nect
Ġ 7
Do ing
Ġsuspic ious
Ġdut y
her n
Ġpay ing
Ġra ise
om b
Ġm ap
Ġf uck
p a
Ġn ation
Ġst om
Ġla zy
A lgerian
op e
Ġdream s
Ġexam ple
ist ed
ĠE ve
gg ed
Ġopp os
Ġincl ud
Ġab and
pp er
Ġind epend
Ġart icle
Ġaccept ed
Ġbehav ior
Ġ ug
Ġv ote
ugg ed
raz il
Ġme al
Ġpen cil
re ts
Ġst ren
Ġco ver
N ever
Ġsp ot
Ġspe ed
Ġenjoy ing
re es
Ġb as
ul ous
c ip
y le
Ġman age
Ġsupp ose
Ġdep ressed
fortun ately
Ġcent ury
Ġexpl an
Ġs oul
Ġto ng
Ġg host
Ġsh ocked
Ġchan ges
Ġsuccess ful
Ġche cked
ĠFar id
Ġ How
Ġhun g
Ġent er
by e
ĠN orth
feren ce
Ġp ath
Ġpar ked
F rom
w ed
Ġt ight
ow ing
Ġenv ironment
Ġfur ther
Ġrep e
Ġret ired
Ġwh om
Ġcall s
Ġbeaut y
reed om
S orry
Y esterday
or ld
th ough
Ġcl ock
L e
Ġhe aring
Ġtell s
i us
Ġc itiz
Ġacc omp
Ġbad ly
Ġmot iv
ĠFr iday
Ġhol iday
Ġw ide
Ġwe bs
Ġsuper m
Ġcommun ic
Ġjump ed
Ġo we
Ġth irsty
Ġuse ful
Ġhold ing
d om
er g
ap t
Ġsim p
Ġrequ est
ur ity
Ġlic ense
im istic
ut ed
our aged
Ġbr ain
er ve
Ġe mer
ip s
Ġchick en
Ġpl enty
Ġwhen ever
âĢ ľ
Ġ1 8
ip e
Ġfa ith
Ġtem pt
c o
i est
o ved
r ain
Ġf ed
Ġl ack
Ġg ent
Ġwe ap
Ġam b
Ġadv ant
Ġfing er
v al
ra el
Ġassum e
Ġgl o
Ġinfl u
a rently
am b
Ġmem ber
at ors
Ġs ize
Ġc oo
Ġc urious
Ġse ason
Ġex cell
Ġper cent
Ġveget ables
Ġm ail
Ġpo em
Ġavail able
ĠD ay
m on
ĠS atur
Ġbec oming
Ġcont ract
str on
Ġsoci ety
G od
Ġm ark
Ġha bit
Ġclass es
Ġdet ails
Ġneighb ors
Ġmil es
Ġwood s
Ġprop os
Ġr um
Ġdis g
Ġm ult
The n
Ġsal t
Ġs ang
Ġm ath
Ġc ig
Ġp oured
Ġr ac
Ġpo ison
Ġup stairs
Ġfo c
Ġsched ule
un te
Ġte en
Ġac qu
Ġmag az
Ġocc ur
it ing
Ġam ount
Ġpass port
Ġart ist
Ġsil ent
Ġinvest ig
ĠI f
Ġon line
Ġro se
Ġre asons
Ġburn ed
Ġrecomm end
y ond
Ġ This
Ġtr ick
Ġres ign
con s
Ġk icked
ic ide
Ġst aring
te red
Ġsister s
Ġphot o
Ġappoint ment
Ġ 30
Ġsur r
Ġdep end
Ġeff ort
Ġsh out
ap ers
Ġtre ated
Ġfly ing
Ġfright ened
Ġug ly
Ġsimp ly
Ġgent le
Ġju ice
p han
Ã ©
Ġcar p
Ġev il
Ġpleas ure
Ġiss ue
Ġeduc ation
Ġcrit ic
um ents
Ġstom ach
Ġexcell ent
k n
Ġconf ident
ĠSt reet
in ing
Ġb ow
et er
Ġb al
Ġann oun
Ġvol unte
b orn
i od
Ġimp ress
ĠP ark
Ġstr ugg
or ter
Ġmod ern
, âĢĿ
i ving
ing u
Ġo cean
Ġre act
od e
Ġexplan ation
Ġsuperm arket
us ion
iv il
Ġinv ite
Ġtong ue
i als
Ġear s
ĠU S
Ġbe yond
at a
Ġhapp iness
Ġlate ly
Ġcr is
om an
Ġev idence
Ġhang ing
Ġcre ated
Ġto ile
Ġun s
i pped
Ġb rown
Ġpregn ant
Ġd ia
ĠG ree
ors es
Ġd ish
Ġb ark
at ch
oc r
an ced
ve re
Ġacc used
Ġcr im
Al giers
Ġcult ure
Ġcred it
d ed
ic ian
ter y
Ġab ility
Ġch o
are t
ci ally
Ġpol ite
Ġarm y
Ġtick ets
as ing
Ġr arely
Ġspend ing
Ġfall en
Ġth in
Ġr om
Ġpl ants
Ġhigh ly
Ġmem bers
Ġ Do
it ation
il i
Ġint ended
Ġem ail
Ġenjoy s
Ġla id
Ġarg ument
Ġclaim s
L ast
o cc
Ġd iet
ĠB razil
Ġwork ers
ĠD an
Ġmem ory
Ġintellig ent
look ing
e or
Ġpr on
Ġsl ight
Ġsurv ive
Ġpossib ility
b an
Ġl ed
Ġin se
Ġhelp s
Ġact ing
li ar
Ġ19 9
Ġyell ow
T wo
i ven
Ġre le
res ident
Ġcomp lic
Ġfav our
Ġill eg
Ġreluct ant
Ġl oss
Ġfor ty
ate ful
Ġpo et
Ġski ing
Ġdise ase
ĠF adil
Ġact iv
Ġcommun ity
Ġdeser ve
ha m
Ġlo g
el ess
ĠAmeric ans
Ġs li
ac hes
Ġj okes
Ġde li
Ġor ange
Ġkind s
n el
en ing
Ġan ger
p or
Ġcan d
Ġres c
St ay
Ġclim ate
c her
d o
in y
Ġd ig
Ġc y
it ary
Ġhe ro
Ġn ine
Ġwe lcome
Ġshe ep
ore s
ĠJ ew
Ġsw ear
Ġperfect ly
ver age
ag o
Ġs la
Ġf asc
Ġgr ass
Ġmount ains
Ġwarn ed
Ġexerc ise
Ġsha pe
Ġmat er
Ġfr ust
c ul
u ary
Ġr ub
Ġsc ar
Ġgu ard
iv id
Ġf ro
Ġy es
or der
Ġj oy
Ġpro cess
Ġper iod
ĠW orld
Some body
Ġuni verse
o e
u ja
ct ors
Ġmid night
Ġwebs ite
v iew
Ġatt empt
Ġfall ing
Ġassum ed
Ġpress ure
Ġvict im
it es
am a
Ġst one
Ġm ann
Ġc ards
ib ility
Ġz oo
Ġprin cip
Ġdrug s
Ġstren gth
Ġf reedom
he st
Ġg ri
Ġin struct
Ġmet h
Ġret ire
Ġclean ed
Ġrese arch
Ġmay be
Ġcou ch
Ġpersu ade
Ġrun s
Ġtoile t
Ġto ol
la w
ĠH ar
ash ion
Ġpie ces
y ear
Ġcomm itted
Ġclean ing
ĠSatur day
Ġpos itive
g ers
ic ago
Ġgood bye
Ġrem ained
m ates
at ives
ĠT ur
Ġput ting
Ġclass room
Ġref use
a ld
Ġbr ave
Ġdis p
ĠâĢ ĵ
ĠMuslim s
Ġdivor ced
Ġmotor cy
Ġgl ob
Ġgr ateful
Ġdoor s
ĠCh icago
Ġb es
Ġh omes
Ġcor on
Ġtrave ling
Ġannoy ed
Ġanx ious
S ee
ic ated
Ġst airs
Ġapp eared
Ġbig gest
Ġreg ular
Ġthe ory
Ġnot e
iz ing
Ġcost s
Ġprofess ional
Ġh ug
Ġsc rat
ĠItal y
ĠItal ian
J apan
k y
Ġh orses
st and
ain t
Ġacc ent
Ġs ons
Ġc ivil
Ġso cks
Ġpro ve
Ġpr ices
Ġreal ity
ĠEurope an
omed ay
Ġglo ves
Ġg ym
ig r
Ġidi ot
A b
l ished
Ġh ole
iv al
ĠEng land
Ġpark ing
Ġclos er
n am
Ġa stron
Ġd ent
Ġcare less
Ġ1 00
Ġspend s
Ġcris is
B er
ha med
Ġg ro
Ġr ate
ip l
Ġadvant age
Ġp ants
Ġth ick
Ġmist aken
Ġsil ence
Ch ildren
Ġcig aret
Ġf ill
Ġloc ated
Ġtransl ation
Ġcap t
Ġtemper ature
Ġmir ror
an a
Ġl ad
Ġsc ene
Ġcont r
Ġsec urity
ĠCanad a
u k
z en
Ġp ic
Ġst raw
Wh ile
Ġacc ess
ĠIntern et
A cc
h ib
Ġn one
Ġv an
Ġinc red
Ġsal ary
Ġcarry ing
Ġch ose
ass es
em ber
Ġ Don
Ġp age
Ġh ost
Ġact ion
Ġfami liar
aff es
Ġmotiv ated
a pped
ar ily
Ġp ushed
Ġbl ank
Ġsold iers
Ġpossib ly
Ġhorri ble
A r
Ġh ij
Ġcomp an
ĠIs rael
ĠChrist ian
Ex c
het ic
Ġh ire
Ġact ed
Ġansw ers
Ġcent er
Ġadop ted
i xt
Ġsa f
Ġtr uly
Ġshould er
av irus
Ġdoc ument
Ġless on
ĠYou T
Ġmag n
Ġrelig ious
Ġbelong s
W ait
Ġw it
Ġy en
Ġcon struct
Ġcont rib
Ġfool ish
Ġd are
Ġf ant
id s
Ġroom s
Ġmod el
Ġfla g
Ġexperi enced
Algerian s
" ,
p ed
w ise
ed s
Ġre lie
Ġst at
st it
Ġas hamed
Ġcan cer
ĠA t
Ġthought s
Ġgu ests
Ġkil omet
al ed
Ġcour t
Ġdivor ce
Ġmeth od
i ally
p ir
Ġthe e
Ġg ate
Ġha m
Ġexam ination
Ġh oney
Ġgr abbed
ĠT r
Ġfin al
Ġkeep ing
Ġreg ard
Ġrecogn ized
Ġpu zz
Ġsu icide
Ġdet ect
Ġneighb our
Ġresp ond
Ġborrow ed
Ġa st
Ġan cient
Ġearth qu
K aby
Ġco ach
Ġdis ag
Ġval ue
i ents
m ber
Ġs ke
Ġc ities
ar ies
if f
Ġvisit ing
Ġcap able
Ġprev ent
Exc use
ol ution
Ġsm o
Ġill ness
Ġdeg ree
C all
Ġint ention
Ġbl ock
Ġrep air
Ġvide os
L ove
Ġst ared
Ġele v
Ġfing ers
Ġcomplic ated
N one
Ġa verage
Ġm ix
ar row
Ġh ill
Ġp ill
im p
im ate
Ġcom b
ort ug
Ġright s
pt ion
Ġdestroy ed
Ġl it
Ġun b
um n
Ġshow s
Ġpolice man
Ġpropos al
b age
s on
Ġlove ly
Ġdes ire
Ġcop y
Ġpic nic
Ġsm arter
Ġche m
Ġspir it
ĠYouT ube
g ency
or occ
Ġp or
Ġwh is
ĠM ars
Ġrem oved
Un fortunately
Ġfre qu
m et
S p
Ġtr oub
Ġgener al
ĠRuss ia
t he
Ġf urn
Ġacc ording
Ġdam age
han ge
iet y
Ġdef end
Ġsal es
Ġir rit
Ġtrad ition
Ġhij ab
Ġl at
ester n
Ġcoron avirus
n al
Ġc hat
ur ance
Ġstart s
Ġswe ater
Ġterm s
Ġd om
Ġb ud
il ities
Ġstrong er
Ġcamp ing
Ġintern ational
m ate
r an
Ġr ang
Ġgreat est
Ġpower ful
Le ave
ĠM ay
Ġpass ion
Ġcook ed
Ġmatter s
Ġjoin ed
Ġp ort
Ġdist ur
Ġgradu ated
S ha
f act
Ġa unt
Ġr ab
ive ly
Ġrem ark
gr ound
Ġunc om
Ġcon ce
Ġcol our
Al though
Acc ording
Ġs ac
Ġbet ray
pe cially
Ġeng aged
Ġbat tle
Ġfail ure
Ġenem ies
P l
c ast
g ent
Tom orrow
at in
Ġse es
Ġle an
Ġatt acked
ab ility
On ce
Ġsy mp
Ġclaim ed
Ġpotato es
ĠBrit ish
Ġmotorcy cle
Ġb ased
Ġme l
Th ree
Ġcross ed
a ving
Ġhe aven
Ġth ief
Ġadd ed
ill y
em ploy
olog ist
Ġsal ad
Ġpolit ics
Ġfac ts
Ġspec ies
om s
ar ian
Ġpass en
ĠAlgerian s
Ġlead er
Ġentire ly
Ġsuff ering
Ġaband oned
in c
Ġf al
es us
Ġe ager
Wh ose
Ġag gress
Ġno on
ag ing
Ġcoo per
Ġilleg al
ess ion
Is lam
Ġfl ood
Ġchild hood
Ġpat ience
Ġfle w
b ered
m ith
is ions
se qu
il es
Ġsp r
Ġde fe
Ġar r
Ġqu ar
Ġstr ict
ward s
Ġdent ist
in ct
Ġchan ging
Ġinter view
Ġmed ical
Ġapolog ized
Ġmagaz ine
Ġuncom fortable
A pp
R ead
Ġl ent
Ġpl ate
Ġbu ried
Ġsell ing
Ġintrod uced
u x
Ġt ask
Ġthe ater
Ġb ite
Ġfind ing
Ġpartic ip
Ġcous in
Ġt end
Ġcomm and
Ġkiss ing
Ġter ror
Ġproduct s
hem at
Ġsurf ace
p re
Ġs omeday
as ion
Ġn ap
al y
Ġgrow n
Ġphot os
ma le
Ġscream ing
Ġbri ef
Ġhig her
Ġoppos ite
Ġsa le
ĠP h
Ġstreet s
Ġtast es
Ġir on
ex ic
Ġsqu ir
Ġiss ues
k ay
n ow
Ġr ise
Ġhum ans
Ġtransl ated
Ġdisapp eared
Ġarg uing
kn own
Ġh ob
Ġrem ains
Ġunderstand s
Ġbase ment
u its
an ger
Ġf irm
all ow
Ġdown stairs
Ġend s
Ġmil itary
Ġtou ched
m in
y ard
Ġa im
Ġst ub
Ġfind s
Ġche ek
Ġser ved
Ġclos et
Ġaud ience
Ġ ut
Ġf ence
Ġp ush
Ġo be
Ġcare er
ĠP r
Ġfin an
Ġcr ack
Ġwrit er
D uring
z ed
Ġg if
Ġr ough
il os
ul ty
Be fore
Ġcur rent
Ġsaf ety
s c
w are
Ġpart s
Ġtrust ed
b its
f a
r and
w ord
Ġt ent
Ġsa ving
Ġexp ert
Ġsmell s
Ġfort une
Ġli ber
ip ed
ĠK ing
Ġreason able
Ġind ivid
eb ook
Ġcomplain ing
Ġdevelop ed
r ance
Ġnot ebook
Ġj am
Ġhead ache
Ġconf idence
Ġsol ar
Ġescap ed
Ġt ail
Ġthan ks
Ġbel ow
Ġes pecially
Ġrid ic
Ġclim bed
Ġdire ction
Ġthousand s
a ffe
Ġapp ly
Ġperm it
Ġcrim inal
o x
Ġd rew
Ġb ound
ur se
Ġact or
Ġcomplain ed
Ġcast le
e ed
os es
Ġcomple x
Ġbur st
k er
Ġp ig
ic ient
Ġcon ference
ĠS outh
ĠP al
ĠP ortug
Ġce re
Ġachie ve
ipl om
P ol
s ing
Ġd ouble
Ġsu ffe
Ġun us
Ġfe male
Ġdri ves
Ġrep ly
ĠW ar
Ġp al
Ġp il
Ġn aked
Ġres our
Ġask s
Ġcont ain
ĠN uja
pl ace
Ġsuspect ed
Ġben ch
Ġvar ious
Ġd ata
Ġm ic
Ġam used
Ġexc use
Ġsign ed
Ġg reet
ad es
ap h
ĠK ore
Ġwalk s
Ġrain s
Ġattract ive
Ġorig in
Ġwealth y
Ġc ave
ĠS e
Ġpo ll
Ġsha red
Ġ1 5
m y
er able
Ġc ro
ak er
ĠP resident
Ġfriends hip
Ġche st
in et
Ġdo ctors
Ġfor mer
Ġcan dy
ĠS h
Ġspeak ers
Ġche er
Ġche ating
Ġnum bers
Ġflu ent
Ġb aked
er ved
Ġf ashion
at ory
Ġsho ck
Ġterri fied
Ġtal ented
l ig
m osp
Ġm er
ak a
Ġgr amm
Ġsucceed ed
Ġproper ty
Ġyou th
as y
Ġqu ality
Ġsomet ime
Ġopt imistic
u ous
Ġs ink
Ġli ps
ĠS o
ra ft
Ġtrave led
Ġfact ory
Ġarg ue
Ġdeep ly
Ġbott om
Ġearthqu ake
orocc o
Ġd iplom
Ġg e
Ġsto ck
olog ical
Ġcoun ter
R em
j i
Ġwhe el
Ġdr um
Ġcle ver
Ġpur cha
Ġrom antic
Ġsuffe red
r uct
Ġun employ
ĠM y
Ġpol icy
Ġcha mp
Ġrece ive
Ġtempt ed
g s
ir ing
Ġwin ning
Ġfo ld
Ġpri ze
T urn
c les
f or
Ġto oth
Ġm all
Ġn urse
ch ing
Ġal arm
ud d
ob ile
Ġforg iven
Ġrele ased
Ġf ought
ri ger
Ġrel ated
Ġsign ific
R e
Ġd y
ir ts
Ġoff ended
Ġdes ert
Ġbo ots
Ġgrow th
Ġelect ed
Ġcre ate
Ġtot al
Ġglob al
f l
v ent
Ġl ower
Ġp ra
ver t
Ġre ve
Ġcom ment
ĠM exic
ra v
Ġro ll
ag ue
Ġact ive
Ġteac hes
Ġpret ending
Ġref riger
Ġins urance
pri l
C l
Ġt ap
Ġe ld
ac hing
all ed
Ġat mosp
Ġtr ade
Sh ow
w ing
Ġf urious
Ġp acked
Ġkn ock
Ġhead ed
Ġpron oun
he l
Ġtr ack
ĠN o
Ġrid ing
Ġequ al
Ġsour ce
h us
h ouse
l ied
v ard
im ent
Ġre ject
Ġro le
Ġbr an
Ġgir affe
ci ence
Ġstr uck
Ġfr idge
Ġrel ative
Ġdet ail
Ġgar bage
With out
Ġben ef
Ġorig inal
Ġru ined
Ġfavour ite
Ġobe y
Ġn u
Ġse vere
Ġso fa
el t
ĠR ome
Ġown s
Ġign ored
B ring
re r
Ġunderstand ing
Ġrep res
Ġstub born
M ore
t own
u ries
Ġth ri
ay ed
Ġde ar
Ġcond itions
Ġsurv ived
Ġjour ney
Ġcloud s
l in
Ġr ail
Ġde ce
Ġde light
ĠS c
ĠL et
Ġgr ou
Ġph ilos
Ġdep ends
Ġbag s
Ġall erg
Ġsm iling
Ġeff orts
Ġprov ide
Ġtur ning
Ġrap id
Ġske pt
ha b
Ġh o
ot o
Ġsw ore
Ġinc ident
Ġcur rently
Ġcond uct
Ġbur ning
s hip
Ġfor th
ur t
Ġhur ts
Ġoffic er
Ġcirc um
Ġfal se
E ach
r ation
Ġs in
ll o
ul ated
Ġfull y
Ġfig s
Ġincre ase
Ġcustom ers
Ġfif ty
Ġble w
A meric
m ail
Ġwe igh
Ġr ot
Ġcon ven
Ġmed ia
Ġhon or
Ġemer gency
G ir
b on
Ġs outh
Ġg ay
at ures
Ġturn s
Ġremem bered
Ġprep are
Ġtow els
Ġdevelop ment
Ġthreat ened
pri ate
c ut
c han
l or
Ġj e
Ġatt ended
Ġcons erv
Ġstand s
Ġwrit es
Ġhy p
Ġpor ch
ha ra
Ġsp o
Ġsp ort
el ve
ĠL atin
Ġdaught ers
Ġca res
Ġdiscuss ed
Ġste pped
Ġprofess or
Ġdeb t
Ġjour nal
Ġwit ness
ar a
Ġany time
Ġsc rew
Ġapp arently
Ġser ve
Ġair pl
Ġgrand pa
Ġsuff er
id ers
Ġst ret
Ġun w
Ġnow here
Ġsc ary
Ġmess ages
Ġmur dered
Ġpack age
Ġindust ry
Ġkilomet ers
c raft
it ure
as hing
Ġwe ed
ger y
Ġless ons
Ġrespons ibility
Ġsqu are
. âĢĿ
n ers
an c
ant ed
Ġj ew
Ġpa le
Ġstr anger
Ġown er
Ġlar ger
Ber ber
Ġridic ulous
Ġst yle
Ġcon sequ
Ġfl ash
Ġ1 2
Ġpleas ant
gl asses
Ġon to
ĠA pril
ol ar
Ġplay ers
Ġdec or
Ġcomm it
Ġdiffic ulty
Ġfrust rated
ĠHar vard
z er
Ġ et
Ġd ust
is c
an cy
Ġbe ard
Ġli f
Ġsh ook
Ġres ist
Ġmiss ion
Ġdisc ouraged
ump ed
Ġopt ions
Ġant i
Ġelev ator
is y
I D
m es
Ġ vers
Ġn orth
Ġn arrow
id ing
Ġst age
Ġst ress
ro at
Ġr are
Ġde af
Ġar ch
Ġro ses
so ci
Ġins isted
Ġagree ment
ĠUn i
Ġinclud ing
Ġsh r
ĠJ une
Ġro pe
Ġco ast
Ġoffic ial
Ġintrod uce
D r
e ah
Ġf aces
Ġre b
Ġat h
Ġr ic
ĠS al
Ġact ions
Ġelect ion
Ġappear s
Ġaggress ive
Ġrefriger ator
b l
u ese
Ġ Why
Ġf ra
ers on
Ġapp lic
Ġche ated
Ġmusic ian
Be ing
S pe
d am
Ġin fect
ain ted
Ġde le
Ġthan ked
Ġsha me
Ġcoll ap
Ġclim b
Ġbill s
Ġviol ence
Ġtour ists
w it
Ġg ain
Ġknow ing
Ġdec isions
Ġmat hemat
az z
v est
Ġli ar
Ġkn ocked
Ġj oking
Ġv irt
Ġconc l
Ġviol in
Ġrepl ace
ocr acy
Ġd ed
Ġy ard
ic ing
Ġare as
Ġsh orter
Ġhow ever
pect ed
Ġ19 6
Ġconver ted
ĠGree k
W omen
en gth
Ġpr oof
Ġconst antly
Ġchallen ge
E n
M an
Ġm ut
Ġgood s
ort hern
Ġaw ful
ĠG o
Ġdem on
cons cious
Ġfurn iture
Ġskept ical
Ġfe ver
Ġbec omes
Ġdown town
Ġmind s
Ġadm ire
Ġconc ent
Ġphys ical
Ġwis hes
ĠS mith
Ġpret end
Ġadv ance
ib ly
Ġma le
ĠSp ain
ik ing
Ġproper ly
Ġsteal ing
att oo
Ġsurr ounded
it or
Ġo dd
Ġshe l
Ġsy mb
Ġannoy ing
Ġparticular ly
Ġannoun ced
Ġinse ct
Ġt un
Ġt attoo
Ġd umb
us hing
Ġhelp ful
Ġgr ave
Ġpart ies
Ġimp ression
Ġla und
Ġocc up
Ġda ily
if orm
ell ed
Ġstr ang
Ġmin or
Ġest ab
Ġhesit ant
Ġoccur red
Ġstraw ber
Ġunus ual
hus i
g u
id ays
ad ing
ĠK y
ub lic
ĠD e
Ġsun glasses
Ġdream ed
Ġgener ous
Ġcance led
S m
in ate
Ġto ler
Ġhe ight
Ġnot es
Ġpl aced
Ġpr im
Ġbit ter
rown ed
Ġcorrect ly
Ġmention ed
Ġtechn ology
Ġp ity
Ġn uts
Ġmy st
ul ate
os en
iz es
Ġatmosp here
T ime
Ġp ow
Ġo w
Ġk ick
Ġlo b
Ġopen ing
Ġnear by
Ġunf air
Ġmater ial
Ġallerg ic
E ng
Ġf ake
ĠM ennad
uck y
Ġwar ning
Ġsmall er
Ġele phan
Ġwall s
Ġed ge
Ġcrowd ed
Ġdepart ment
Ġfinan cial
Ġs en
Ġs ite
Ġe p
st e
Ġexp ression
Ġad j
ĠR oman
Ġatt itude
Ġchar ged
H app
o ot
Ġm ouse
He llo
Ġjust ice
Ġwonder ing
Ġinflu ence
a ul
Ġf ond
Ġshe lf
Ġun iform
Ġcont ent
ens es
Ġpur se
Ġcreat ive
i ver
Ġd ess
ĠA b
Ġpe an
Ġimp at
Ġland s
Ġappear ance
Ġord ers
Ġsymb ol
1 9
H um
f ers
m ar
z ing
at hered
Ġsp are
aught er
Ġign or
L ear
r ite
Ġs illy
Ġl ines
ri al
He lp
ill ing
ust ing
Ġread s
Ġinc ome
Ġins ult
Ġlaw s
Ġdi am
Ġval u
Ġdeser ves
Ġattract ed
ĠPortug uese
re ak
Ġto ys
Ġp ier
Ġback yard
Ġtw elve
Ġsw itch
Ġpoin ts
Ġspl it
Ġbes ide
L ist
Ġp and
Ġh ugged
Ġr ack
ĠC ol
Ġatt ic
Ġcr ush
Ġkill ing
Ġcons cious
ĠCanad ians
r ate
Ġmis under
Ġmis erable
Ġdisag ree
n es
Ġp up
Ġsa il
ĠF or
ĠJ esus
Ġch osen
Ġpre vious
Ġsur gery
Ġje ans
o very
Ġp ounds
Ġo kay
ri g
Ġwor n
ather s
Ġgu ide
Ġsha d
Ġcomput ers
Ġcollect ion
ĠPal est
W atch
Ġwas ting
res p
Ġqu al
Ġcap tain
Ġreport ed
Ġenc our
y a
Ġn od
ver ty
Ġle ct
Ġcom fort
Ġsw ord
Ġpo verty
Ġpres ents
Ġhid den
Ġden y
Ġcop s
Ġyell ing
Ġign ore
Ġlab or
Ġc ong
What ever
Ġhapp ier
Ġsleep s
Ġgradu ate
Ġdeg rees
Ġpassen gers
B et
S e
Ġt ied
Ġs ixt
it ched
Ġun ex
ĠMon days
Ġob lig
Ġassist ant
Ġcompan ies
D es
S ay
Ġp ure
Ġli on
ad ays
ĠA m
Ġv irus
Ġchan ces
li able
Ġcons um
Ġset tle
Ġdist ract
lect ed
Ġindepend ent
F rench
h old
ar c
Ġtr ash
ear s
Ġschool s
Ġold est
Ġtrans port
Ġcal cul
Ġdi ary
Ġself ish
Ġlaund ry
b ack
w ell
Ġl ink
Ġp apers
ĠM orocco
Ġdec l
Ġbro ad
Ġsec rets
Ġquiet ly
Ġcelebr ate
Ġdess ert
d a
h ow
in ating
Ġb order
Ġg re
Ġswe at
Ġocc asion
ĠAfric an
Ġaut umn
Ġcitiz en
Ġimpat ient
p en
Ġw ra
Ġp ond
Ġun con
ĠS a
ang ed
Ġsupp er
Ġdraw ing
Ġplant ed
Ġfif teen
Mar ia
Ġemploy ees
Ġn et
Ġst ream
Ġcr uel
Ġclass mates
we ight
Ġsound ed
Ġnovel s
Ġairpl ane
ed ing
st ances
ul ations
Ġcomp os
Ġfami lies
Ġpun ish
Ġviol ent
Ġteen ager
p ack
Ġv oc
Ġover w
Ġfun eral
Ġrep ut
Ġtri es
Ġcol on
Ġwa ves
Ġg athered
Ġh om
Ġr ow
Ġbl ow
Ġtom ato
Ġexc iting
F in
et ic
ic les
ĠE ast
Ġtext book
Ġtax es
Ġstep s
i ant
Ġm ental
am ent
Ġco ck
Ġrem ove
Ġph r
Ġbill ion
Ġcre ep
Ġhist or
ĠInd ia
Ġperform ance
A ct
Ġal i
ul f
Ġwork er
ag ers
Ġpass word
Ġpun ct
Ġsuitc ases
Ġdirect ly
Ġelectric ity
Ġweap on
Ġirrit ated
H aving
M e
Ġt ip
it ect
Ġlo an
Ġrec over
Ġthrough out
P h
w rit
Ġb unch
Ġc her
am ps
Ġgo d
rom ise
Ġhome less
Ġad ult
Ġcont ains
Ġ1 6
Ġmin im
Ġref er
Ġcor rupt
Ġgif ts
p les
Ġpl ain
Ġex ec
Ġpre c
ĠO r
li ka
Ġbeg ins
ĠIs land
Ġca uses
sh irt
Ġdiscuss ion
Ġincre asing
Ġbark ing
Ġb are
Ġme re
out ef
ir a
Ġother wise
Ġtri al
Ġmajor ity
Ġdescri be
Ġrepe at
Ġnu cle
outef lika
c ous
Ġt ar
Ġw and
Ġbuild ings
Ġgen ius
Ġsix ty
Ġleg al
Ġdraw er
Ġhol idays
Ġrob bed
Ġscient ists
Ġgentle man
ĠUni versity
c ase
t es
w hat
Ġse ar
Ġr out
Ġso ap
Ġsell s
Ġexpl os
Ġlim it
Ġsli pped
2 0
o f
an o
ri a
um ber
Ġshow n
Ġrec ent
Ġtrain ing
Ġdan cer
cept ion
Ġele ment
Ġsol ved
Ġaccident ally
Ġopin ions
Ġflu ently
Ġstri ke
om y
Ġc ough
Ġv ain
ĠC O
ĠT an
Ġperson ality
ĠN ow
Ġadv ent
Ġuni que
Ġbeha ve
Ġcigaret te
S uch
n s
Ġt ense
Ġb ra
Ġc art
ot i
ann a
Ġsc are
Ġshow ing
iv ity
Ġhead s
Ġreg rets
Ġbox es
Ġpri or
Ġappro ach
Ġhob by
b oy
Ġc ine
Ġset t
Ġtop ic
Ne xt
Ġda wn
Ġhig hest
Ġfrequ ently
Sha ll
M en
Y eah
Ġf ile
Ġg ained
Ġh orn
ic ians
Ġme chan
Ġthere fore
ĠS y
ath s
Ġprom ises
Ġrain ed
Ġarch itect
Ġdiam ond
r ot
Ġw ound
Ġto y
Ġl ingu
Ġre ly
Ġsa ke
Ġpart ner
ĠIslam ic
Ġcol ors
Ġprod uce
Ġphot ograph
Ġmult ip
Ġconstruct ion
Ġgrandpa rents
Eng lish
g le
Ġb ul
ic hes
al es
Ġpl astic
itt ee
ag ger
Ġbr and
Ġbl amed
Ġstr uct
Ġev ents
Ġclot hing
Ġgener ally
Ġunl ucky
Ġcitiz ens
B l
Ġt iny
er k
Ġm ud
Ġf og
Ġj unk
Ġmet ers
Ġsn e
Ġent husi
Ġsuggest ion
Ġwis dom
Ġweap ons
Ġvalu able
b um
o lf
Ġf est
Ġhe l
Ġan ge
Ġun re
Ġmake up
Ġla wn
Ġpres ence
Ġsil ver
g en
s ive
Ġt i
in o
Ġbe gged
Ġse ats
Ġal tern
han d
Ġcom ments
ĠF in
Ġdis m
Ġact ress
Ġrequ ire
Ġincre ased
Ġindepend ence
Ġresc ue
Ġblank et
Ġmyst ery
3 00
T e
k in
Ġth roat
ot t
ch ool
Ġno isy
Ġapp lied
Ġfell ow
Ġtor t
Ġfoc us
Ġsac ri
Ġpil ot
Ġconserv ative
er ves
Ġsing s
Ġinv itation
Ġent rance
ĠUn ion
Ġsecret ary
Ġsex ual
e ath
t ies
Ġli qu
ut ions
Ġauthor ity
Ġintern et
Ġresour ces
t i
Ġre ven
ol ves
Ġdec la
ĠW est
Ġprep aring
Ġ5 0
Ġcustom er
Ġneg ative
Ġfant astic
Ġbetray ed
Ġmathemat ics
V ID
h i
m s
ort ed
Ġqu een
Ġbelie f
Ġbre aking
ĠH ol
Ġloud ly
Ġfuck ing
stand ing
Ab out
Ġsquir rel
Ġunemploy ed
Ġunex pected
P ro
Ġb oo
Ġfor b
ent er
Ġus eless
Ġ1 1
Ġhur ried
Ġscient ific
Ġbell y
F irst
s ion
Ġme als
Wh ite
em ic
Ġdan ced
Ġhum or
eal and
Ġma id
Ġconsider ing
Ġpersu aded
ĠZ ealand
Ġlat est
g on
w h
Ġr ushed
oun ts
Ġdis aster
Ġgr ade
Ġgr anted
Ġarri ving
ĠY ear
Ġrequ ires
Ġpost p
Ġorgan ized
Ġru in
List en
Ġsixt een
Ġreput ation
d own
m it
Ġro de
Ġbr ush
Ġremem bers
Ġve h
Ġtal ent
Ġimm igr
Ġord inary
Ġtradition al
Ġindivid ual
K en
Ġne are
Ġj og
og ram
ĠP ol
Ġmill ions
gar ian
Ġrob ber
Ġpu ppy
Ġmann er
C omp
Ġb omb
Ġm erc
Ġn ons
Ġha un
at hetic
ot ion
Ġst ro
Ġsp in
el ie
Ġar rog
Ġcont est
Ġbeg un
Ġ19 8
Ġpub lished
Ġgrad es
Ġimpro ved
Ġcompet ition
Ġfort un
eor ge
Ġslight ly
Ġinstruct ions
C he
a ired
Ġthe rap
Ġh iking
ur d
Ġpre fers
Ġsk ills
erv ation
Ġabs or
Ġfield s
Ġaut om
Ġdoc uments
Ġsear ched
Ġl ength
Ġin str
le x
Ġtr ap
ĠB ible
ive red
ĠW estern
Ġconf essed
Ġexc hange
Ġsub s
Ġdem ocracy
Ġstate ment
bo x
Ġliter ature
Rem ember
Ġeld er
Ġgrou ps
u ine
y al
Ġc ases
Ġo x
st ick
ro l
Ġen velop
Ġimag ination
Ġsandw iches
Ġur gent
ĠTh urs
Ġpoin ted
Ġcand id
N ew
b ly
Ġl oose
Ġg or
Ġst ates
ast s
Ġover weight
Ġwat ches
ĠT ues
Ġper haps
Ġdifferent ly
Ġhuman ity
Ġclim bing
Ġcine ma
Ġst un
Ġfor ces
Ġit em
Ġdis s
Ġche aper
Ġsurpr ising
Ġvac c
on se
ac ts
out hern
ter ing
Ġinv ented
Ġser ies
Ġhun ting
Ġkid ding
Ġtreat ment
ĠMar ia
Ġsmo oth
g in
k rain
Ġ When
Ġd im
Ġn a
ot ic
Ġst ays
Ġwh ist
Ġmet al
Ġgreat er
Ġsent enced
Ġdep ression
Ġer ror
go ing
Ġoper ation
Ġghost s
Ġs ides
on a
Ġm obile
or rect
Ġgo als
Ġmy ster
Ġal bum
Ġexpect s
Ġass ign
Ġins ane
Ġ19 7
Ġpur s
Ġneg oti
Ġhomes ick
allow een
Ġreject ed
ĠCO VID
C on
H old
Ġw ounded
Ġh i
ut ch
Ġwhere ver
iss ed
Ġplan ets
Ġdisapp ear
Ġresp onse
Ġdiv ided
Ġlean ed
Ġdemon str
C ats
E m
R uss
c est
m ony
Ġas soci
Ġbl ess
ĠO s
Ġadd ition
Ġbaby sit
Ġmem or
Ch ina
Ġsusp ended
Ġemot ional
Ġrab bit
Ġcooper ative
ĠKy oto
er o
Ġre liable
ĠJ uly
ific ation
Ġheav ily
Ġdisappoin t
Ġlect ure
F ather
M uslim
r im
Ġp ink
ĠO n
Ġcr ash
Ġswim mer
Ġref orm
Ġyell ed
ĠQ ue
Ġdam aged
Ġprin cess
Ġmic ro
he art
Ġas ide
Ġal p
Ġsee k
ann ed
Ġcl ar
Ġbl o
Ġbeing s
Ġsn akes
Ġsince re
Ġdire ctor
Ġpuzz led
Ġpill ow
Ġwra pped
oo p
pp ers
ĠS wed
Ġam bit
Ġbr ings
Ġnight s
Ġacc ustom
ĠH un
Ġsl am
Ġbreat he
Ġintellig ence
Ġmeas ure
Ġcircum stances
A h
m ic
Ġb ab
Ġsc reen
Ġstr ate
Ġtre as
Ġra w
Ġfac ing
Ġoverw hel
A d
B u
Ġp in
Ġo ven
Ġth rown
ac le
ist ry
Ġown ed
Ġland ed
Ġopt ion
W rite
w ood
Ġm ask
Ġn ations
ad a
Ġj azz
ge ous
Ġsome what
Ġspe ll
ĠC al
Ġlast ed
Ġmay or
Ġmedic ation
Ġcommunic ate
apt op
Ġenvelop e
Ġg ather
Ġkn ee
ge on
Ġim age
Ġgu est
Ġput s
Ġ1 4
Ġrep aired
Ġdeal ing
Ġsecond s
Ġcous cous
Ġconver t
Ġgramm ar
Ġjew el
Ġconsequ ences
Ġ eth
Ġd ict
Ġl aptop
Ġg ang
Ġg az
et ch
Ġr ush
Ġtr unk
ol ic
Ġchan nel
Ġcomm ittee
Ġent ertain
Ġca f
Ġpolit ician
Ġmag ic
Ġaccomp lish
Ġtool s
ĠTur k
Ġcere mony
Ġphilos oph
a res
e br
r ast
he w
ha i
Ġc raw
Ġbe lt
Ġj un
Ġv ot
Ġro cks
Ġkind ness
Ġfr uits
Ġrel atives
Ġgi ant
Ġmos qu
Ġproduct ion
Ġess ential
Gir affes
r ict
Ġd ated
ar ant
Ġsp ider
ĠB l
ĠB udd
ĠC on
Ġ1 3
Ġyoung est
Ġset ting
ric ult
Ġdoll ar
Ġmot ion
Ġlead s
Ġhundred s
Ġsymp athetic
Ġlob by
b rew
j ud
m ind
v ant
ĠJ ane
ĠM arch
Ġcons ult
Ġsign s
Ġexist ence
ĠThurs day
H i
l ace
s pe
Ġ X
Ġf ate
Ġsh ift
ĠA ll
Ġshould ers
ĠJ an
ĠM ed
Ġ2 5
Ġsk irt
Ġsn ake
ever al
Ġrain y
old ed
Ġbreat hing
Ġrepl aced
ograph y
Ġunl ocked
Ġnucle ar
M om
Ġs que
Ġd uck
es ome
Ġan cest
ur ry
Ġcomp ared
Ġsc en
Ġtrain ed
Ġdoub ts
Ġhor ror
Ġbeat en
Ġprov ided
Ġincred ible
o ff
u fact
as p
ly mp
alk ing
Ġad ults
Ġinterest s
oc rat
Ġinform ed
Ch rist
Ġeffect ive
Ġbal ance
Ġrelie ved
Ġmix ed
Ġtroub led
ĠTues day
T atoeba
b ow
r id
Ġ i
Ġt ire
Ġb ars
Ġgo at
ĠP lease
Ġmin ister
Ġprincip al
Ġsignific ant
om pl
ic ip
Ġint im
ĠM in
Ġacc ur
ĠH alloween
Ġimport ance
Ġexper iment
Ġrestaur ants
Al most
en er
Ġsp ite
Ġbl ocked
Ġroom mate
Ġrec overed
Ġmass ive
Ġrelax ed
Ġsepar ate
Ġshout ed
Ġast on
Ġaccustom ed
k ward
Ġs ir
Ġkn ees
ook ie
ab or
Ġor bit
Ġover come
Ġaw kward
Ġir re
Ġer r
Ġaffect ed
Ġrelative ly
G u
it able
or ough
us ive
Ġperson ally
Ġpass ing
Ġcons ists
Ġweekend s
Ġappro priate
Ġfro zen
Kaby lie
Ġpand emic
w ater
Ġd ried
ri an
Th ink
Ġv ase
iz zy
Ġsw am
Ġacc ompl
Ġ1 7
gg ing
Ġdress es
Ġgener ation
Ġtext ed
Ġsens itive
Ġna ive
J im
O K
S everal
Ġw ha
Ġf ol
ac her
ib i
Ġmove ment
Ġca using
uc ked
Ġarg ued
Ġrepl ied
Ġscient ist
Ġbas ic
Ġrum or
Ġcapt ured
Ġnons ense
I nd
M other
p ite
om as
Ġsh ore
ag het
Ġgr ap
Ġfl ies
When ever
Ġapp eal
Ġhead ing
Ġtall est
ja ia
Ġvict ory
Ġinsect s
aghet ti
O pen
on est
Ġc aut
Ġpr ide
ath y
ĠO lymp
Ġfar mer
Ġadv ise
Ġred uce
Ġgrow s
Ġbot hered
Ġris ing
Ġdev il
Ġbother ing
oph one
Ġpainting s
Ġvolunte er
G erm
S A
l ings
Ġsp ect
Ġex agger
ast y
Ġlo ver
Ġgr ay
Ġimp act
Who ever
Ġtrain s
Ġchar ming
Ġheart b
Ġbat tery
Ġcross ing
Ġenc ouraged
Ġextra ord
Ġrac ist
Ġreact ion
j am
Ġb one
Ġp ess
Ġan k
ĠA re
os aur
Ġv ul
Ġkill er
Ġind eed
Ġpat ients
Ġsold ier
Ġconst ant
Ġdetect ive
B aya
h y
Ġ ing
Ġs ore
Ġd rowned
Ġst aff
ab ul
Ġch ips
ck ets
Ġpe el
ĠN or
Ġposs ess
Ġsoft ware
Ġcance l
W ater
Ġ White
Ġp ressed
Ġn ic
Ġbe ars
Ġfor med
Ġtr apped
Ġv oted
Ġint ent
Ġman ufact
Ġqu arter
Ġgu arant
Ġmost ly
Ġachie ved
Pol ice
Ġrepres ent
Ġrapid ly
Act ually
r ont
in ts
on ic
Ġf art
am s
op her
Ġun p
Ġun known
ĠJ ust
au c
Ġcr ashed
ens ion
Ġmiss es
ĠU krain
St ud
Ġdark ness
Ġcow ard
Ġneck lace
Ġcarp et
Ġlad der
Ġchem ical
Des pite
' .
r ant
s p
u ght
Ġf rog
Ġwas ted
ill a
od ies
Ġwhe at
Ġun conscious
ist ent
Ġco inc
Ġtw ins
ĠT han
Ġdec ent
Ġdri ven
Ġfo x
Ġadv anced
Ġtrans fer
Ġchar ges
Ġsy m
Ġworry ing
Ġpost ed
Ġess ay
Ġapplic ation
a ult
v y
ed nes
st ead
ant a
ul ed
ĠK en
Ġsk ill
Ġpain ful
Does n
Ġeffect s
Ġengine er
Ġdel ivered
Ġflash light
Ġneare st
Ġhaun ted
Ġfortun ate
Ġw ings
Ġw olf
Ġl ugg
Ġp ed
Ġp ork
am ing
Ġbl ond
ĠHe brew
Ġlead ing
Ġrespect ed
Ġlim ited
Ġbott les
Ġbow l
Ġdia lect
Ġpup ils
ĠPalest in
Ġminim um
Ġexplos ion
Ġlugg age
R ec
a id
i at
t ar
Ġ Where
Ġto ast
Ġm ort
Ġh ook
Ġbe ating
Ġe ase
Ġpl at
and al
Ġag es
age ment
Ġad vert
ĠP l
Ġgir affes
Ġsho e
ĠH aw
Ġlight ning
Ġinter rup
Ġinter pre
ĠJew ish
Ġdefe at
F ind
o j
o ly
Ġw ave
Ġd izzy
Ġm ent
Ġc as
Ġc ode
Ġg rav
Ġn orthern
if orn
Ġabs ence
Ġsnow ing
Ġcent re
Ġwood en
Ġrecomm ended
S c
i ber
o es
Ġd il
is hes
Ġp ages
Ġv o
ĠL e
Ġaw esome
Ġpri est
Ġform s
Ġbutter f
Ġincred ibly
Ġbran ch
D ad
Q u
u a
Ġn urs
Ġth orough
al t
Ġex ists
Ġpro ved
Ġwait er
ang es
Ġrem ote
Ġstop s
Ġmem ories
ĠEgypt ian
Muslim s
L ike
S oon
Ġa id
an as
ve y
Ġsa x
Ġch ief
Ġback pack
Ġour s
uct ion
Ġdifficult ies
Ġca fe
Ġce iling
Ġappro ve
ĠSun days
Ġste ak
Ġaccomp an
Ġdisg usting
Ġastron aut
stit ute
ĠMexic o
hab et
Happ y
Ġhel met
ĠHol mes
p es
Ġt it
Ġp ipe
as ks
Ġha st
Ġis ol
Ġgo ds
ro ph
Ġse m
Ġr at
ĠD utch
Ġbit ch
Ġcomple ted
ph ones
Ġdev ast
Ġshoot ing
Ġinvestig ation
Ġcontr ad
Ġow es
Ġambit ious
iforn ia
E at
c ope
Ġd er
Ġb itten
Ġst amps
ul a
ĠB r
ist ics
ous ly
ud ed
Ġro lled
Ġco ins
Ġsupp ly
Ġsha lt
ĠW ednes
Ġgen uine
Ġopp on
Ġprot est
Ġregret ted
ĠTr ump
Ġdiplom atic
Ġded icated
Ġnod ded
ĠOs aka
abul ary
B ill
Ġf iction
en ess
Ġin it
al ent
Ġv ast
Ġexp and
Ġcr imes
Ġter rit
Ġprop osed
Ġ4 0
Ġspec ific
Ġregular ly
Ġelephan t
Ġforb id
" ?
g ain
Ġw anna
Ġs arc
Ġl amp
Ġre ward
Ġsa iling
ĠC ar
Ġpr ince
Ġwat ers
ĠG u
Ġres ident
Ġass ured
Ġcut ting
Ġlead ers
Ġnewsp apers
Ġprev ented
Ġmann ers
App arently
Ġvoc abulary
ebr uary
Ġle mon
nd er
ol ve
Ġide al
ĠBer lin
Ġclass ical
Ġob st
Ġhold s
Ġgun sh
Ġtyp ical
Ġpoll ution
M oney
Â ł
Ġw ig
Ġg reed
Ġin her
le y
Ġre ck
st ore
Ġsp aghetti
Ġun e
ud den
Ġbu cket
Ġtalk ative
Ġapp et
Ġcontin ues
Ġcup s
Ġchair s
Ġdev oted
Ġcell phone
ĠInd ian
Ġpred ict
Ġmeas ures
Ġet ern
Ġjewel ry
J ane
W ork
f all
Ġs ib
Ġn ail
Ġbut t
Ġcl in
Ġcha in
Ġadm in
Ġveget arian
Ġremind s
Ġactiv ity
Ġham mer
Ġpean uts
Ġsett led
ĠTurk ish
g ment
Ġw iped
Ġsp illed
Ġsupp lies
Ġsit s
Ġclose ly
Ġdeb ate
Ġble eding
Ġanx iety
Ġscrat ch
S ure
Ġp ays
Ġn ut
st ers
oo ps
ro ken
Ġhar vest
ĠR ep
Ġfour th
Ġris ks
Ġcow s
Ġthrow ing
Ġdescri bed
Ġmultip le
ogram s
h ole
k ind
u ise
u als
Ġt ag
is her
Ġb arn
ur ning
Ġman ip
Ġlo ving
Ġph ones
Ġmus h
Ġref uge
Ġhum ili
Ġdist ingu
Ġfollow s
Ġval id
Ġobs essed
Ġpurcha sed
Ġfest ival
Ġdecla red
ĠJan uary
udden ly
Ġf uss
Ġst ink
Ġli p
os ity
ĠM id
Ġpr ime
Ġfl ed
Ġ2 4
pr ing
Ġvisit ors
Ġexc used
Ġins p
Ġroad s
Ġsupport ive
Ġinvest ment
oll ey
Ġcharac ters
Ġ200 4
ĠBrit ain
Ġfoc used
Ġvictim s
Ġbud get
Ġath let
Ġgor geous
C le
O ver
i ation
Ġha bits
Ġe uro
Ġst ew
ke ep
ro ll
Ġfl ir
Ġfl our
Ġexpect ations
iet h
Ġsol id
Ġtast ed
Ġsend ing
Ġappreci ated
Ġhell o
Ġearn ed
ĠTur key
Ġarr ange
Ġshad ow
Ġdistract ed
Ġgre y
Ġalp habet
Ġmush room
r is
Ġ u
Ġ His
Ġc ared
es h
Ġwor ries
Ġv olley
How ever
Ġqu e
ĠO ne
Ġswim s
Ġadd icted
Ġuni vers
Ġcult ural
lo ad
Ġpray ed
Ġliter ally
Ġgreet ed
Ġtar get
ĠHun garian
Ġphilosoph y
N A
p ts
x ic
re ls
Ġp ills
all ey
Ġar med
Ġinc orrect
Ġsun ny
Ġterri bly
Ġtext ing
Ġcompet itive
Ġtyp es
Ġconnect ed
ĠHow ever
Ġdele ted
S u
Ġw est
Ġd row
is a
Ġg al
Ġwe b
Ġse ction
ct ic
Ġcom ic
res pect
ious ly
Ġsk ating
Ġtrans form
Ġexam s
Ġfall s
Ġstore s
Ġbri ll
Ġpoem s
Ġsen ior
Ġtreas ure
ĠCal ifornia
c oming
i vers
o ons
Ġs ou
Ġs orrow
er ous
Ġc rew
Ġan al
Ġse as
ce mber
ist an
Ġv ir
Ġag ricult
Ġlet ting
Ġsc ore
Ġgun s
ĠAs ia
Ġident ity
Ġdesign ed
Ġsearch ing
ĠBudd h
S uddenly
a ire
y e
Ġw id
Ġm al
Ġn asty
Ġst abbed
We lcome
est ic
Ġint rig
ĠM a
ĠM os
Ġexp ressed
ĠC D
ans l
Ġact s
angu age
ug ust
Ġpick ing
Ġexcept ion
Should n
Ġindust rial
Ġamb ul
ĠSal ima
Ġpow ers
mind ed
Ġank le
ĠWednes day
Ġvolley ball
Ġp itch
Ġso il
Ġint ense
ound ing
Ġch op
ck now
ĠM ira
ĠC ity
Ġcomp lim
Ġdis pl
Ġbuy s
ĠG reat
ĠP e
ĠP ro
Ġper man
Ġfore head
Ġdemand ed
Ġsne ak
R es
is p
Ġl ung
it an
im ately
Ġgo ats
Ġcon qu
ĠF ebruary
Ġnow adays
ĠC ath
Ġmo ves
Ġph oned
Ġpain ter
Ġsit u
Ġanswer ing
Ġsub way
Ġren ted
Ġpot ential
Ġincl ude
Ġbull et
ĠBe jaia
Ġcab in
ĠKore an
Ġdelight ed
Ġshel ter
Ġestab lished
Ġa cknow
Ġb ac
er ry
Ġn ails
at ically
Ġth under
Th ough
Ġback ground
Ġsha king
Ġsn oring
Ġlist ens
Ġ20 2
Ġmen u
Ġhor iz
Ġsafe ly
Ġpract ical
Ġequ ip
Ġskin ny
Ġemot ions
Ġdeli ver
cher s
Ġut ter
Ġstrang ers
Ġpunct ual
Ġintim id
I m
i que
m ark
Ġcan dle
Ġout do
ĠB outeflika
ie ce
ĠM oses
Ġcar bon
Ġgr ab
Ġsha ke
Ġhat h
Ġhat s
Ġconst it
Ġresc ued
Ġconven ient
Ġvers ion
Ġarrog ant
Ġvo ices
Ġp i
ig hed
Ġbr ace
Ġpa rent
Ġpo ker
ĠY id
ific ial
Ġcollect ed
Ġver b
Ġconnect ion
Ġcommunic ation
Ġcarp enter
p ered
u ces
y l
as m
Ġg amb
Ġbe ans
le ction
up iter
Ġex hib
Ġpro hib
Ġen orm
ra ham
Ġco in
Ġsw itched
Ġpo ckets
av y
ĠV en
Ġnorm ally
Ġorgan ization
Ġgold en
Ġlock er
Ġaffect ion
G r
Ġt ank
Ġs ed
Ġb ent
Ġb ass
al m
Ġsa uce
Ġte ar
ĠB ar
ĠF u
itt y
Ġfun ction
Ġser ving
Ġsto ve
Ġdream ing
ony m
Ġrepe ated
por ary
ruct ure
Ġunw illing
Ġjog ging
Ġambul ance
A ust
a wn
b ur
Ġ ...
Ġt id
re te
Ġl ux
Ġte les
ol es
Ġvis a
Ġgreat ly
Ġem br
Ġdisc over
Ġconc er
iet nam
Ġprotect ion
Ġ3 00
orth y
har m
Ġobject s
Ġphys ics
Any one
Ġ199 0
Ġcand les
Ġthri lled
Ġreven ge
Ġaccompl ished
m ade
Ġl aughter
Ġdo zen
Ġst ing
Ġsa v
Ġshe ll
ĠE l
ĠE aster
Ġwin s
ĠN ot
ĠN ational
Ġdisc ount
Ġind ic
Ġprod uced
Ġsuper ior
Ġoffic ials
cha ir
Ġban anas
Ġbal con
ĠDe cember
Lear ning
Ġpunish ment
Ġjun ior
ĠHaw ai
U se
i ro
w ar
Ġto re
Ġf uel
Ġf ulf
Ġwe l
ent h
Ġse vent
Ġsp oon
Ġmus ical
Ġconv icted
Ġpost c
So ci
Ġren ew
Ġsle e
Ġpeace ful
Ġpriv acy
Ġcous ins
Ġtor n
Ġpan ic
ĠJew s
5 0
S it
Ġb ones
Ġc ure
Ġn erves
Ġan g
Ġh itting
ay ing
Ġe c
im ated
Ġst able
Ġsh ining
Ġr ust
Ġr ug
Ġtr ail
os is
Ġim am
Ġcle ared
Ġvis ion
Ġhur ting
Ġinter rupt
land s
Ġbring ing
Sh ut
Ġtour ist
Ġactiv ities
Ġfasc inating
Ġcigaret tes
writ ing
F r
f ire
r ots
u cy
in ter
Ġc akes
an es
Ġg all
al i
st ep
Ġse ctor
Ġshe et
Ġle ather
Ġcon cept
ĠM an
ĠR om
Ġcha p
oin ted
Ġreg ister
Ġsy n
ik a
Ġant icip
Ġattempt ed
Ġti ger
Ġerr ors
Ġpess imistic
Ġbrill iant
B oston
H urry
S end
v a
Ġ ult
Ġs an
as ive
Ġe ast
ĠB ak
ĠB el
Ġup d
os y
Ġsome how
ĠE very
Ġdis like
Ġcons cience
az id
ef ully
erc ury
Ġbehav i
Ġcong rat
a ves
c ery
f ish
j o
Ġg ig
ac les
Whe ther
Ġatt ached
Ġprom otion
lic op
Ġaff airs
Ġcent ral
Ġcheck ing
Ġimag ined
Ġvar iety
Ġrev olution
Ġfasc inated
Ġfold ed
Ġange l
Ġmosqu it
Ġequip ment
Ġbalcon y
) .
C ar
f le
Ġw itch
Ġf ab
le te
Ġher s
Ġtr ump
Ġal ike
up s
Ġcom mer
ĠS ome
Ġor anges
Ġpre cious
Ġpre jud
ĠE m
Ġdec ades
Ġfood s
ĠY azid
Ġfool ed
Ġvol c
de rer
Ġadop t
Ġemot ion
Ġpoet ry
Ġremark able
Ġprec ise
Ġslam med
B ob
S cient
t ains
x icated
re g
Ġd ies
Ġc ries
it a
Ġn ick
Ġgo ss
ren cy
Ġag ent
Ġinto xicated
Ġgl anced
ĠN et
ord ers
ĠD ad
Ġpolit icians
Ġeduc ated
Ġassist ance
ĠIntern ational
Spe ak
Ġrobber y
ocrat ic
Ġextraord inary
b b
g ian
l ock
as ant
Ġg ender
un ched
op aths
ĠS ha
ĠC ha
Ġdis or
Ġsc andal
Ġsure ly
ord s
Ġconf l
Ġinf rast
Ġsun light
Ġtick lish
Ġdiscuss ing
Ġnecess arily
Ġmark s
Ġtrick s
Ġstat ue
Ġparticip ate
Ġveh icle
Russ ia
Ġto ne
Ġp unch
Ġhe licop
Ġbe ef
ĠB rown
and om
row s
Ġele ven
Ġdist ant
Ġtransl ating
Ġpract icing
Ġinj uries
Ġmur derer
Ġgrad ually
Ġmain tain
Ġunc ertain
Ġsuit able
Ġenv y
ograp her
Ġdirect ions
Ġest ate
Ġprim ary
Ġstun ned
Ġcoinc idence
O b
Ġs outhern
Ġb odies
Ġp ear
Ġbe e
ad an
Ġas se
Ġwor ship
il a
Ġfe ars
Ġover s
Ġdis respect
Ġsc rap
Ġsha de
Ġmon key
Ġfair y
Ġban ana
Ġchem istry
Ġcher ry
Ġdil ig
ĠFu ji
b ar
r s
w alk
Ġm ild
Ġc ust
Ġhe al
Ġn in
Ġst amp
ce l
Ġr ings
Ġdis ple
Ġaw ard
ount ain
ĠR am
Ġdec re
Ġdri vers
Ġfun dam
Ġmon ster
Ġsl ice
Ġcook ie
Ġbicy cles
Ġinst ant
Ġembarrass ing
Ġauthor ities
Ġfarm ers
Ġopportun ities
Ġdel ayed
Ġwa ved
Ġsepar ated
Ġarr anged
hara oh
Ġcaf eter
jam as
Ġsax ophone
Ġaccompan ied
F ew
L uck
ed ient
Ġl ap
Ġo d
Ġint ends
Ġsc i
Ġaw fully
Ġvis ible
Ġconf ess
ept ember
ĠV ietnam
Ġprison er
Ġappro ached
Ġforeign ers
oll ow
Ġring ing
Ġscream ed
Ġlift ed
Ġstrugg led
Ġmater ials
Ġmut ual
Ġtomato es
Ġheartb roken
d ers
o ided
x ual
Ġ Your
Ġt une
Ġin ha
Ġst ir
Ġfor k
Ġj ar
Ġde er
ĠC l
Ġcomp ass
ĠP er
In stead
be c
Ġexc l
Ġav oided
Ġclos est
Ġdevelop ing
Ġz ero
Ġrecord ed
ĠAn ne
Ġhy d
Ġdesp ite
Ġsales man
Ġdefe ated
Ġcheek s
Ġreve aled
Dr ink
Ġcollap sed
Ġlands cap
Ġconscious ness
Ġvul ner
O r
en a
Ġp ace
ĠI D
ac ity
ĠA ugust
Ġexp enses
Ġtw in
Ġgu ards
ĠG rand
pr ints
Ġhun ger
Ġwind s
Ġwar mer
Ġhair cut
Ġsun set
ĠThe n
Ġtem ple
ĠSp ace
Ġpray er
Ġearn s
Ġlevel s
Japan ese
Ġinfrast ructure
p ut
u z
or able
Ġp our
ri er
Ġne p
un is
la im
ĠM oon
Ġco al
Ġbr ushed
Ġhand writing
Ġinc omp
Ġdisc overy
work ing
Ġes c
Ġpack ing
Ġcritic ism
Ġgro cery
ĠKore a
Ġsarc astic
c ies
c uff
m ad
ha da
Ġin ex
ac ing
ch ildren
Ġr age
Ġv ent
ĠS ov
Ġcar ries
ĠC ent
Ġbl owing
Ġhar sh
iss ors
ĠG reen
Ġpret t
ĠW ashing
Ġfix ing
Ġpick y
Ġsystem s
Ġship s
Ġview s
Ġcrit ical
Ġresign ed
Ġstrugg ling
Ġdia gn
Ġscar f
Ġweigh s
Ġadmin ist
ĠSov iet
ĠWashing ton
J ud
c orn
Ġy og
id a
et te
ir ds
Ġr ange
Ġrec ipe
Ġpass es
Ġsn ee
Ġsub st
Ġcost ume
Ġdeser ved
Ġserv ices
Ġrev iew
Ġqual ified
Che ck
Ġplat form
ĠCath olic
Ġcafeter ia
H op
R ight
a ign
b reak
r ating
v able
Ġd ates
Ġm ile
it ated
ĠS eptember
Ġlong est
Ġlot tery
Ġbl og
Ġsha hada
Ġcount ing
Ġarri ves
Would n
umb led
Ġopp osed
Ġty ph
Ġinj ury
Ġremind ed
Ġmyster ious
Ġsym pt
i ar
w ife
Ġ era
Ġs oph
om ers
Ġd ough
Ġp it
ir med
Ġsh irts
Ġab use
art y
Ġor phan
Ġro ot
ag on
Ġsc olded
Ġac id
app ro
Ġshort ly
Ġdra wn
Ġrequest ed
Ġmer cy
Ġbenef its
wh ile
Ġelder ly
ĠQue en
ĠMid dle
Ġenorm ous
Ġbehavi our
Ġgoss ip
U nder
W ow
m are
Ġd ump
Ġst ones
ac ific
Ġpro ceed
Ġlo ad
ĠS at
ĠL ib
ag ram
ose ph
Ġvisit s
Ġarri val
Ġfig ures
Ġmod est
Ġtravel s
Ġeff icient
Ġstar ved
Ġintell ect
Ġur ban
Ġdeb ts
Ġfan cy
Ġlog ical
Ġlad ies
Ġbenef it
Ġappet ite
c ling
l ive
Ġa x
Ġf ans
Ġf aint
Ġhe athers
al og
st ood
ut o
Ġwant ing
Ġex ceed
Ġres in
ĠP aul
Ġbre ast
Ġfast est
Ġcomplain ts
Ġjump ing
chie f
Ġsmo ked
Ġstrawber ry
Ġstrawber ries
ĠSa hara
Ġsubs cri
Ġgal ax
ĠBak ir
Ġnep hew
f ree
Ġs ust
Ġto ss
Ġd read
Ġb ore
Ġpe pper
ag ne
Ġnight mare
ĠP haraoh
Ġstand ard
Ġart ificial
.. ."
lo aded
Ġund erest
Ġdepend ent
Ġadvent ure
Bu y
Ġclin ic
Scient ists
W on
w s
Ġd orm
Ġp ine
un ci
Ġwith d
Ġr andom
Ġen s
ite ment
ian ce
Ġbr ick
Ġhouse hold
Ġhand cuff
Ġprom oted
ok o
Ġhigh way
Ġset s
Ġpat tern
Ġpen al
Ġtemper atures
Ġfilm s
Ġtun nel
Ġstruct ure
Ġliqu id
Ġaccur ate
ĠRep ublic
H and
S w
in na
Ġd ug
Ġb orders
Ġm amm
Ġf are
Ġf ier
Ġy e
Ġp orn
Ġsp iders
ĠS w
Ġop era
Ġsur ren
Ġfew er
Ġsub ur
Ġpar rot
Ġclos ing
Ġserv ant
Ġburn t
Ġcamp aign
Ġpray ing
Ġrese ar
Ġstrugg le
Ġliber ty
Ġbab ies
Ġstrate gy
Ġconfl ict
Ġt ies
am al
Ġr ural
Ġlo yal
Ġdr ama
Ġsw all
Ġfa ults
Ġart icles
Ġtrave lling
Ġcent uries
Ġinst it
Ġinst inct
na pped
Ġexpl ore
Ġapolog y
Ġign oring
Ġcir cle
Ġtroub les
Ġencour age
Fin ally
Ġphr ase
oj ban
Ġvulner able
? !
H aven
M on
f ive
g age
er ior
Ġsu its
Ġtr oops
Ġsp y
Ġag rees
ĠJ ac
ĠM o
ĠM t
Ġdr ain
Ġsc issors
ĠT o
Ġhand led
Ġatt orn
ĠN ove
Ġdifferen ces
Ġass ault
Ġquick er
Ġpop corn
Ġappro aching
Ġbat ter
Ġrob ot
Ġnatur ally
Ġexperi ences
Ġcontrib ute
Ġorigin ally
zer land
wit zerland
Ġignor ance
Ġuncon v
Ġdisple ased
ĠNove mber
l ife
p ing
r ane
v is
Ġp harm
Ġn est
Ġth us
Ġsu ck
han ded
Ġex it
Ġout s
Ġhapp ily
ĠJ im
Ġla unched
Ġprotect ed
Ġski pped
Ġcelebr ated
Ġperform ed
Ġprincip les
Ġsque e
Ġgreed y
Ġflir ting
Aust ral
F uck
u an
om ic
Ġg um
Ġwas hes
ri e
Ġne at
od ed
est yle
ĠC omm
ĠR e
Ġkid n
Ġkid napped
Ġent ering
Ġwar ming
Ġfore cast
Ġbur gl
Ġsuff ers
Ġsched uled
Ġinclud ed
ĠBrazil ian
Ġconcl usion
Ġconcent rate
ĠCol umb
Ġdecl ined
Ġtit le
ĠRam adan
Hop efully
A dd
h op
w an
Ġb ald
Ġf oss
oo gle
You ng
ate ll
Ġpro sper
Ġbu g
Ġgr in
Ġres ervation
ĠP acific
Ġstr and
con t
Ġdes c
Ġcat tle
ys is
Ġpres cri
Ġadm its
work s
Ġsecret ly
Ġrecord s
Ġcontact ed
Ġrese mb
Ġpsych iat
Ġretire ment
Ġdistur bed
Ġignor ant
Ġforbid den
Ġsib lings
Ġtrump et
G l
Ġt ires
ou der
Ġd irt
Ġb un
Ġb art
Ġb anned
Ġm um
Ġp ir
Ġbe es
ĠI I
se c
Ġj ury
Ġun imp
and a
Ġcar rots
Ġcomp romise
Ġafter wards
Ġcount ed
Ġend ing
Ġsn ack
Ġconf irm
Ġcoll ar
Ġbreak s
Ġcor por
Ġstrong ly
hen omen
Ġpun ched
Ġallow s
Ġsupport ed
Ġcop e
Ġtow er
Ġshop s
Ġprofess ion
ĠAs ian
Ġchallen ges
Ġimpress ive
Ġrail way
Ġinsp ired
Ġnick n
Ġhelicop ter
A v
b ul
f oot
r ough
t ub
w orthy
Ġre ception
Ġcl iff
ĠC ong
ress ing
Ġdr am
Ġhar ass
Ġ2 1
Ġinv ent
Ġret urning
less ly
Ġref lect
St art
Ġexc han
Ġexc ess
Ġexper ts
Ġdead ly
Ġtest ed
Ġpur ple
Ġdest ination
Ġbull ied
ung le
Ġdemand s
Ġshout ing
Ġcho ices
Ġpronoun ce
Hum ans
Ġcreep y
Ġcorrupt ion
Ġinstr ument
Ġoverwhel med
ĠUkrain e
Ġunimp ressed
e el
s pect
Ġt ends
ha l
om in
om er
Ġd ial
ed y
Ġf aced
Ġp enn
us ic
Ġsh ots
Ġal ibi
ĠM ad
Ġunt o
ĠH ind
Ġexam ples
Ġsim pl
sh ine
Ġserv ants
Ġeight een
Ġlim its
Ġinnoc ence
Ġspir its
Ġhesit ate
ĠAt l
Ġmere ly
Ġoppon ent
E speranto
y gen
Ġb ond
Ġm ug
ar i
Ġon ions
Ġse eds
Ġqu ant
ick ing
Ġapp ointed
Ġsto pping
Ġexc itement
Ġtransl ations
Ġeng agement
Ġcamp us
Ġdel ay
Ġsaving s
resp ond
Ġgrap es
Ġguarant ee
Rec ently
t ained
Ġto xic
Ġb acked
Ġl un
Ġp henomen
Ġr ates
Ġpl ates
Ġsp icy
Ġcl oth
Ġbr ains
Ġsc ale
ĠT hai
Ġche at
Ġadd ict
Ġtest s
Ġsuggest ing
uc ing
Ġann ivers
Ġpian ist
Ġgri ef
Ġjournal ist
Ġaltern ative
spe aking
Ġperman ent
E ither
S chool
c akes
Ġp ad
Ġp ul
Ġp ist
st agram
Ġshe d
Ġso le
art ial
Ġback wards
ĠE d
Ġbl essed
Ġtw ent
Ġmust n
Ġmeet ings
oc key
Ġreg ist
Ġcor respond
Ġaccident s
Ġdist rib
eb b
Ġbath tub
Ġball s
Ġident ify
Ġwide ly
Ġsla pped
Ġrout e
Ġteles cope
C ut
f i
n ish
le ment
et ime
Ġst ressed
st an
Ġas pect
Ġj ungle
Ġtr a
ĠC la
ĠC har
Ġgu ll
li ament
Ġswe ets
Ġpar ad
Ġprod uces
Ġspace craft
Ġval ues
Ġfla v
Ġfif th
Ġdescri ption
Ġbas is
Ġscrat ched
Ġconven ience
Ġtoler ate
Ġmisunder stood
Ġintent ions
alent ine
Soci opaths
unci ation
rane an
Ġannivers ary
f y
i pping
w ide
Ġw re
Ġw ire
Ġto ns
it ate
or se
Ġh ood
id o
Ġtr ait
ig s
ĠJ ack
ra q
Ġover he
Ġover se
Ġbr ide
Ġbook store
Ġfl ock
Ġpa jamas
Ġconf irmed
Ġdin ing
Ġdep os
app ing
Ġsec ure
Ġheart s
Ġtrust s
itc hes
hen s
Ġtransl ator
Ġ19 4
Ġcur tain
Ġve ter
ĠFr anc
Ġpull ing
Ġbur den
Ġweak ness
ili pp
ĠChristian ity
Ġrelie f
Ġdistur b
Ġlif estyle
wit ter
Ġitem s
Ġclar inet
Ġprohib ited
1 1
C ont
f ight
r ise
Ġs ank
ha s
Ġf ry
Ġan aly
Ġin k
Ġk itten
od ern
Ġlo aded
ass y
Ġexp osed
ag ues
Ġri fle
ĠT unis
ĠO cean
ĠW ill
Ġconf ront
Ġass ert
Ġside walk
ĠIn stagram
Ġappro ved
Ġbank s
Ġrul ed
Ġbelong ed
Ġobs erv
Ġlos er
Ġdra gon
Ġdeli ber
ĠSe a
Ġcheer ful
Ġtap e
Ġinterpre ter
Ġcust ody
Ġattorn ey
B r
I vy
O ld
m ers
in cing
Ġs od
re p
Ġd umped
Ġb om
Ġc age
or p
Ġhe n
Ġre con
Ġsp ark
Ġcl ue
Ġch oo
ob ic
Ġpre m
Ġpre y
Ġover night
Ġhop eless
Ġgu ilt
ell y
Ġrec y
Ġelse where
Ġconc rete
Ġdef ense
Ġkey board
ĠMr s
aw a
Ġobs erved
Ġobject ive
Ġcreat ures
Ġfre ak
Ġacqu aint
Ġreve al
ĠMexic an
Ġvirt ue
Ġoccup ied
ĠAb raham
Ġpostp oned
Ġcandid ate
Ġing red
Ġeuro s
Ġtyph oon
f ice
in i
Ġs atell
Ġl ouder
Ġy ield
Ġin qu
Ġj erk
ul u
ast e
ast ed
ol ine
ĠJ upiter
Ġpe e
ĠM il
ĠM iss
Ġpart ners
ĠT e
og y
Ġwin ner
Ġrec all
ĠH ouse
Ġcook s
Ġra ising
Ġarg uments
Ġprof it
ik o
Ġimpro ving
iter ranean
Ġfle x
ron ic
Ġfaith ful
Ġscar ce
Ġknock ing
Sm oking
Ġenthusi astic
ĠHawai i
Luck ily
ĠJac ob
J ack
i ac
t a
in als
Ġb ake
Ġm and
Ġf ried
Ġal though
ul ting
ĠB ill
qu et
ber g
ĠM om
omet own
ĠC ould
oun e
Ġbl oss
Ġbus es
ĠG eorge
ĠN A
Ġcountry side
Ġdin osaur
Ġins ist
Ġloc ation
Ġrespect s
Ġobs erve
Ġisland s
Ġ6 0
Mar ie
Ġmir acle
Ġdise ases
Ġpoison ed
Ġmagaz ines
Ġpron unciation
Ġbrief case
Americ an
Ġrot ten
Ġali ens
ĠMed iterranean
keep er
ebb oune
C ons
D eath
r ous
Ġl acks
Ġn erve
Ġh ometown
Ġha mb
at is
Ġj um
Ġpl ot
qu ar
qu es
ard on
ĠJ ud
Ġri pped
Ġover d
ĠR ed
Ġsha ve
Ġmor al
Ġdrive way
Ġsun shine
Ġgrand children
Ġdeal t
Ġprison ers
oid s
head ed
Ġsatis fact
Ġenvironment al
Ġacqu ainted
Ġpuzz le
Ġric her
Ġinterrup ted
Ġdrow ning
Ġasse mb
Ġhamb ur
) ,
f it
g a
in er
Ġb ol
Ġb aking
Ġp issed
Ġsa fer
ch y
Ġv alley
Ġexp elled
Ġlet s
ĠG r
Ġper f
Ġfound ed
Ġexam ined
umb ling
Ġtre m
Ġappro x
friend ly
Ġconcern s
Ġdam n
Ġthank ful
Ġcollect ing
Ġrisk y
Ġcoun ts
Ġaband on
Ġspo iled
Ġali en
ĠMin ister
ĠThan ks
Ġterrit ory
step s
c ure
n o
o or
Ġa pt
Ġw ounds
Ġs ip
Ġb ache
er b
ar o
Ġp ant
Ġth umb
Ġse ed
ĠL ojban
Ġfl esh
Ġpa wn
Ġlearn t
Ġcr acked
Ġchar ity
Ġpresent ed
Ġreport s
Ġren ov
oll y
Ġcult ures
ĠAn ge
Ġur ged
Ġcance lled
Ġbi ology
Ġvolunte ered
Ġblo om
Ġintrig ued
L ittle
b es
i pt
l iness
t r
u ham
Ġw ink
Ġp oo
Ġhe els
Ġin appro
ad or
Ġtr im
Ġtr aged
han t
lp h
Ġv en
um es
Ġexp ort
Ġad apt
Ġhard est
Ġnum erous
av id
Ġclean er
Ġmess ed
Ġswe ep
Ġbar gain
vious ly
Ġprof ile
Ġheav ier
Ġdest ruct
Ġjud gment
Ġdisg usted
Ġteen agers
Ġcivil ization
Ġneighbour s
Em ily
Ġhoriz on
Ġfundam ental
Ġsympt oms
T ok
k i
o vers
u um
Ġs am
ot y
ĠI raq
ac ious
Ġse ated
Ġfe min
Ġwho ever
Ġro ots
Ġgr ace
Ġfin ed
Ġbusiness es
Ġfour teen
Ġsuggest ions
Ġcur tains
Ġgener ations
Ġchair man
har d
Ġfre aked
Ġrum ors
Ġpassion ate
ĠPh ilipp
Ġdrum mer
Ġchamp agne
Ġpra ise
Ġstret ched
Ġsacri fice
Ġunconv inced
M at
b ag
m oon
t il
t les
Ġw rest
Ġthe r
Ġp ump
Ġli ons
Ġkn ives
oo s
ct ions
Ġal right
ap s
ĠM e
ob e
ĠE x
Ġdis order
Ġsc at
Ġgl ance
Ġcame l
Ġcha sed
Ġrec overy
Ġconf using
Ġart ists
Ġext ent
Ġinst antly
ai wan
Ġforeign er
Ġlawy ers
Ġproject s
Ġdepart ure
Ġdepend able
Ġwhis pered
Ġcro ps
ste in
Ġadj ust
Ġinsult ed
Ġcompos ition
Ġmechan ic
Ġisol ated
Ġu pper
E d
T oo
p oint
u h
Ġt ables
Ġb ang
Ġf its
en cing
it als
Ġas pir
ter m
op s
Ġtr acks
Ġun mar
Th omas
ĠF ather
Ġch ip
itt ens
Ġco ats
Ġdec line
Ġatt acks
Ġmom ents
ump y
Ġcur rency
ĠV alentine
Ġinst all
Ġ201 9
Ġcal end
Ġguitar ist
Ġlow ered
Ġamaz ed
Ġkil ograms
co at
Ġdeli very
Ġpra ised
Cl ose
Ġinha bit
Ġt ren
Ġto es
Ġin con
ke ys
st orm
Ġtr ous
ĠA d
os ing
Ġcomp osed
Ġsch olar
ĠT witter
Ġperson s
Ġfr ank
Ġhun t
Ġsk ate
Ġdep th
Ġbusiness man
Ġexplain ing
Ġabs urd
Ġtest ify
Ġpast a
Ġpar an
Ġvac uum
Ġappro val
Ġbank rupt
uri osity
Ġprop ose
iling ual
Ġpair s
Ġdelic ate
Ġsens ible
Ġannoun ce
Ġdece ived
Ġdecor ated
Ġcollap se
Ġcough ing
Ġsacri fic
Ġox ygen
ĠSwed ish
Ġhumili ated
Austral ia
Ġbart ender
H un
a o
e xt
l ines
Ġd well
Ġthe at
Ġp ushing
Ġst iff
out s
ut ing
art ment
ĠAustral ian
Ġapp la
Ġmat ches
Ġsho vel
Ġbo ld
Ġquestion ed
Ġhum id
ric es
Ġdist inct
Ġfoot steps
Ġconsider ation
Ġoffic ers
erg art
Ġvolunte ers
Ġrub bed
Ġquar rel
Ġath lete
Ġinfect ed
Ġelement ary
Ġimmigr ants
Ġbutterf ly
Ġlux ury
Ġoverse as
Ġw ives
Ġw olves
Ġf ist
Ġl y
Ġn aught
Ġin ev
ab led
Ġsee king
Ġfe atures
ĠJ ul
Ġexp orts
Ġri vers
Ġad orable
Ġbr ut
Ġpr int
Ġbus h
Ġmo le
Ġstr ing
olog ists
Ġtri g
Ġfree zing
Ġins pir
Ġpract ically
Ġbeha ved
aw are
Ġcreat ing
Ġcelebr ating
Ġharm ful
Ġdra gged
Ġstat us
Ġdom estic
Ġblond e
Ġdevast ated
Ġfuss y
L ight
M ike
O ut
P ass
b ish
z es
Ġd ull
Ġb um
Ġo live
ĠI ran
ook ed
Ġun ne
Ġman sion
ĠS anta
ber ries
Ġri pe
Ġcomp re
Ġhar b
ĠG al
ĠD r
Ġsl ave
Ġreg ions
Ġexc uses
Ġconv incing
Ġmod er
Ġtast y
Ġdi ab
light s
Ġavoid ing
Ġcustom s
Ġdeterm ine
Ġchick ens
Ġsac red
Ġhistor ical
ĠTan inna
ĠFin nish
Ġtransfer red
Ġvolc ano
Ġpist ol
uham mad
L ong
s ha
t ail
Ġw ars
Ġw icked
Ġf ries
Ġne ut
ent ially
Ġsh ine
if ying
Ġus ers
um i
ĠS witzerland
ĠJ oseph
Ġch im
Ġspe lling
Ġbus ier
Ġche f
Ġmet eor
li est
Ġfr ame
Ġbed s
Ġsus hi
Ġgrand ma
Ġlaugh s
Ġz one
Ġrelationship s
Ġmanage ment
Ġwhis per
Ġbran ches
ĠSc ot
Bet ter
Ġtherap ist
heart ed
Ġdistingu ish
Ġwel c
Ġcalend ar
M usic
P romise
P rices
b led
e ff
g iving
p ret
u ate
Ġb in
Ġc ot
Ġf ountain
or ters
Ġse w
Ġab d
Ġtr icked
and er
la v
Ġco vers
Ġmo ons
Ġsur geon
Ġcont em
Ġkind ergart
Ġsn owed
St and
Ġsix th
Al ways
Ġcomplain t
Ġmain ly
Ġsex y
Ġben eath
ortun ately
Ġphys ically
Ġhall way
Ġoppos ition
Ġfant asy
Re ally
Lear n
Ġpier ced
Ġoblig ed
Ġthorough ly
Ġfier ce
Ġtrous ers
Ġunne cess
C o
F our
f ess
n is
p her
u are
Ġt ale
Ġp ets
Ġh ockey
us ions
ver ted
ic ies
al as
Ġat he
Do gs
ig en
ĠM al
ĠM art
Ġim ages
Ġsm iles
Ġunder w
iss ions
ĠP ona
Ġpo ly
Ġacc ounts
Ġdri ft
Ġhat red
Ġstand ards
Ġrece iving
Ġball oon
Ġste am
Ġsurv iv
Ġhol es
Ġstar ving
lo e
ij ing
Ġnational ity
Ġcontr ary
Ġmethod s
Ġdy e
Ġlif etime
Ġric hest
Hum an
Ġoccasion ally
stick s
Ġresident s
f our
Ġt ub
Ġc os
ing ly
ot hes
ad ium
Ġr ank
Ġle ak
Ġex ten
Ġun it
ol ite
Ġcomp are
Ġpol icies
Ġref uses
Ġinter fe
work ers
ĠSt ar
gr and
Ġtem porary
Ġbag gage
Ġ201 5
Ġste el
Ġrelig ions
Ġhonest ly
Ġ- -
Mr s
Ġ200 6
Ġ8 0
Ġalcohol ic
Ġhoney moon
Ġmushroom s
Ġgull ible
B I
r ical
Ġ These
Ġt ed
Ġw ool
Ġb ak
Ġg est
Ġun ion
ate red
Ġv ine
um an
ĠJ ones
ĠM other
ag n
Ġacc us
Ġcr ushed
ĠH ok
Ġtruth ful
Ġsmall est
Ġsun g
Ġcap acity
Ġred uced
Ġlea f
Ġcam er
Ġbegin ner
Ġcatch ing
Ġcomplain s
Ġtouch ing
Ġdev ice
Ġmach ines
Ġeight y
Ġtor to
Ġsour ces
Ġspl end
Ġspot ted
Ġdisp os
Ġregard ed
Ġremark s
Ġoutdo ors
Ġdisrespect ful
Ġpenal ty
ĠColumb us
c ow
g ir
l ow
l ia
l ong
u ild
ou st
er us
an cing
et ers
Ġsp aces
ol a
ie ves
ĠM ic
og en
Ġacc ord
Ġatt ending
Ġdes per
feren t
Ġac ce
Ġob edient
Ġforget ting
Ġfil th
Ġsuff icient
Ġtreat s
Ġbull se
Ġforest s
Tr ansl
Ġdish onest
ĠIsrael i
Ġsymp athy
Ġrack et
Ġtransport ation
ĠPol ish
Ġfol k
Ġreck less
Ġune asy
Ġcommer cial
Ġexchan ged
G reat
i able
Ġd ense
on ia
Ġm ice
Ġp ony
Ġth read
ro c
ut en
il st
Ġout ra
ĠB ank
Ġcom a
Ġv ia
ĠC ookie
Ġam using
Ġsc ri
Ġimp olite
Ġown ers
Ġopen s
Ġsk ip
Ġcold er
Ġtrust worthy
Ġleg end
Ġhalf way
Ġdi vers
Ġseat b
Ġoffic ially
Ġveget able
Ġident ified
for ce
Ġdy ed
Ġmisunder standing
Gu ess
ĠPalestin ians
Ob viously
Ġlandscap e
ĠFranc is
D ue
G eorge
H al
U p
e em
Ã Ń
Ġ Did
ing ing
Ġg ently
ot es
us hes
Ġas h
Ġal ert
Ġun in
Ġun aware
Ġfe ared
Ġpro c
Ġno ble
Ġcl ient
Ġbu zz
Ġfl ame
Ġwait ress
Ġimp er
Ġsha ved
Ġel im
Ġbo iling
Ġent it
ĠW ould
Ġbel oved
Ġbeha ving
Ġphot ographer
ousand s
Ġdeser ted
Ġthreat ening
Ġking dom
Ġdesp ise
Ġtempt ation
Ġbow ling
Ġspirit ual
Ġchamp ion
Ġfra g
Ġabsor bed
Ġdisappoint ment
Ġaston ished
Ġsem ester
Ġtraged y
Ġunmar ried
Ġkindergart en
b i
l ers
Ġ Who
Ġt ender
Ġc ord
Ġf ame
ac ha
ill e
ce land
Ġun ple
ol ars
ĠM ount
Ġlast s
Ġdis ob
Ġbl ink
Ġ2 2
ĠN ative
Ġsl ip
Ġforg ave
Ġadm ired
Ġass ure
ĠSt ate
Ġcontin ent
An other
Ġcommun ities
Ġcompet e
Ġhous ing
Ġreluct antly
Ġpred icted
Ġ9 0
Ġinfect ion
gu ard
ĠAm az
Ġphr ases
Ġwhist le
Germ any
ĠRom ans
B ad
M ark
c ol
d ish
p erson
Ã ¡
Ġd ign
Ġb oun
Ġp ens
Ġkn ight
ĠA ir
Ġun fortunately
Ġman kind
Ġevery day
ber t
Ġaw ait
Ġres erved
Ġcons pir
Ġthir ties
Ġtri ps
Ġcolle agues
Ġhotel s
Ġcontro lled
Ġstuff ed
Ġopt im
Ġ5 00
Ġcreat ure
Ġcloud y
ka ido
Ġsurf ing
Ġbi ased
Ġpencil s
Ġblock s
Ġpal ace
Ġdrum s
Ġexec uted
Ġathlet ic
Ġinappro priate
Ġinterfe re
Ġunple asant
D P
f ying
r um
Ġs orts
Ġm ax
or ious
as er
Ġre lease
Ġneed le
Ġup side
ud es
Ġback s
Ġexp ense
ag ic
Ġsc ored
Ġbl uff
ang le
Ġdif fer
pe are
ĠH er
fic ial
Ġcons iders
Ġass hole
Ġair craft
Ġdep ri
Ġadd ressed
Ġtre mb
Ġsecond ary
Ġaccept able
Ġsil k
gan ized
Un til
Ġprogram s
Ġcho pped
Ġfro ze
Ġunb elie
Ġterror ist
Ġpurcha se
resp ons
Ġrefer red
elie ve
ĠVen us
ĠNet her
Ġstrand ed
igen ous
F ortunately
R ep
T en
W ash
o ard
in ent
Ġs hat
an ic
Ġf ainted
or al
Ġhe ather
Ġst adium
op les
ĠB ob
Ġlo cks
Ġcl own
ĠAust ria
Don ald
Ġatt ent
kes peare
sel s
Ġpay ment
Ġtrans m
Ġsub m
Ġsign al
ĠGerm ans
Ġrece ipt
Ġpoor ly
Ġworth y
Ġcorrect ed
Ġmarry ing
Ġlos es
Ġshar k
Ġemploy ee
Ġwa ist
ĠDan ia
Ġrab bits
Ġindivid uals
Ġsitu ations
Ġgamb ling
Ġsust ain
Ġtwent ieth
1 0
E arth
P resident
b ble
d ge
g or
p ower
Ġ ic
Ġa ster
Ġl id
Ġo wed
Ġth ieves
ay er
Ġre w
ad o
Ġse ized
Ġshe ets
ĠB en
Th ousands
Ġhelp less
ĠS an
ĠL ulu
ĠF BI
ber ry
Ġeat er
Ġover t
Ġke en
Ġact ual
Ġreg ards
Ġele ments
az a
Ġdead line
Ġstrong est
ĠIn ter
Ġcontro vers
Ġden ies
omm od
Ġimmedi ate
Ġrad ical
Ġpriv ile
Ġban jo
Ġdesp ised
Ġdesp air
Ġastron omy
aph nis
Ġphilos opher
Ġbelief s
Ġancest ors
Ġetern al
ĠCla us
ĠTunis ia
Ġwelc omed
Ġcot ton
M ercury
V ery
o ch
w in
Ġw ard
Ġthe ft
Ġdo lph
Ġst im
Ġte asing
il ip
ann y
ol i
ol n
Ġv om
Ġcr ap
Ġinv ention
Ġwind y
Ġadm ir
Ġdress ing
Ġadd ing
Ġdream t
ism s
Ġland ing
atur al
Ġfil es
Ġexpl oded
Ġprefer red
Ġsubject s
Ġbes ides
Ġsevere ly
ĠOlymp ic
Ġment ally
Ġgunsh ots
Ġrefuge es
Ġanal ysis
Ġdiagn osed
Ġnickn ame
ĠCong ress
Ġperf ume
Hal f
R el
T alk
W ar
b ies
m el
z ens
Ġ .
Ġw age
Ġw atered
as hes
Ġhe ating
Ġbe aches
ac co
if ferent
ge ons
Ġtim id
ul ating
ul sive
ous es
um mer
Ġbu ff
Ġad ap
ian a
Ġgr ain
Ġsw allow
ĠT aiwan
ĠJohn son
Ġac ade
Ġinc hes
Ġinter pret
Ġchar m
Ġext ended
Ġbar ber
Ġelect ions
Ġrid es
Ch oose
istic ated
bo at
Ġhonest y
Ġfat al
Ġflight s
Ġspread ing
ĠBe ijing
ĠUS A
ĠGree ce
Ġresour ce
Ġho ly
Ġ197 0
Ġeth nic
Ġagricult ure
Ġapprox imately
Ġfilth y
P a
Ġb umped
Ġo ak
Ġcan e
Ġab und
ol ving
Ġhapp iest
ĠS up
Ġoff end
Ġam ounts
Ġhand y
ions hip
Ġrest ed
so ever
Ġmed al
Ġ19 5
Ġflow s
Ġjoin t
Ġjoin ing
Ġ201 4
Ġboss y
omm on
Ġprov ides
Ex p
Ġvol ume
ĠMar ika
Ġneg lected
Ġinfl ation
Ġidi ots
Ġaccomp any
Ġgro cer
ker chief
Ġnet work
Ġdism issed
Ġassign ment
Fr ank
Ġprecise ly
Ġdilig ent
Ġgalax y
Ġbache lor
Ġinhabit ants
Ġcamer as
B oy
L inda
g ic
p art
Ġt act
Ġs ought
Ġm asks
Ġc uriosity
Ġha l
ĠI r
ly ing
han g
Ġout break
Ġv ague
Ġpe ak
Ġpe oples
ĠM ike
Ġam use
Ġbook ed
ip es
ĠG oogle
ub s
Ġsk illed
Ġrest rain
ober t
Ġve gan
Ġpract ices
Ġexpl o
Ġbat hing
Ġemb assy
Ġmillion aire
Ex per
Ġmuseum s
Ġcritic ized
Ġrom ance
Ġfill ing
Ġcomb ination
Ġconce al
Ġpig s
Ġpal m
Ġcro c
ĠBl ack
ĠMos cow
Ġconstit ution
Ġswall owed
Ġburgl ar
Ġfoss il
Ġther m
Ġnaught y
Ġunnecess ary
C hange
F ood
F rance
G rand
N ice
P eter
a ac
f ood
er ia
or a
al a
al id
ri ll
ad s
Ġat omic
ab s
Ġde als
est ed
Ġv amp
Ġman ual
Ġag ency
ĠM ark
Ġwr ist
Ġbl own
Ġfl ames
Ġhand kerchief
Ġpers pect
Ġfin ishing
Ġacc ommod
ĠCh loe
Ġmin er
Ġkiss es
Ġcut s
Ġland l
Ġcoo perate
Ġrub ber
Ġunb ear
Ġcolour s
Ġstret ch
Ġestab lish
Ġelephan ts
Ġpean ut
Ġspin ach
Ġhandcuff ed
F riend
O ther
P ar
P ay
o qu
in ction
Ġw ing
ic ious
ch o
Ġpl un
Ġun af
Ġun fortun
ĠB ec
ob ia
Ġgr at
Ġchild ish
ĠR ic
Ġsha ring
ĠN e
ĠN az
Ġel bow
Ġrest ing
ĠH ot
Ġquestion ing
Ġele g
br ush
Ġind o
Ġgar lic
Ġprop ag
Ġexist ed
Ġest imate
ale m
Ġident ical
Ġpregn ancy
Ġinflu ential
Ġpoison ous
Americ a
Ph one
Ġreform s
Ġi P
abor ate
Ġcomplim ent
Ġtra um
ĠNA SA
ĠPhilipp ines
Ġunaf raid
P aul
Q uit
Ġt ide
in ese
Ġw ages
ou ch
Ġd ub
Ġd ared
is ible
Ġc ert
ar in
Ġf ert
Ġp y
Ġin ner
at ical
ic ate
Ġre ign
Ġcan oe
Ġab ilities
Ġab usive
We ren
ĠA lex
Ġpl umber
ig ning
Ġlo vers
Ġqu itting
ag le
Ġover look
Ġsch olars
Ġres ort
ĠP eter
Ġsha res
Ġhead phones
Ġdisc rim
Ġtrans ition
Ġsun rise
Ġart istic
Ġgrand son
Ġteam s
Ġill usion
Ġform al
Ġtur key
Ġdesign er
Ġslight est
nam ent
Ġcompan ion
Ġmagn etic
inc oln
Ġaim ed
Spe aking
Ġcock ro
Ġtherap y
Ġinstr uments
Ġinher ited
Ġacknow led
Ġbrace let
Ġincomp et
ĠCent ral
Ġtoss ed
ĠHok kaido
Ġunfortun ate
E urope
W ords
c om
d ri
in ations
ha el
Ġf ires
ll as
se e
Ġsa us
Ġsp ray
ree ze
ud ent
Ġch ores
Ġcomp ar
Ġdis li
Ġunder ground
Ġgr aph
Ġgr umpy
Ġfl ute
ĠG en
ĠO b
Ġsing ers
Ġmat ure
Ġsl ower
Ġrun ner
Ġconf usion
Ġsum mit
Ġbeh old
Ġshort age
Ġshall ow
Ġcop ies
Ġequ ally
Ġemp has
Ġcritic ize
Ġfro st
Ġrespond ed
Ġmel ted
Ġpassen ger
Ġ196 2
Ġbare foot
Christ mas
Ġnic er
Ġchop sticks
Ġinev itable
ĠBec ause
. ,
A c
A li
D e
M uch
S a
Ġb on
ar ly
Ġhe ated
Ġwe ighed
Ġte x
Ġpl ed
Ġfe e
Ġint r
ĠM att
Ġro cket
ag alog
Ġsm ashed
act ion
Ġtw isted
Ġper ce
oc ated
Ġhun ter
Ġprom pt
Ġsl im
Ġpres erve
Ġfree ly
Ġforget s
Ġinst alled
Ġdeep er
Ġir respons
Ġsex ually
Ġspecial ist
Ġbelong ings
Ġcow boy
Ġintern al
Ġtechn ical
Ġsla ves
ĠPr ime
sc reen
Ġtort ure
Stud ents
Ġastronaut s
Ġgenuine ly
ĠYid ir
onym ous
Ġsurren der
Ġresear chers
Ġbatter ies
Ġsod a
Ġincon ven
ĠScot land
. '
N uja
i am
r ison
t ell
Ġ x
Ġt in
Ġm ast
Ġc ore
an ing
Ġf ucked
ll y
Ġst ain
Ġst ake
Ġv it
ĠC ome
Ġsm ok
Ġsc r
Ġbl ushed
Is rael
Ġsw ept
ĠG DP
Ġdec ade
Ġrem ar
og ue
Ġmar ked
ĠD ep
Ġla unch
Ġbo iled
ug s
ĠW ay
ĠW ith
itc her
Ġhealth ier
Ġill ust
cl ass
Ġdi versity
Ġpizz eria
Ġcell s
Ġinclud es
Ġsurr ound
Ġpolite ly
Ġvan ished
Ġmagn ific
Ġchat ting
Ġconce ited
Ġliber al
Ġincreasing ly
Ġlingu istic
Ġvacc ine
Ġbabysit ter
Ġscen ery
Ġcompass ion
M ill
M um
i ased
n ox
r ange
u is
u ised
z ard
Ġ om
Ġt rop
Ġto n
Ġm our
Ġp ile
Ġg ra
Ġre fe
Ġsh if
Ġpl us
Ġde ck
Ġout er
ind er
os h
os ure
Ġpro ced
Ġpro port
Ġbut cher
Ġoff ices
ĠR iver
Ġmar ine
Ġplan es
con f
Ġwater mel
Ġser ves
be at
Ġterri fic
An ne
Ġbill ions
Ġste ep
Ġdest iny
Ġuns ure
Ġunb iased
Pol it
Bet ween
Ġwha le
Ġcas ual
Ġgrav ity
Ġconcer ts
Av oid
Ġregist ered
Ġparad ise
Ġbak ery
Ġtorto ise
Ġtex ts
F ollow
H ad
H ist
P ick
l on
Ġb la
ll er
Ġre ass
Ġme lt
ir s
Ġcan n
op es
Ġpl um
ak i
ak ers
our s
Ġint e
ĠE U
Ġpr ote
Ġgl ory
ĠP ri
Ġbo il
Ġob nox
Ġconf ron
ric ane
Ġann ual
Ġste ady
Ġstick s
Ġver ge
Ġimprove ment
Ġoper ate
Ġdig ital
Ġcooper ation
Read ing
Ġgif ted
Ġunemploy ment
Ġep is
Ġbroad cast
Ġprior ity
Ġstro ke
ĠSwed en
Ġbac on
Ġtid y
Ġsting y
Ġpostc ard
Ġprejud iced
Ġdisor ganized
Ġnin ety
Ġparan oid
Ġbullse ye
Ġentit led
K ate
R un
S leep
S pring
b ian
b ell
c ers
n uts
u ke
Ġ icy
in ity
Ġb isc
an ch
Ġan ime
am en
Ġst are
Ġmy th
if ully
Ġj elly
Ġte ased
Ġso ber
Ġout standing
Ġv ib
Ġbr id
Ġpart ly
ĠT ony
Ġsur vey
Ġkind ly
we gian
Ġremember ing
Ġmus cles
Ġcap s
Ġsol ving
ĠSt ation
Ġill um
Ġdiv ine
Ġfool s
Ġbeha lf
Ġgrad uation
Ġocc as
cri pt
Ġdest ro
iter ate
Ġpresident ial
Ġorgan ic
Ġsoft ly
rog en
Ġdut ies
Ġlab el
Kaby le
Ġlat ter
Ġdistur bing
Ġsquir rels
lor ida
Ġtort ured
Ġpostp one
Ġ198 0
Ġlung s
Ġutter ly
Ġflex ible
Ġgrocer ies
Ġindo ors
Ġmagnific ent
C ong
F O
G ener
c hat
l an
r ings
t op
Ġt um
Ġc ate
Ġf iled
Ġy awn
it ors
Ġn oun
Ġn ause
Ġre un
Ġst ead
Ġdon key
ain e
Ġun pre
Ġsome place
Ġcl ients
ĠM ac
omet er
Ġoff ering
ĠT uare
te rest
Ġprom ote
Ġem pt
Ġpass age
Ġconf use
Ġcor p
Ġtown s
Ġexper im
ĠChrist ians
Ġdoubt ful
vern ment
Ġgovern or
Ġdi ving
Ġproduct ive
Ġer up
ĠTok i
Ġid le
Ġmark ets
Ġdetail ed
Americ ans
Ġfra ud
Ġrecover ing
Ġbul b
Ġcaut ious
Ġfab ric
Ġfare well
erus alem
Ġperspect ive
ĠHot el
Ġobnox ious
? âĢĿ
B us
E st
L iving
e ches
m ble
o ked
z ech
Ġw ax
Ġb owed
Ġc able
Ġp itcher
us an
Ġre ar
ri ly
od ka
Ġwhat soever
Ġsp ots
Ġun h
Th row
ie l
Ġro yal
Ġco c
Ġri val
ĠE mp
iz er
act ive
Ġhard working
Ġcons ist
Ġev ac
Ġpark s
Ġdef in
Ġsub stitute
Ġbar bec
Ġsuccess fully
Ġpract ise
Ġris es
ĠAr gent
Ġnervous ly
Ġfil med
Ġguess ed
Ġsend s
Ġground ed
Ġobject ion
Ġcompet ent
Ġpu pp
Ġdra g
Any thing
Ġexerc ises
Ġtight ly
stit ution
Ġterror ists
Ġtextbook s
ĠTan aka
Bl ack
Ġgather ing
Ġdict ators
Ġwha les
Ġvir gin
alm art
Ġslee ve
Ġsoph isticated
stan bul
ĠAnge les
Ġdesper ately
Ġacce ler
ĠNether lands
Ġunbear able
B elieve
C har
D ri
R eg
S il
T w
b ased
l en
Ġt ut
Ġt ack
Ġd war
Ġb ast
er ving
Ġc rop
Ġf isher
Ġl est
Ġg am
Ġh ills
ĠI celand
ook s
Ġj et
Ġv odka
Ġch ill
Ġtheir s
Ġ2 6
Ġcont ag
Ġcont ext
Ġear rings
Ġfather s
ĠN ations
Ġmet er
pr oof
Ġdisc reet
Ġass ass
Ġinf inite
Ġhum ble
Ġforget ful
Ġmess y
Ġsub t
Ġpat hetic
Ġprep ar
own ed
Ġpract iced
ugg ing
ma res
Ġumbre llas
Get ting
oll en
Ġbother s
Ġincre ases
Ġru ins
Ġpan cakes
Ġresign ation
Ġcy cling
ĠMay be
Ġtend ency
ĠOlymp ics
laim ed
ĠAtl antic
ĠThanks giving
Ġscri pt
Ġbluff ing
H ang
b ut
c us
g ue
y d
Ġ iced
Ġc av
Ġg ap
ro s
Ġab oard
Ġv es
Ġv ice
um ed
ĠJ amal
Ġcl erk
Ġch in
Ġro lling
ick ets
Ġam ate
em et
Ġdis gr
ĠT ex
Ġsupp orts
ath on
Ġdes ired
oc a
ĠD en
Ġob tain
Ġadv is
Ġreg ional
ĠW almart
Ġimport s
Ġref res
olog ies
Ġcry st
str act
aster n
Ġdist rict
Ġpat ri
io let
Ġdem ocratic
Ġthreat s
Ġtour ism
Ġfeed s
Ġcoun cil
Ġbedroom s
Ġsuspic ion
Ġinvestig ating
Ġrub bish
See ing
Ġwre ck
Ġingred ients
olly wood
Ġconspir acy
ĠEmp ire
B outeflika
P re
b re
d aughter
e re
y ou
Ġw oo
Ġm asc
Ġg uts
Ġre in
Ġab ol
Ġwh ilst
Ġus er
Ġtr ace
Ġun friendly
ĠS olar
ud i
ĠC up
ĠE n
Ġsm okes
fore st
Ġaw oke
ĠR io
ĠT agalog
Ġres olved
Ġnight mares
ff ic
Ġlearn s
ĠCh urch
ĠD NA
Ġtri ump
Ġdep orted
Ġsun b
Ġind igenous
Ġext r
Ġgarden er
For get
Ġcheck s
Ġworth while
Ġur ge
Ġfed eral
cons ider
Ġspr ained
Ġpronoun ced
writ er
Ġarchitect ure
Ġlip stick
Ġ202 2
Ġintimid ated
Ġinex p
Ġyog a
Ġpenn y
Ġhambur ger
Ġathe ist
Ġsplend id
Ġcroc od
Ġrefe ree
g un
Ġ Have
Ġs igh
Ġto e
ed er
Ġc ott
or i
or ous
Ġh ike
st ra
ro se
all el
Ġtr agic
est y
Ġpro ven
Ġint ol
ort he
ĠF lorida
Ġspe eches
ĠC zech
Ġbus hes
get ic
Ġbelie ving
Ġmar vel
ĠO ther
Ġcha sing
ĠK ate
Ġworld wide
Ġser ver
Ġrest room
ug urt
Ġinter se
ange red
Ġfire works
Ġfire fight
Ġins pect
Ġfight s
Ġsign ature
Ġelect rical
Now adays
Ġmis ery
Ġsmart phone
ĠQ u
Ġburn s
Ġprin ted
Ġemploy ed
Ġcover ing
Ġamb ition
Ġdig ging
Ġintention ally
Ġfrequ ent
Ġhob bies
Happ iness
Ġpier cing
ĠFin land
ĠPalestin ian
Ġtrig ger
emet ery
ugurt ha
H onest
S te
n ut
u ated
v ation
Ġa is
in stein
Ġw aking
an on
it is
it age
Ġg ross
Ġhe ater
ro lled
Ġse v
pp ery
Ġshe pher
Ġab used
if ies
Ġtr omb
ren e
Ġv est
Ġv ital
Ġdr ought
ĠR o
Ġatt rib
ĠO h
ĠN ag
Ġrep orter
ese lf
Ġinter rog
Ġsal ty
Ġpub l
els ius
Ġvill ages
Ġequ ival
Ġinn ov
Ġpossib ilities
Ġpray ers
Ġfle e
Am ong
Ġcab inet
Ġ7 0
Ġadvant ages
Ġcrim inals
Ġinse cure
Ġlog ic
ixt ure
Ġflood ed
Ġparticip ated
Ġstress ful
Ġenthusi asm
Ġunivers al
Ġprett ier
Ġneut ral
Ġmax im
% .
F ive
J esus
c alled
f ty
p et
t ic
Ġ 0
is l
Ġp ud
Ġn av
Ġh int
Ġin ch
Ġin ject
im ming
Ġon eself
ke l
her lock
op ed
Ġsu cks
Ġr oo
Ġr ational
ost er
ak o
Ġde fect
Ġout going
ĠB C
Ġpro ver
ĠM aster
Ġoff ers
iz ations
Ġmust ache
Ġche wing
Ġfun ds
Ġel aborate
Ġmother s
Ġprom ising
Ġev ident
Ġdep ressing
Ġext ract
Ġdeath s
Ġflo ating
ilt on
Ġtreat y
Ġdemand ing
Ġrev ol
Ġrelax ing
Ġcourage ous
Ġboard ing
Ġhorri fied
Ġrac ing
Ġinstruct or
Ġregard less
Ġrail road
Ġcolon ial
Ġrout ine
Ġassign ed
Ġbless ing
Ġcontrad ict
Ġinher it
Ġstink s
Su pp
ĠSw iss
Ġinspir ation
ĠAmaz on
Ġvit am
Ġconfron ted
Ġsev enty
G en
H ard
a an
a way
g han
Ġt iss
Ġt ang
Ġa er
Ġto b
Ġg ut
Ġg room
Ġhe ars
Ġhe dge
Ġha ste
le pt
op ath
Ġsu e
Ġex ting
Ġun ited
Ġno ises
ĠS am
ĠL os
ĠL ucy
Ġqu ote
ĠM uhammad
Ġoff ensive
Ġsc he
Ġtw e
Ġstart led
Ġread er
Ġres erve
per or
Ġfun d
ĠD aphnis
Ġdisc ip
Ġref lection
Ġfree zer
Ġsol utions
Ġcol ony
Ġ19 3
Ġcent im
Ġris en
Ġconsider able
Ġcommon ly
to gether
Ġground s
Ġpeace fully
Ġcoun sel
Ġengine ering
Ġbas ically
Ber bers
ĠKing dom
Ġscrew ed
Ġexagger ating
Ġgunsh ot
Ġdispl ay
Ġintellect ual
Ġsquee zed
Ġtrem end
Ġchim ney
Ġadap ted
Ġexting u
F eel
Ġs ins
re land
Ġb row
Ġl ord
it ating
Ġp od
Ġp ound
Ġn inet
Ġbe ast
Ġdon ated
all ing
Ġnot ed
Ġnot ified
Ġj an
Ġr ats
Th rough
th ink
ra it
Ġsm elt
Ġsw ollen
ip er
Ġpa used
Ġcont ents
ub ble
Ġrep ublic
ens ions
ĠBer bers
Ġbeaut ifully
Ġpain s
ĠU FO
Ġdisc our
Ġmus cle
Ġtrave lled
Ġpresent ation
ane ous
Ġ201 7
Ġsmell ed
Ġste re
Ġvill agers
Ġgreen house
Ġamong st
Ġjud ged
Ġcell ar
ung ary
Ġtechn ique
Ġcirc us
ĠTh omas
Ġcondition er
Ġpsych ologist
Ġstren g
Ġsli ppery
Ġdisag reed
Ġnotebook s
Ġsignific antly
Gir ls
etch up
Ġcraw led
Ġmanufact uring
Ġadvert ising
Ġsou ls
Ġacquaint ance
Ġsatell ite
Ġtromb one
K n
L anguage
M ic
b al
c ar
c ake
c ular
e qu
Ġd u
is ive
Ġm igr
it z
Ġbe gg
Ġre aching
Ġli king
He alth
Ġher d
Ġsh one
od el
il and
ul es
Ġcon vey
ĠS en
ĠS ky
Ġar ts
Ġor che
th ren
Ġbu re
hed ral
ĠC at
Ġpr ank
Ġpo le
Ġmar athon
Ġinv isible
Ġsn ore
ĠD em
Ġrest rict
Ġtrain er
Ġlight er
Ġev icted
Ġadd iction
Ġext inct
Ġmess ing
Ġdoll s
Ġlarge ly
Ġcond em
Ġ201 6
Ġprotect ing
Ġcre ation
lla h
Ġblood y
rat ulations
Ġfail s
Ġmicro phone
Ġsubst ance
Ġresemb les
Ġphenomen on
Ġpul se
Ġoverhe ard
Ġdestruct ion
Ġscat tered
ĠIr ish
Ġincompet ent
Ġirrespons ible
Ġcontag ious
B ack
B irds
M il
M ars
N ature
T on
a j
a ism
c at
f ield
Ġt ips
Ġt asks
Ġb ilingual
er d
or ation
Ġan ch
Ġan ts
Ġha irsty
et tle
Ġk etchup
Ġst ab
Ġgo ose
Ġj aw
ĠA lp
ĠA dam
Ġde eds
Ġout fit
Ġcon j
Ġfe ast
Ġpro spect
Ġv ines
ĠJ ames
ĠM c
ĠC elsius
Ġover time
Ġbr akes
Ġstud io
Ġsc ul
ell ing
ĠP ers
Ġfound ation
Ġcha se
orm al
Ġbre thren
Ġreg ulations
Ġtrans pa
Ġmusic ians
ric s
Ġdro ps
Ġreturn s
Ġleg ally
Ġeconom ics
Ġsil ently
Ġexpl ode
Ġworth less
Ġstep father
Ġpatient ly
ey ed
Ġfeed ing
ĠInd ones
Ġexperi encing
Ġprincip le
Ġdom in
Ġcommand ed
Ġspo il
En joy
Ġlabor atory
Ġunre ason
Ġgaz e
Ġque ue
Ġchap ter
Ġod ds
Ġsam ple
Ġdign ity
Pa rents
Ġeleg ant
ĠOb ama
Ġtrop ical
Ġinte gr
Ġtob acco
C or
D in
K ids
P at
S cience
c r
e enth
l if
s a
s m
Ġt ab
Ġm ob
Ġm ugged
Ġc emetery
ing e
Ġl es
Ġbe ers
at ched
Ġe go
Ġe agle
Ġse wing
It al
Ġr ud
Ġal ter
Ġle ap
Ġneed n
Ġun he
th irty
Ġbu bble
Ġover c
Ġunder t
ose xual
Ġ2 3
Ġsha ken
Ġcount less
gg y
Ġsk ier
Ġsl ices
ient ed
Ġtri pped
Ġsum m
St ep
ept une
Ġfire place
ĠâĢ ĺ
io x
gan ization
Ġpartic les
Ġprin ter
Ġsatis fy
Ġenc oun
Ġcelebr ity
Ġtur tle
Ġver bs
Ġpet rol
Ġpsych ology
Ġemer ged
Ġteen age
Ar t
Ġdece ive
Ġliqu or
Ġsmooth ly
Ġassoci ate
ĠNor wegian
ĠBuddh ism
Ġmosquit oes
Ġunderest imate
Mon day
ĠTex as
Ġais le
Ġscul pt
F ree
l k
p ass
Ġto ll
is k
Ġb ou
Ġb aff
ar med
ar ah
Ġf oul
Ġl amb
Ġn orthe
ot ing
Ġme ad
Ġwe eds
ri or
ac c
Ġab stract
Ġr att
ĠA pp
Ġv ig
ide l
ud ing
Ġen cl
ĠC ap
ĠE ven
Ġnew ly
Ġcha os
Ġcha ins
Ġend less
Ġend angered
Ġcons ent
ĠW all
ib ilities
Ġcour ses
Ġsnow s
Ġshort s
Ġleg isl
Ġcur se
ef ense
Ġgirlfriend s
Ġfact or
Ġcontro lling
Ġpaper work
Look s
ĠRuss ians
Ġtreat ing
Ġincl ined
Ġest imated
cha e
Ġlay er
Ġneg lect
Ġaffect s
Ġwis er
Ġsens ed
Ġsens es
Ġtyp ing
ym ph
Ġrepe ating
Ġsli ppers
cul iar
Ġdocument ary
Ġet c
Ġminor ity
Ġprior ities
ĠSy stem
Ġmud dy
Ġmaid en
Ġveh icles
Ġfol ks
ĠPe ople
Ġembr aced
Ġmamm als
Ġscarce ly
Ġsatisfact ory
Ġabd uct
Gener ally
F ear
P r
f ashion
g ender
r ich
y n
ar on
Ġp oop
Ġst ung
Ġse asons
Ġsh ield
op ol
Ġj ugg
Ġr aces
ĠA sh
Ġv owed
Ġint ro
Ġag itated
Ġor g
ĠJ o
Ġcl um
Ġpe culiar
Ġcar ing
Ġwr ap
Ġplay ground
Ġnight cl
Ġgl ove
Ġ2 7
Ġstr ain
Ġmeet s
Ġrec ession
Ġreal izes
Ġbo ot
Ġret iring
Ġmist ress
Ġimport ed
Ġconf ession
Be aut
Ġdoub ted
Ġsal on
Ġhit ch
Ġhang s
tern al
Ġsweet heart
Ġcreat es
Ġgentle men
Ġcho ir
iven ess
Ġsla very
uk i
iped ia
Ġheight s
Ġmemor ize
Ġvot ing
Ġwid ow
ĠMa j
ĠSha kespeare
Ġovers lept
Ġens ure
Ġtrait or
Ġdeliber ately
Ġannounce ment
Ġfrag ile
Ġwatermel on
Ġdwar f
Ġcott age
Ton ight
- -
A ir
E ating
e er
l ore
n ap
p ro
s k
z a
Ġw itty
Ġd ang
Ġthe ories
Ġb er
Ġb id
Ġb ury
Ġb aker
ar ians
an i
Ġn om
Ġh ut
Ġdo zens
Ġwe ep
Ġkn ot
Ġsh iver
ust roph
ge red
ĠJ erusalem
em s
Ġdis cont
Ġbl ows
Ġsw ift
âĢ ¯
Ġsha mp
Ġpol ar
Ġcr u
Ġcr acks
Ġcr uise
Ġrest less
Ġrain bow
ĠU K
ĠIs aac
az ed
Ġcla ustroph
Ġhang ed
ech n
Ch inese
ik ipedia
Ġattract ion
Ġunc ommon
Ġtour nament
Ġwa ving
Ġremain ing
Ġrap ed
Ġacqu ired
Ġinvestig ate
Ġcontrib uted
Ġmic row
Ġgrou chy
Ġ196 0
ĠPalest ine
acher s
ĠNor way
Ġfart her
Ġfrog s
Ġexhib ition
Ġsevent h
Ġcongrat ulated
ĠSat urn
Ġpsychiat rist
atis fied
Ġjum per
Ġshat tered
Ġdictators hip
B razil
R ed
W inter
e an
g ive
m m
w est
ou ver
Ġd ick
Ġb end
Ġc rown
ar se
Ġn ood
Ġha y
Ġth irst
ot a
ro be
Ġde fic
Ġlo af
ĠS ch
em pts
Ġsc am
Ġimp lement
Ġimp rison
Ġleft overs
ĠG ood
Ġres erv
Ġres olution
ail ed
Ġworld s
ub by
Ġem issions
Ġreg ime
Ġposs essed
Ġlight ly
ĠKaby lia
Ġind isp
Ġill iterate
Ġpar ole
Ġpar aly
ĠV anc
Ġhon our
Ġstrange ly
Ġprotect ive
Was n
Ġprop het
Ġcool er
lo v
Ġer rand
Ġmoon light
Ġimm ense
Ġmass age
Ġwheel chair
Ġchamp ionship
Ġforgiven ess
Ġresist ance
Ġdele te
Ġencour aging
Ġautom obile
Ġpurs ue
Ġdict ator
Soon er
Ġemotion ally
Ġpour ing
ĠHind u
Ġflav or
Ġseatb elt
Ġcoc aine
ĠVanc ouver
C ookie
J ugurtha
O kay
U s
h ill
i ate
p ers
r ome
w as
w orm
Ġa rose
in ished
Ġw estern
Ġs ipped
Ġd itch
is ure
Ġm ac
Ġp iss
Ġbe asts
Ġbe gging
ĠI stanbul
Ġli ver
ad vant
ent ric
se cut
ut ive
ter ia
Ġwhe els
Ġun st
Ġv ivid
Ġbu gs
ĠC o
Ġlet t
Ġgu id
ĠP arty
ĠO f
Ġact ors
Ġdes ires
Ġreal istic
Ġkill s
Ġsn apped
ĠD is
ĠD es
ĠD avid
Ġrest r
Ġbed time
Ġsl id
Ġhair d
Ġeyes ight
Ġ20 20
int on
Ġmove ments
Ġhosp itals
uff y
Ġcontin uous
uc er
uc ation
Ġprof its
Ġsad ness
Ġequ ality
Ġgas oline
Ġstick ing
Ġkil os
Ġharm ony
Ġresult ed
Tr ust
Ġoper ating
Ġspeed ing
uk o
Ġwhis key
Ġcere al
Ġkick ing
Ġhistor ic
ĠOr ganization
ĠSy ria
Cle an
Ġacknow ledge
ĠYid dish
Ġsav age
ĠLib ya
Ġchoo sing
Ġtheat re
Ġsurviv ors
Ġamuse ment
Ġvamp ire
Ġepis ode
Ġunh urt
Ġequival ent
Ġsche me
Ġunreason able
Ġshamp oo
F ore
F igs
L ucy
d ad
n atural
t ical
v als
Ã £
in ted
ou is
Ġm ate
Ġm ixture
Ġc ul
Ġc ens
im on
im ony
ic he
un a
Ġle isure
art s
Ġout come
Ġag ed
ĠS hang
ĠL a
Ġar row
Ġcl ick
ĠM and
Ġro d
ment ed
Ġdis advant
Ġdown load
ĠT ebboune
iss a
Ġcame ls
Ġhur ricane
Ġenjoy able
ĠD anish
Ġdisc har
Ġdan ces
Ġsick ness
Ġev olution
ling ua
Ġdef ined
ne ath
Ġple aded
Ġcolle ague
Ġflo ors
Ġ201 8
Ġmill enn
Ġdirect ed
Ġpersu asive
Ġfright ening
Ġpoin ting
Ġpsych ic
Ġmail box
Ġmagn et
Ġge ography
vent ually
Ġsail or
Ġprevious ly
Ġphotograph s
Ġbutterf lies
Ġfulf ill
ĠVietnam ese
Ġdram atic
Ġdepos it
Ġunderw ear
Ġdepri ved
Ġbarbec ue
Ġamate ur
ghan istan
' ,
I S
P oor
a ren
c are
g ia
p iece
r un
t hen
Ġb ay
er ted
Ġg la
Ġg ear
Ġn iece
Ġh iring
at tle
et ing
Ġe rect
Ġgo og
Ġgo dd
Ġr hy
ĠA k
ĠA fter
ĠF irst
Ġch uck
ag ging
Ġri p
Ġdis in
Ġunder neath
ĠT ha
Ġper pet
iv ated
Ġcle ans
Ġinv olve
Ġsn ob
Ġbro om
Ġposs ession
pl ant
Ġnum b
Ġind ifferent
Ġconv ention
ĠHe aven
Ġexam ine
fort une
At t
Ġswe ating
ats on
Ġve t
Ġperfect ion
An n
Ġdiv ide
Ġcommun ist
Ġclos es
Ġben e
ĠArab ia
Ġclub s
Ġcelebr ation
Ġchallen ging
Ġsurr ounding
Ġ199 9
Ġcareless ness
Ġspr ang
Ġshock ing
Ġmer ry
Ġvot es
sp oken
Ġadvert ise
Sure ly
Ġadminist ration
Ġpine app
ĠMil ky
Ġjan itor
Ġlett uce
Ġguid ance
Ã£ o
5 00
C r
E ventually
T ears
b ra
e av
i ency
j an
in cess
Ġw akes
Ġs ighed
Ġb reeze
or us
Ġh ip
Ġdo ve
ic a
Ġre ference
ac ist
ac ular
ill er
ir th
Ġdon ate
Ġher ds
Ġr av
ĠA p
Ġsp ouse
red ict
Ġtim ing
Ġall ey
Ġun ity
Ġv oy
Ġri b
ĠC han
Ġcomp ens
Ġam id
ĠE uro
em or
Ġbl ouse
ĠR obert
ĠT am
ĠT ime
Ġhand bag
ĠG et
Ġpers istent
ĠN orthern
Ġdes cent
Ġwater ing
ĠD ima
Ġbo ats
ĠH ungary
Ġbit es
Ġsit es
Ġfight er
ask a
Ġelect ronic
Ġsuper vis
Ġdev ices
Ġrob ots
Ġdiction aries
Ġrecord ing
Ġconvers ion
Ġprogram ming
Ġappoint ments
Ġmeas ured
Ġdisg uised
Ġgri p
Ġscrat ches
ĠSe cond
Ġoccup ation
Ġpup il
Ġnegoti ations
Ġassoci ated
Ġoverwhel ming
Ġobst inate
Ġagricult ural
ĠBuddh ist
Im ag
Ġpi geons
Ġsubur bs
Ġassert ive
E l
T ickets
c led
f ord
h usband
i ors
k ins
l ance
p ow
s is
u v
u ber
w oman
ou ched
on ing
Ġc ub
en cies
it ic
id en
at i
ot ics
Ġst ability
Ġwe pt
st op
Ġsa int
ur ous
Ġal together
ann ing
Th ou
Ġpe as
ĠM er
Ġover ly
ĠE sperant
Ġsc ent
Ġbl aming
Ġmo ist
ĠT or
ell a
ub a
Ġmon keys
ens ity
ĠD j
ĠH igh
Ġsl ack
Ġsy ll
Ġdef ended
Ġbaby s
Ġpar liament
Ġcal f
Ġnecess ity
Ġdi verse
Ġocc urs
Ġmain tained
omm un
Ġz omb
ĠEgypt ians
Ġuncle ar
Ġchocol ates
Ġmeaning less
Ġbi ological
Ġmath s
Ġdisp ute
Ġglob e
Ġcapt ure
Ġhost ile
Ġfirm ly
Ġsink ing
Ġtooth brush
Ġconduct ed
Ġscrew dri
Ġproof read
Ġdiamond s
Ġwhisper ing
Ġted dy
Ġscholars hip
Cong ratulations
fashion ed
B ig
D et
N ancy
S ur
S ummer
d ream
i pp
k o
l ist
r d
Â °
in ci
Ġc uc
ing er
an ed
Ġf er
Ġh its
Ġh ilar
Ġbe et
ic ts
Ġr ag
Ġsp it
lf are
qu al
Ġcom ed
Ġv ary
ĠF ore
ud ge
Ġcl o
Ġco con
Ġad ore
Ġcomp elled
iz ar
act or
Ġgr asp
Ġmo ck
ĠR ev
ĠT ake
ĠT ower
ĠG ive
Ġ2 8
Ġatt empts
Ġshow ers
Ġfr antic
orn s
ĠU N
ĠW atson
ĠHe alth
Ġdet erior
Ġpar cel
ĠV ir
Ġpost s
Ġfact ors
Ġprof ound
Ġfil ming
Ġmag ical
Ġsmart est
Ġviol ated
Ġimag inary
Ġpopular ity
Ġrespons ibilities
Ġsurv ival
Ġbull ying
Ġchallen ged
Ġcho ked
Ġthin ner
Ġcy cle
Ġblank ets
Pl uto
Ġquar re
Ġgain ing
ĠIsland s
Ġwand ering
Ġboo bs
ĠPol and
Ġmerc hant
Ġi Phone
Ġinit i
yl um
bur g
Ġcompre hen
fess or
Ġbure auc
Ġclaustroph obic
Ġmicrow ave
C are
C ertain
D am
a ith
a fe
f ace
n i
t han
t able
x ed
Ġa pr
Ġs ack
on der
Ġf aded
or g
Ġhe m
at r
ot ted
le ts
ĠI reland
Ġk it
Ġk ettle
Ġre he
Ġre verse
Ġas hes
Ġsu ed
ĠB a
est ion
ast ing
qu ila
Th us
ĠS qu
ĠS ec
ĠL y
ĠF ord
ĠF ilip
ard ed
ĠJ oe
Ġch ubby
Ġpre ced
oun ced
Ġbr ushing
Ġpr udent
Ġgr ant
Ġfl irt
ĠR ob
Ġimp osed
Ġhand ling
Ġche w
Ġmet ro
Ġel oqu
ĠH ollywood
Ġreg ained
air y
Ġinter ven
Ġpat ch
Ġblack board
Ġblack mail
Ġstupid ity
Ġfoot prints
Ġpar ade
ific ations
Ġpen gu
ĠFr ank
itar ian
Ġinvest ing
Ġiss ued
Ġobs c
ĠMar ie
Ġener getic
amp les
Ġengine ers
Ġharm less
Ġindust ries
Ġrac ism
Ġshel ves
Ġshad ows
Ġbul bs
Ġunre al
Ġnurs ing
Ġmosquit o
Ġsubst ant
Ġbloss oms
Ġly rics
Ġtremb ling
Ġgrat itude
Ġcrocod ile
Ġintol er
Ġmead ow
1 00
C ol
C lim
J ul
M aking
M odern
S ix
V is
W ake
a us
b our
o il
r ary
r itten
r uit
v an
z one
Ġw ipe
Ġs ession
om i
Ġd rown
Ġd iox
ar ling
Ġf et
Ġbe ats
Ġk ite
Ġher itage
Ġtr am
Ġfe ature
Ġgot ta
ĠM at
Ġover re
ach t
Ġsc ars
Ġsc orp
ĠT roy
au rie
ĠN i
Ġcha lk
Ġdes ks
Ġcat ast
Ġeas tern
Ġend eav
Ġhead lights
Ġpolice men
Ġnice ly
Ġwar rant
Ġglad ly
Ġsec ular
Ġfree ze
Ġext end
Ġmed ium
icy cle
Ġtest ing
Ġdeal er
ne ys
Ġmad ness
Ġsecret ive
Ġdrunk en
Ġ201 0
Ġprogram mer
Ġimm une
Ġwild life
Ġgolf er
Ġ9 11
Ġmotiv ation
Ġswear s
Ġfrust rating
Ġneighbour hood
Ġblock ing
Ġinterview ed
min ute
Ġwitness es
Ġanti que
Ġshr ink
Ġconcl usions
Ġuniform s
Ġsail ors
Ġentertain ment
Ġirre le
ĠThan k
Ġmort al
Ġathlet es
Ġconqu er
Ġrug by
Ġdinosaur s
Ġfemin ine
Ġattent ive
Ġacknowled ged
Est her
B rit
M iss
M orocco
R ain
S un
V en
b ling
m ond
r ator
y es
Ġb ust
Ġm ow
Ġl od
or age
Ġn arr
im al
Ġk ittens
am mer
Ġwe lfare
Ġso b
Ġthem e
ĠS te
ĠS nap
ap ore
ass o
Ġbu ck
Ġcar ved
ĠC r
ĠE st
Ġhand ful
Ġtom b
Ġres ume
ĠO ri
Ġdrink er
ĠK ong
Ġinv iting
Ġsn uck
ĠMon t
ĠW ikipedia
Ġdin ar
St range
umb ers
Ġsuspect s
gr ad
Ġpar allel
Ġgarden ing
Ġaccept ing
ĠAr ctic
Ġball et
Ġpos itions
Ġinvest ed
Ġequ ipped
Ġrad iation
Ġjealous y
Ġfur ry
Ġplant ing
hem atic
Ġdra ft
Ġsepar ately
Ġinflu enced
vere ign
Ġsla ught
the less
Ġquar ant
Ġquar ters
Ġgramm atical
Ġjournal ists
Ġwitness ed
Ġcommit ment
Ġwand ered
Ġspin ning
Ġcandid ates
Germ an
Ġmanufact ure
Ġconcer ning
Jud ging
Ġdispos al
Ġacade mic
Boy s
ĠDep artment
Ġproport ion
Hist ory
Ġbisc uits
Ġbrid ges
Ġdestro ying
Ġcate g
Ġorche stra
Ġdiox ide
Ġirrele vant
F ire
H ar
K now
P ardon
S now
T aking
h og
i h
en ry
Ġl icked
Ġp ha
st ate
st ream
Ġas ylum
ren ce
end a
Ġal oud
Ġsp an
os ition
ard ens
th rop
ass ador
ress es
Ġrem orse
Ġstr ay
Ġcat ches
Ġfun n
feren ces
Ġunt r
Ġrest ored
Ġhead aches
Ġref lected
Ġdef ine
Ġshort est
arch y
Ġrespect ful
ĠWe ll
Ġinvest ors
Ġemp ire
Ġdam p
oll ect
rod uct
Ġnovel ist
Ġlow est
Ġbask ets
Ġjack ets
Ġcell o
Ġpurp oses
Tr ump
ĠGree ks
Ġrele vant
Ġregard ing
Kaby les
Ġrepair ing
Ġport ion
ĠPortug al
Ġtooth p
Ġhyp othes
Ġconsequ ence
Ġtattoo s
Ġep ide
Ġconsum ption
Ġwand er
Ġboo st
Ġautom atically
Ġcaut ion
Ġpeel ed
Ġunp redict
Ġetern ity
Ġunivers ities
ĠMos que
Ġsitu ated
Ġslee ves
osy stem
Ġwithd raw
ĠMo z
Ġsacrific ed
Ġbou quet
Ġparaly zed
Ġhilar ious
B ar
F reedom
H a
H ope
R o
R ome
S ave
c an
k u
o ving
p ath
Ġt ube
om ple
Ġd at
Ġb ait
Ġb unk
Ġf auc
es ar
ĠI S
Ġst er
Ġst alk
Ġst ations
Ġdon uts
ink led
Ġnot icing
Ġas c
ce ans
Ġr ash
Ġso vereign
Ġsp at
ul ars
ĠB y
Ġv ow
Ġgood ness
ĠS herlock
ag u
ag an
ĠC E
Ġsc ares
Ġpart ially
ĠG eor
ĠK obe
Ġmon ument
Ġser ial
Ġfr act
Ġsho el
Ġsurpr ises
Ġmonth ly
ĠH ilton
Ġref und
Ġsun screen
Ġsnow man
Ġwrit ers
Ġcur sed
Ġfact ories
Ġpen et
Ġfil ter
rap h
Ġsea food
Ġstep mother
rup ted
Ġinvest ments
Ġequ als
Ġmaj ored
Un like
ĠInd ians
Ġamb ig
ĠSatur days
Ġlean ing
Ġmel ting
Ġterror ism
Ġrough ly
sc ar
Ġtoler ant
Ġcompos er
Ġsurprising ly
Ġspect acular
Ġang rily
Ġanticip ate
Ġinstit utions
Ġprescri ption
Ġsimpl er
ĠChar les
Ġtren d
ĠInter lingua
Ġtremend ous
Ġles bian
Ġbaff led
Ġsupervis or
Ġscrewdri ver
ĠSnap chat
B C
F l
M ove
b ot
g ling
g ium
h uman
p read
s ix
v ention
Ġt roll
Ġa ven
Ġw oken
Ġw ides
Ġd um
Ġd ude
Ġb rows
ing apore
Ġg le
Ġn avy
et he
ke red
st one
ur able
Ġab rupt
op ard
Ġte quila
ĠB ig
Ġup coming
Ġpro stitute
Ġcom et
Ġhome land
Ġoff ense
Ġcar riage
Ġam put
ĠT ro
ĠT el
ĠT oday
og ged
Ġres ent
Ġhard ship
Ġ2 000
Ġcont ained
Ġper sec
ign ed
Ġstr ings
Ġlearn er
Ġvis ual
Ġrep airs
oc ate
Ġeas iest
sw ood
Ġsn ap
Ġlist ed
Ġla z
ĠH am
ĠW alid
Ġwar med
Ġarm chair
Ġcur ry
Ġgovern ments
Ġmouth s
Ġfat ter
ĠArab s
Ġthreat en
ĠAn n
Ġmarket ing
Ġphys ician
Ġru ining
Ġtal ents
aven swood
Ġearn est
Ġaud ition
Ġfinger prints
Ġconstruct ed
Ġcomb ined
Pl aying
Ġflood ing
ĠPr ince
ĠPr incess
Ġhyp ocr
Ġcoast al
Ġwhist ling
Ġdemonstr ated
Ġaddition al
Ġmicro sc
Ġlemon ade
Ġembr ace
ĠEaster n
Ġsevent een
Ġec osystem
Ġsan ct
Ġfab ulous
Ġassault ed
Cons ider
Ġaspir in
sha ped
Ġcert ific
Ġsurround ings
Ġempt ied
Ġbast ard
Ġinterse ction
Ġtiss ue
Ġabduct ed
Ġclum sy
Ġoverre act
C ount
D is
c Ã©
d og
f u
r ons
u ises
Ã ¼
Ġt apped
he a
he nd
ha ired
Ġb apt
an ji
Ġl akes
as il
us ter
et es
ĠI ts
ic c
Ġre nd
un ction
ur ches
Ġcan s
Ġse lected
od es
Ġde ed
ong ol
Ġwon ders
Ġwork place
Ġcar n
ĠC or
Ġmight y
Ġsw ing
Ġhand ic
ĠP ut
Ġmar sh
Ġdri ll
Ġsha ped
Ġcr ank
Ġcat hedral
Ġdoor bell
Ġsl ut
Ġmist ook
Ġinf erior
ĠKaby les
Ġcol umn
Ġaff l
cl ip
Ġbank ing
Ġfool ing
Ġsupport ing
Ġcontrol s
ĠAf ghanistan
Ġfat ig
Ġbull y
Ġfresh man
ov a
Ġvar i
Ġlic ence
rel ated
Ġboard ed
Ġtrad ing
Ġdish was
Ġastron omers
Ġkilomet res
Ġbrief ly
Ġvirt ual
Ġpow der
Ġimmigr ation
Comp ared
Ġcraw ling
Ġpeel ing
tar ctic
NA SA
Ġsou ven
Ġprett iest
Ġunbelie vable
Ġcryst al
Ġmarvel ous
Ġshepher d
Ġcentim eters
Ġbegg ar
ĠPers ian
Ġnightcl ub
ĠTha iland
Ġunpredict able
Ġdishwas her
E v
M ust
N or
S ad
S alas
m aker
re ated
Ġthe sis
Ġm ol
ed uc
an ie
or ic
Ġg ardens
Ġn osy
Ġan onymous
Ġe clip
Ġst umbled
Ġsa iled
ro b
one l
ind s
Do ctors
ish ment
ear ch
Ġday dream
Ġbl ames
Ġimp artial
Ġroom mates
ĠP ope
Ġpo pped
ĠN ob
gg les
Ġbre asts
Ġinv aded
Ġthr one
Ġsl o
Ġcons istent
Ġdin ars
Ġtri v
Ġind ul
work er
Ġcor rid
Ġdef ending
Ġsong writer
Ġhospital ized
sh it
ĠY am
Ġcur ly
Ġcent iped
For give
Ġpen is
Ġed ible
Ġmis fortune
Ġdeep est
Go ing
Ġ3 6
Ġimm ort
Ġimm ature
Tr ave
Tr ue
Ġund ec
che ck
Ġliter ary
Ġbark s
occ up
Ġearthqu akes
Ġheaven s
Ġtail or
Ġrepres ents
Ġrepres ented
ĠGo vernment
Ġow l
Ġcalcul ator
Ġadvent urous
Ġhorn s
Ġstruct ures
Ġunexpected ly
Ġarrog ance
onic a
Ġdialect s
Ġnurs es
Ġreward ed
Ġveter in
Tok yo
Ġaster oid
Ġcontrovers ial
Ġlandl ord
Ġremar ried
Ġprote in
Ġstead ily
ĠDen mark
Ġtriump h
Ġnav ig
Din ner
idel ity
Ġcru cial
Ġwides pread
F ish
M ed
S et
c our
h in
i qu
t t
t wo
u ana
y p
ha d
Ġb ish
Ġm ig
Ġm erm
Ġc ured
Ġc uis
Ġf rowned
Ġan gle
ve t
Ġbe aring
at ured
Ġre consider
Ġst alking
Ġse lect
Ġr az
Ġr owing
Ġte ens
Ġso ot
ig ion
ig ious
Ġag enda
el ic
ĠS ir
ĠL ove
Ġbu cks
are r
ict or
Ġres umed
Ġacc um
Where ver
ĠO ur
Ġreal ised
Ġend ure
Ġey el
Ġob tained
Ġsto cks
Ġref rain
Ġtrans gender
av a
Ġconv ict
Ġconv iction
Ġins ulting
Ġleg it
Ġcou ples
Ġcontin uing
Ġopp ose
Ġwilling ly
Ġconsider ate
Ġexpl ored
Ġstate ments
har an
Ġvol unt
Ġauth ors
Ġorgan ize
Ġ4 00
Ġtal es
cient ious
Ġemploy ment
Tr uth
Ġtrad itions
Ġreact ed
Ġloss es
Ġcy n
Ġlit ter
Sp anish
Ġstrict ly
ĠSc ott
Ġprim arily
Ġcart oon
Ġvacc inated
Ġinterrup ting
Ġindic ate
Ġunderest imated
Ġwithd rew
Ġquant ity
Ġassemb ly
Co ffee
Ġaccus ations
ĠFrancis co
Ġresource ful
Exp lain
Frank ly
Ġoccas ions
Ġnause ous
Bus iness
Ġdefin ition
Ġhairsty le
Us ually
ĠMand arin
Ġgodd ess
Imag ine
izar re
Ġcorrid or
1 5
A stron
D em
F ar
I d
I gn
N ear
S omeday
S low
W ant
d ict
g i
g led
h our
i isa
l ength
n els
o ven
u ition
y an
â Ĥ
Ġb anged
Ġb izarre
Ġf etch
Ġl ined
Ġp ose
Ġp unk
Ġp ension
Ġg ains
Ġg ases
Ġn ost
Ġh ugging
us k
Ġre pt
Ġse aled
ĠA ng
il ess
han e
Ġsp ont
ab ilities
qu is
Ġcom ics
ig ence
ig ible
ous ed
Ġman us
Ġman if
Ġjust ify
ĠF ed
ap ole
row ing
ĠC y
oy a
Ġim itate
Ġhouse work
ount ered
Ġfl ipped
urn ed
Ġsw orn
ang ar
Ġsha pes
Ġche ered
Ġcle aring
Ġsn acks
Ġsn iff
erm an
Ġcons cientious
uss y
ĠAl aska
Ġpop ulated
Ġsal mon
Ġ19 2
Ġtem ples
ĠY es
Ġbegin ners
Ġhon ored
Ġce ase
Ġmur ders
Ġed ition
Ġallow ance
Ġball oons
Ġmag ician
Ġdisappoin ting
Ġrecogn ition
Ġbreat hed
Ġant is
Ġsight s
Ġ4 5
Ġobject ed
Ġenc ountered
Ġ6 5
Ġstri p
Ġkil o
Ġenter pr
Ġacqu ire
Ġcy cl
Ġgri e
Ġjew els
Ġdecor ate
Ġoblig ated
Ġgaz ed
Ġancest ry
Ġnic est
ĠPl uto
Ġpi geon
Ġupd ate
Ġesc al
Ġyog urt
Ġprosper ity
quar ium
Ġbankrupt cy
Ġdolph ins
Ġcompar ison
Ġvoy age
Ġfauc et
ĠNob el
B es
R a
S am
S ir
T ur
T ra
r u
Ġt ension
he ll
re y
Ġd ys
on ge
ar us
Ġf erry
Ġn atives
Ġo ceans
Ġe cc
Ġk o
Ġst orage
st yle
se ver
Ġwor m
Ġso aked
Ġpl ug
Ġle ash
Ġle ague
ak h
Ġsp ill
ast ically
ig ers
Ġman ages
ĠS outhern
Ġar chae
ĠM ercury
Ġco ord
ĠC am
Ġad ject
ian cÃ©
oun ce
Ġbr on
ĠG ames
ĠP y
ĠP an
Ġsha ving
Ġear ning
Ġreal ise
Ġfr amed
Ġsk etch
Ġrest ore
ĠH ong
Ġsl ide
Ġkid ney
Ġhot ter
Ġinc ap
Ġvisit or
Ġinf ant
Ġind ex
Ġadd s
Ġgrand daughter
Ġexplain s
Ġtest imony
Ġbox er
Ġpoint less
Ġmod els
Ġmis le
Ġfam ine
Ġextre m
ĠWe b
Ġ3 5
Ġsqu ares
Ġfing ern
Ġpress ing
Ġstar ve
ĠAn tarctic
Ġcow ork
Ġtur tles
Ġwebs ites
Ġsla p
Ġbud dy
Ġpush y
Ġpoll uted
Ġ15 0
Ġobey ed
Ġrefer ring
Ġlingu istics
Ġrepeated ly
Ġtrail er
Ġstir red
Ġpattern s
Ġinstinct s
Ġpharm acy
ĠMad rid
Ġaspect s
Ġflock s
Ġbrut al
gir lfriend
Ġinexp ensive
Ġencoun ter
Ġnorthe astern
Ġcocon ut
B reak
P ull
T ony
W alking
b les
g ot
i as
j ust
u pp
Ġa in
Ġs amples
Ġd ive
on er
Ġm artial
Ġf ists
Ġf iancÃ©
Ġg raz
Ġhe ir
Ġn it
Ġo ct
Ġdo gh
Ġbe w
Ġon ion
al an
Ġst air
Ġgo ggles
Ġte ase
ĠA ss
Ġall e
art ed
ĠB et
ĠB ul
ort ion
ĠL iber
ĠL incoln
Ġcl ay
Ġcl icked
Ġen vious
ew are
ĠT re
Ġimp lic
ĠG l
Ġrem odel
Ġgl ac
Ġcont ented
Ġmar ble
te ous
te enth
ail ing
Ġmet res
pr int
Ġinv asion
Ġem ails
Ġsk ull
Ġclass ic
Ġrain coat
old s
Ġreason ing
Ġchar ism
Ġfire wood
Ġins uff
Ġsy rup
Ġmess aged
Ġsub mit
Ġpast or
Ġmot ives
Ġvac ations
Ġcup board
Ġir oned
Ġimag in
Ġwarm ly
lect ric
Ġsocial ist
ĠJacks ons
Ġeduc ational
Ġattend ant
Ġstorm s
Ġstri king
Ġfeed back
Ġbri be
Any body
Ġsepar ation
Ġlack ing
Ġilleg ally
ĠDon ald
Ġcomb at
Sp ain
ĠPr ot
Ġachieve ment
Ġdiplom at
Ġroll er
Ġcalcul ate
Ġlink ed
Ġuncon t
Ġhom osexual
boy friend
Ġpossess ions
Ġobst acles
Ġbutt ons
Ġarrange ments
Sw imming
Ġprosper ous
Ġbol t
Ġsustain able
Ġward robe
Ġpropag anda
Ġsaus age
Ġsmok er
Ġmaxim um
iche ver
Ġundec ided
A f
T echn
a e
a esar
l anguage
o en
r ition
r ative
r acts
t est
re al
Ġf id
Ġl am
Ġha il
Ġst ag
Ġst ool
ri ages
Ġfor cing
Ġse qu
Ġab st
It aly
Ġr ays
Ġpl ag
Ġall eg
ul ative
ĠB o
Ġthought ful
Ġgood night
ĠL ake
ĠF er
ap or
ard o
Ġcl ut
Ġch urches
ĠE instein
Ġdis abled
Ġfl ashed
ĠR avenswood
Can ada
ĠO ld
Ġpol ish
Ġrep orters
Ġmat hematic
Ġsk ies
sw er
Ġob oe
ĠW ind
Ġinter act
Ġflow n
ĠV ol
Ġmot ive
Ġ201 2
Ġdi pped
Ġ3 1
Ġspeech less
oll o
Ġprov ince
Ġwarm th
Ġobs ervation
Ġaccount ant
Ġcard board
Un less
ĠMar illa
Ġbright ly
ache l
Ġcalm ly
Ġpet ty
Ġsharp ened
Ġcondition ing
Ġstom acha
Ġhero es
Ġport rait
Ġfinan cially
Ġconsum ed
Fin ish
Ġti pt
Ġdiss atisfied
Ġentertain ing
Ġmotion ed
Ġped est
Ġ202 1
Ġanticip ated
Ġaward ed
Ġpharm acist
Ġpir ate
quar ters
Ed ucation
ĠMart ian
Ġgest ure
Ġexperim ents
Ġtut or
Ġmasc ul
Ġprover b
Ġstreng then
Ġber ries
Ġnood les
Ġindisp ens
ĠDis ney
Ġcertific ate
Ġveterin arian
Ġcuis ine
Ġdogh ouse
O il
S er
f ts
h o
k irts
Ġs urn
Ġd up
Ġc ant
an et
an qu
Ġf u
as ha
Ġn erd
Ġh icc
Ġha ck
at ivity
im b
im als
Ġk ar
al o
Ġst oned
Ġwe ary
Ġkn itting
ant ern
un o
un ning
ill es
Ġnot ify
Ġas p
ĠA ct
Ġpl ural
Ġun av
Ġpe ach
ĠM ongol
Ġback up
Ġri bs
ĠC ont
oy al
Ġbr uises
cc oli
Ġpr un
Ġdown loaded
Ġgl uten
Ġfin ance
ĠN eptune
Ġopen ly
ord an
Ġmin i
Ġrel ation
Ġfar ming
Ġent ry
Ġdro pping
Ġins ults
Ġcour teous
Ġmess en
Ġeconom ically
sh irts
Ġsuggest s
ĠCan aan
Ġra ises
Ġprot ests
Ġflo at
Al cohol
Ġdem ol
Ġtele gram
Ġcheck ers
So cial
ĠEurope ans
Ġrul er
Ġmaj oring
Ġgradu ates
Ġtor ch
Ġexha ust
Ġpan icked
Ġmaster piece
Ġcab bage
Ġpsych ological
ĠEve rest
Ġclock s
Ġamb ide
Ġpoison ing
Ġgym n
Ġcopy right
Ġreb uild
Ġadj usted
Ġconsum er
Ġcalcul ated
Ġabsor b
Ġmyster ies
Ġsincere ly
Ġcaf Ã©
Ġdevast ating
Ġrust y
Ġkidn app
Ġdesc end
ĠJud aism
Ġcontem pl
Ġdiscrim ination
Ġinconven ience
Ġproced ure
Ġsubt it
Ġstere oty
ĠSky pe
Ġbene ficial
ĠVir gin
Ġamput ated
Ġtriv ial
Ġindispens able
A part
O A
U sing
b ird
c a
i ques
s un
z el
Ġw iz
om ous
Ġd ashed
Ġd arling
Ġb ump
Ġc el
ar ming
an ity
en g
Ġl oo
Ġp est
es y
Ġg ates
Ġk ings
ic ting
Ġkn it
ad er
ut er
Ġsh ines
ĠA c
Ġal tar
ak istan
Ġsp arrow
Ġun pack
ĠB ou
ĠB ur
ĠB iden
ĠL ink
Ġpe ppers
ra g
ag ged
ĠC enter
Ġbr ake
Ġlast ing
xt rous
Ġgr im
oth s
Ġsur ve
Ġcha mber
Ġrec ite
li hood
oc ch
Ġcons ol
Ġsto ats
Ġdan cers
Ġwar rior
alth y
Ġhum ming
Ġins ight
Ġcut est
Ġworks hop
Ġpar ag
Ġbar bar
Ġ201 1
Ġtop ics
form ation
ah u
oll ar
Ex cept
ĠAn na
Ġbull shit
Ġdad dy
Ġblind s
Ġstri ve
par able
Ġpsy ched
Ġelectric ian
Ġcig ar
ran us
hab ited
Ġho pped
bl ind
Ġmathemat ical
Ġhi pp
Ġbless ings
Ġmosqu es
Ġconsult ed
ibi otics
Ġseas ick
Ġcomplim ents
isp here
Ġbac teria
Ġpostc ards
ĠEvery thing
Ġprescri bed
Ġbom bs
Ġgam ble
Ġpud ding
Ġrestrict ions
Ġtranspa rent
ĠShang hai
Ġrehe ars
ĠSqu are
ĠCE O
Ġshoel aces
Ġecc entric
Ġambide xtrous
4 0
A lex
C han
E le
M el
R eal
a rent
f ront
h or
l ar
n ip
o is
w ith
Ġa quarium
re ens
Ġd w
Ġf oster
Ġl ane
Ġp itched
Ġo y
Ġdo t
le vel
ac cept
Ġsa ves
un ct
ur red
Ġle aking
ak s
ul ates
Ġun le
Ġfe ather
res ist
ous y
ĠS omet
ĠM useum
ĠC he
ick et
ob al
iz ab
Ġsc ram
Ġmo or
Ġhar p
Ġdec iding
Ġfin est
Ġfin ishes
Ġhope ful
Ġacc use
ĠK az
Ġinv inci
ĠD ev
Ġclass mate
Ġrel ied
Ġcomm ission
ys ics
Ġsl ope
Ġcons ume
Ġref ers
Ġtri be
Ġind ec
Ġext inction
Ġtem por
Pe ace
Ġelect ron
Ġhusband s
Ġassum ing
Ġrad i
Ġcamp fire
Ġcorn ers
Ġfarm s
Ġscream s
Ġstri kes
Ġtechn ologies
Ġwild er
Ġperform ing
Ġver dict
Ġspl ashed
Ġexpress ions
Ġunl ock
Ġamb assador
Ġglo omy
Ġpassport s
Ġinstruct ed
Ġcontrib uting
Ġflag s
Ġreb ell
bl ood
Bet ty
Ġexec utive
Ġmemor ized
Ġappeal ed
Ġexception ally
Ġsneak ers
Gr ab
Ġupd ated
Ġpear l
Ġdread ful
Ġpsychiat ric
Ġlun ar
Ġfry ing
Ġpump kin
Ġbang ing
Ġdisgr ace
Ġdiscip line
Mil k
Ġreserv ations
Ġbabys itting
Dam n
Ġepide mic
Ġraz or
apole on
Bes ides
Ġinvinci ble
A art
D rop
E ver
F ill
H it
H ol
K ill
P art
T ebboune
d efense
e at
r ates
r idge
w he
in arily
Ġw ret
Ġm uff
Ġl ick
Ġy acht
it ness
Ġp ears
Ġh ollow
ic ist
ic ation
Ġst ated
ant ically
op en
Ġsu ited
Ġr ans
ĠA llah
Ġfe athers
Wh om
ie val
ave ment
ĠS on
ĠM en
Ġri ot
Ġover head
Ġdis l
Ġmo ld
Ġfl ip
ĠR es
Ġweek ly
ten ance
Ġhard ware
Ġcont empt
Ġdri pping
ĠCh ile
Ġsk ates
ĠH oly
Ġcomm a
Ġsl owed
ank ind
Ġpres erved
less ed
Ġass ess
Ġins ists
Ġran ch
Ġra ft
Ġris ked
Ġdest ined
Ġbull ets
Ġconvers ations
Ġintrod uction
Ġemploy er
Ġlock down
epend able
Ġexerc ising
Ġund ependable
Ġrap e
rop ol
Ġrac ial
Ġcho pping
Ġfrust ration
Ġpassion ately
Pl ay
ĠSal as
En ough
Ġmechan ical
Ġcitizens hip
Ad m
Ġder ived
Ġoppon ents
Ġleaders hip
Ġcongrat ulate
Ġheal ing
ĠPaul o
Ġouts kirts
Ġdesc ended
Exper ts
Ġwoo zy
Ġhitch h
Ġdang ers
qual ified
Ġcyn ical
Ġstomacha che
A ut
B eware
C ha
i pper
m ons
s en
v id
z iz
Ã ¨
Ä ģ
Ġt a
Ġw aff
Ġto ot
Ġd un
id y
Ġk angar
Ġst ern
Ġli k
Ġab ide
Ġwh ir
Ġwh ore
Ġtr anqu
ĠA v
Ġpl ugged
ĠB ang
Ġup loaded
Ġint imate
ĠS aint
ĠM iller
Ġexp ans
Ġexp ired
enn a
Ġapp arent
ĠG aza
Ġrem edy
Ġres erves
ĠP akistan
Ġper ple
Ġatt racts
Ġsha m
Ġunderstand able
Ġche wed
uck s
Ġrep ay
Ġbre ed
oc rit
Ġsk ater
Ġmin eral
Ġsho ved
Ġbro ccoli
Ġcons ole
Ġcold s
Ġtri angle
az ight
Ġfast ing
Ġdef ensive
Ġpop ulations
ĠY oko
Ġpar amed
Ġcur ve
Ġtou g
Ġmid st
Ġbar ked
Al ice
Ġtele ph
ĠAr men
Ġvac ant
Ġmur m
Ġed itor
Ġden ying
struct ion
Ġtruck s
Ġappreci ates
Ġaccount able
lo ading
Ġaut o
Ġgradu ating
Ġfla w
ene z
Ġhy ster
Ġlic enses
Ġcirc les
Ġbell s
Ġoper ations
Ġsharp ly
Ġmap s
Ġpercent age
Ġdisg uise
ĠHar ry
Ġhost ages
Ġrespond ing
Ġtent h
Ġdy nam
Ġeld ers
Ġscrew s
Ġshame ful
Ġqual ities
ĠSa udi
Ġlingu ist
Ġange ls
Ġult imate
ĠBel gium
Ġdecre ase
Ġpir ates
Ġexcess ive
Ġobserv ant
Ġharb or
grand father
Ġadmir ation
Ġminer als
Ġoverlook ed
ĠTuare gs
lov ak
Ġpineapp le
ĠRev olution
ammer i
Ġmerm aid
D own
L ive
d les
e ge
h ol
h ma
v ous
Ã ³
Ġw ip
ha ble
om or
Ġb ats
Ġb ik
Ġl oos
it ars
Ġo ve
at ile
le ton
ĠI m
Ġgo of
se ek
op ot
Ġr it
Ġwor ms
ĠA ges
Ġex ternal
Ġun ite
Ġun kind
Ġun accept
Ġfe m
Ġpro fic
la ziz
ig z
um in
um ble
ĠS ingapore
ĠL ook
ĠM ass
Ġhome made
Ġro ast
Ġbu bb
Ġexp ed
Ġdis k
Ġbl ush
Ġpart ed
Ġaw aken
Ġwhere as
Ġgu itars
Ġimp ul
Ġdec isive
Ġph on
ĠN ep
ĠN ever
li ves
Ġmon sters
Ġrel ies
ĠH arr
ĠH iro
ister s
ĠW ars
All ow
Ġbreak down
Ġind ign
Ġdoub led
Ġdet ained
Ġsim ult
Ġhospital ity
Ġcou p
Ġpower less
Ġappro aches
Ne ed
ĠNew ton
Ġmain tenance
Ġview ed
Ġexist ing
ĠItal ians
Ġcolor ful
Ġembarrass ment
Ġfac ility
Ġbright er
Ġbright est
Ġtechn iques
Ġmir acles
ograph ic
Ġcash ier
Ġwise ly
Ġdesign s
Ġhesit ation
Ġhesit ated
Ġexplan ations
do or
Ġperiod s
uk u
Ġhost age
Ar ab
met ic
Ġcommand s
Ġric hes
Ġconcent ration
Ġoblig ation
Ġcock tail
Ġaltern atives
Ġreven ue
Ġnegoti ate
ĠOn ly
hy d
ĠUkrain ian
Ġgig antic
Ġhyd rogen
ĠSat an
Ġloyal ty
ĠComm un
Ġcorpor ate
Ġweakness es
rep rene
Ġplun ged
Ġfert il
Sa haran
Mill ions
conf ident
ĠArgent ina
Sil ence
Ġunst able
Ġhaird ress
ĠAp ollo
educ ated
Ġparag raph
Ġunaccept able
A q
B ush
G ree
G old
L ots
P ret
R et
W alk
a ver
d led
j ar
j ack
m inton
p an
r as
t ion
Ġt an
ha k
Ġd azz
Ġd airy
ed ro
en ched
Ġl in
Ġl antern
Ġp ardon
Ġdo zed
Ġth ine
ic asso
Ġre ef
Ġst ut
out he
oo per
ut ers
Ġher b
Ġr asp
Ġal t
Ġal mond
Ġall ies
Ġex otic
ĠJ ordan
Ġpe ep
ĠM et
Ġco gn
ĠC ant
ĠC our
Ġlong ing
Ġover fl
Ġdr ained
Ġbl ade
Ġpart ial
Ġbefore hand
ĠR ight
ĠT y
Ġimp e
Ġfa iling
Ġacc using
Ġper ish
ĠO x
angu ages
ĠN ature
Ġcr ust
Ġmat ern
Ġpass ive
Ġsn atched
Ġsl iced
Ġob l
Ġbit ing
May uko
ĠW ood
Ġmus cular
Ġdet est
Ġeconom ies
Ġquiet er
Ġinj ust
Ġbeha ves
ai res
Ġviol ently
Ġprofess ors
Ġpleas ures
Ġcollect s
Ġobs ession
Ġur ine
Ġconst ell
Ġsoci opath
Ġblind ed
Ġstick y
Ġharm onica
Ġexha usting
Ġmood y
Any way
Ġdesp ises
Ġdepart ed
Ġbi kes
Ġdisg ust
Ġstat istics
Ġham ster
Ġut most
Ġroll s
Ġshr ine
Ġpunct uation
Bl ood
Ġdism iss
Ġstun ning
Ġdisappear ance
Ġduck s
Ġchemical s
Ġswims uit
ĠVen ice
ĠNot hing
Ġvent ure
Ġsnee zing
Ġgrin ned
Ġmand atory
Ġcontem porary
Ġdrift ed
Ġvine gar
Ġpy ram
ĠSen ate
Ġcondem ned
Ġshiver ing
Ġdischar ged
Ġrhy th
Ġscorp ion
Ġeclip se
occup ied
Ġmascul ine
Aq sa
A gain
C ap
F oot
I ll
P erson
t hat
u ffe
w ives
z o
Ã ¶
Ġ orth
he rent
in ery
Ġw al
Ġd ental
Ġb ail
Ġm ant
Ġl ump
Ġl ending
it udes
Ġg own
Ġh ind
Ġdo omed
at ar
at ible
ri ers
ac ent
se y
ur b
Ġwh ipped
Ġtr ay
ĠA ge
ĠA aron
Ġpl ague
ab outs
Ġun int
Ġun icycle
Ġv ag
Ġv icious
Ġman go
Ġman aging
ĠS ic
ĠS ee
ĠS cience
ĠL ife
Ġen abled
Ġri g
ĠC oll
Ġunder go
Ġunder water
ĠT itan
ĠG old
ĠG ulf
Ġpa use
Ġmust ard
Ġgl it
Ġsupp lied
Ġsur pass
Ġpret ends
Ġcha uffe
Ġsleep er
ĠK ling
Ġcr ude
Ġcat alog
ced ented
Ġdoor way
oc ulars
Ġla v
Ġent r
Ġent reprene
ĠAl ban
ock s
Ġdep ending
ont o
Ġcor al
ern ed
Ġmed i
Ġcam ps
Ġstore d
ĠThe ir
Ġflow ing
Ġpick up
Ġbar rel
An imals
Ġsuper st
Ġpract ising
Ġexpl oring
Ġste pping
oph obia
Ġrob bers
de laziz
cent ered
Ġweak er
Ġattack ing
Mar riage
Ġ200 3
Ġaud itor
arm s
Ġcharacter istic
Ġjudge ment
Ġuns afe
Ġdig est
Ġgro ggy
Ġcontrib ution
Ġrelie ve
stit utes
Ġdetect ed
Ġchat ted
hemat ics
Ġapply ing
Ġunus ually
Ġhyp ocrit
Ġfra gr
Ġviolin ist
Ġconcent rating
Sm all
Ġdecla re
Russ ian
Ġscen es
Stud y
Su ccess
Ġtransform ed
ĠPe ace
Ġconqu ered
Ġsyn t
Drink ing
Ġsubur b
Ġinstit ution
Mat oub
Ġdiab etes
Ġbin oculars
Ġoutra ged
Ġabund ant
ĠiP od
Ġdub ious
Ġcockro ach
Ġdisli kes
Ġtack le
Ġprepar ation
oca ust
Ven us
Ġtoothp aste
ĠMoz art
ĠYam ada
Ġbish op
sever ance
Ġincap able
Ġfingern ails
Ġuncont roll
izab eth
Ġtempor arily
Ġwilder ness
, '
A ss
D ear
I mp
T M
T alking
b ike
e ment
f are
g ood
g ies
i w
m n
m ails
n ost
n ative
p o
u ity
Ġt roph
Ġw are
Ġs i
Ġs izes
Ġm as
Ġl umber
Ġl ousy
Ġh ub
Ġha re
Ġth igh
im er
am ous
Ġwe aken
ri pp
Ġfor um
ink le
Ġse al
Ġus age
Ġtr actor
Ġsee ks
ol o
Ġv end
res ent
Ġman iac
Ġag ony
ĠS arah
ĠL eb
Ġro be
ĠC omp
Ġad equ
Ġover all
Ġbr ass
cc a
Ġfl ushed
ĠT iz
Ġgu ided
Ġread ers
Ġcont am
Ġatt ach
ĠN ancy
Ġdes ir
Ġbad minton
Ġrep ainted
Ġmet aph
ens ed
lic ity
Ġinf idelity
Ġtri bes
Ġinter ior
Ġsub tle
Ġmed itation
Ġ19 0
Ġdark er
Ġbel ts
Ġmot el
Ġcra ft
Ġmod e
Ġbank er
Ġcre pt
Ġcommun ism
Ġdraw s
Ġprov iding
ĠAnd erson
Ġmountain ous
over ty
Ġmeant ime
Ġannoy s
Ġfre ck
Ġdeterm ination
Ġhy per
Ġaud io
Ġcheap est
Ġess ence
Ġtight ened
Ġbrown ies
Ġfasc ist
Ġham m
Ġwhis ky
ux em
Ġachieve ments
Ġcontain er
ĠSh in
Ġgramm atically
Ġfold ing
Ġstrang led
Ġbitter ly
ĠRoman ian
Ġprec aut
Ġstates man
Ġcraw l
Ġinterpre ted
Ġrenew able
ĠEvery one
Ġprejud ice
Ġdisor iented
Ġesc orted
Ġharass ed
Ġexten sive
ĠMic hael
ogen ic
Ġelim inate
gor ith
Ġprivile ge
ĠSup er
Friend s
Ġrud eness
Ġunhe althy
Ġdefic it
Ġrib bon
Ġiniti ative
bour g
Ġbew ild
Ġteleph oned
B el
C ommun
a fter
b ows
f ia
f aced
l ang
n ia
t ling
Ġ Those
Ġ uk
in occh
om ore
Ġm es
Ġf reed
en ch
Ġp ussy
Ġn arc
Ġo lives
at able
ot ism
Ġre aches
Ġwe ave
ut ton
ur ation
op ia
od ing
ren ched
il ted
up er
Ġsp ying
ab i
Ġun im
Ġun cl
Ġout spoken
ĠB ell
Ġcom edy
Ġv ending
Ġtell y
Ġpe ed
ĠM orocc
Ġen han
Ġen light
ew rit
omet ry
Ġexp ose
Ġcomp artment
Ġam ends
ress ive
Ġfl ush
pt ions
ĠR achel
ĠT a
Ġwait s
ire ct
Ġapp lies
ĠG i
Ġgl ue
Ġper ception
ign ific
Ġ1 000
ĠK urd
iv able
oc us
ĠCh uck
Ġfr ug
Ġac he
ĠH enry
Ġforg ed
Ġadm ission
Ġlight ing
Ġcoll abor
Ġhum our
ball s
Ġart ic
hen tic
Ġpast ry
Ġ19 1
Ġapart ments
Ġresp ir
ask et
Ġsuper ficial
Ġmount ed
Ġconsider ably
Ġcal med
Ġcal ories
Ġeng ines
Ġdi ver
Ġfam ished
Ġpot entially
Ġval ued
Ġstorm ed
Ġflat tered
Ġrock y
Ġtyp ically
Ġexpress ing
Ġess entially
Ġmult i
Ġmotorcy cles
Ġparticip ants
Ġiron ing
ĠNo ah
Ġtoler ance
Ġpure ly
Ġpassword s
Te le
Ġrepresent ative
Find ing
Ġdrow sy
Ġseas ide
Ġbass oon
Ġshell s
ĠBel arus
Ġsnee ze
Ġkidn apping
Ġveter an
Ġwink ed
Ġwrest ling
Ġappla use
Ġmoder ate
Ġabund ance
Ġcockro aches
ĠPri ze
Ġnoun s
Ġunpre cedented
Ġves sels
ĠAlp s
ymph s
ĠAsh ton
Ġzomb ie
Ġsubstant ial
Ġhypothes is
Ġbrows er
Ġcrank y
Ġslo ppy
Ġlegit imate
Ġrept iles
Ġspont aneous
Ġcharism atic
ĠWind ows
Ġkidnapp ers
Ġlik able
Ġchauffe ur
Ġuk ule
inocch io
G reen
J o
K iss
N orth
R ef
S anta
T aro
W in
W rit
b ably
b acks
i ary
l og
t aking
Ġt iring
in ates
Ġs acked
Ġd ash
Ġb ind
Ġc ush
ar io
Ġf iring
Ġl ame
Ġl orry
it ory
Ġp ap
Ġp uff
Ġo at
id al
ri p
ac ies
ro ve
Ġdon ut
Ġnot orious
ami liar
Ġshe er
Ġtr amp
il ant
Ġde hyd
ul us
ind ere
Ġfe es
ry ing
Ġcom r
Ġv iolet
ig rated
el ts
ĠS er
ĠS pe
ĠL aw
Ġar ise
Ġcl ip
Ġch ir
Ġen force
Ġad ores
Ġbr uise
iz ers
em itic
Ġsc old
ue la
ĠT ell
iss ance
Ġimp ose
Ġeven ings
Ġprob ability
Ġpo ets
Ġlive ly
In tern
ester s
Ġshow ered
Ġide ology
Ġcr ouched
Ġopen er
Ġel igible
Ġclass ified
Ġey eb
ĠH an
Ġconf lic
Ġfire man
Ġsol itary
str ong
Ġgen re
Ġtest ified
Ġneighb oring
Ġpick s
An t
ĠSp ir
Ġexpl oration
Ġdiv ision
Ġmis er
Ġtravel er
Ġtravel ers
Ġshut tle
Ġpizz as
Ġant ibiotics
Ġlim bs
ĠPar liament
Ġid ol
Ġfit ness
Ġfla ws
Ġband age
Ġlay ing
rupt ion
Ġknowledge able
Ġmotor bike
Ġsharp en
Ġ18 6
Ġinvestig ator
Ġbal anced
Ġmembers hip
Ab ove
ĠAt hens
Ġdom ain
Ġmel ody
Ġeager ly
Ġbound aries
Cl ick
Ġspo ons
Ġconcl uded
Ġreplace ment
Ġtip sy
Ġrequire ments
Ġimmigr ant
Ġassoci ation
Ind ia
Ġpossess ive
Ġspecific ally
Ġarrange ment
Ġoutdo or
Ġfulf illed
Ġrenew ed
Ġreflect s
ĠWill iam
Ġdepth s
Ġappla uded
Ġharb our
ĠGal ile
Ġdiab etic
Ġunin terest
Ġrew rite
Ġtherm ometer
Honest ly
Ġpubl isher
Ġdiscont ented
Care ful
than k
Ġunreal istic
Ġdat ab
Ġambig uous
Tra ffic
Ġmisle ading
Ġalle ged
Ġhairdress er
ignific ant
indere lla
8 0
B ooks
C ur
D isc
E r
F ine
M ad
P o
P ract
P overty
S k
T y
T our
V iol
c erned
d el
l os
p ress
t ieth
he ro
in come
Ġb ounds
Ġm end
Ġm aker
an im
Ġf use
or ked
Ġp ipes
Ġan throp
Ġh uh
at ter
Ġst ack
Ġst ap
Ġst em
Ġst ained
Ġse lection
Ġso ck
Ġall y
ĠB as
ĠB ol
Ġv ices
ĠS erb
ĠL ady
ĠL ittle
ĠL ouis
ĠF rom
iri es
Ġor al
ear chers
ĠC ast
Ġcomp on
Ġbr ink
Ġsc ales
Ġbl unt
Ġfl uffy
ĠT im
ĠT em
Ġfind ings
ult ure
Ġres ched
Ġgl ow
Ġpol ished
ĠK e
Ġcr ane
Ġcat er
Ġinv ade
Ġprom inent
Ġem peror
Ġswim mers
ĠD a
Ġpay check
Ġadv ances
Ġthir tieth
Ġdist ancing
sh i
Ġmad ly
An swer
Ġinst ance
Ġshot gun
Ġprov in
Ġprov oked
Ġobs ess
Ġpriv ately
Ġsoci et
oul oud
Ġunf inished
Ġsuspic ions
ij uana
Ġdescri bes
Ġtyp ewrit
Ġpan els
Ġlift ing
Ġoper ated
rop he
Ġ9 9
Ġconnect ions
Ġprocess or
Ar ound
Ġast rol
Ġaim s
Ġdiplom a
Ġcircum c
Ġairpl anes
Ġdecor ating
ID S
Ġreb els
Ġtun ed
Ġcolon ies
Ġcolon ization
Ġbillion aire
Ġhel m
Ġunre liable
Te ach
Ġstrate gic
Ġment or
Qu ick
Ġreck on
Ġmanip ulated
Ġincorrect ly
Ġsoph omore
Ġsubscri be
Ġdistrib uted
Ġanaly zed
Ġsatell ites
Ġassemb led
Ġrefres hing
ĠNag oya
Ġconj ug
Ital ian
ĠMaj esty
Ġerrand s
omple te
ĠTro jan
Ġcentiped e
Ġexpans ion
Ġinjust ice
ĠKling on
Ġukule le
! âĢĿ
C O
H oney
I A
J ew
J amal
K y
L ead
M eg
P ray
P ortug
S ing
S ec
f lies
g ular
g ently
m eal
s le
Ġw agon
Ġs or
Ġs ow
an while
it ational
or o
Ġhe aled
Ġha zard
Ġdo ck
ve lt
ow l
ic able
Ġre ct
Ġre vel
Ġst all
Ġwe ld
ri ans
ad ers
Ġat oms
if th
op ular
Ġr uth
Ġr het
Ġtr out
Ġal gorith
ight y
ul s
Ġun beat
ast ics
Ġag ing
ĠS in
ĠS usan
ĠF l
ĠC oun
ick en
Ġad ored
Ġbr aces
Ġday light
Ġdis con
Ġdis reg
Ġunder c
Ġbl ast
Ġtw ist
Ġbook case
reat ing
ĠT est
Ġapp e
Ġres idence
Ġsupp orters
ĠP C
Ġmar gar
Ġrep ro
li x
Ġmon k
sel ess
Ġsn ail
ĠD am
Ġla va
Ġcons on
Ġbit s
Some how
Ġconf ined
br idge
lam ation
Ġchar ger
Ġtrust ing
Ġmess aging
cond ition
Ġcol a
ĠV ictor
ĠV enez
ane ously
Ġce ased
ĠAr my
Ġpolit ically
Ġallow ing
Ġbat he
Ġbat tles
Look ing
Ġrecogn ise
oph obic
Ġobs erving
Ġlone liness
Ġjud ges
Ġcolor blind
Ġveget arians
Ġlim ping
Ġaut hentic
Ġfre aking
Ġeffect ively
Ġorig ins
Ġshar ks
Ġfle a
âĢĶ "
Ġpred ators
Ġtong ues
Ġbrain w
Ġreact ions
ĠUS S
Ġuns c
Ġinse parable
Ġastron omer
Ġfant as
Ġprevent ing
Ġconce ived
min ist
Ġcontain ing
Ġconserv ation
Ġunfair ly
Ġlink s
Ġuncon cerned
Ġhom icide
Ġbul k
Te achers
Ġabsor bs
Ġpurs uit
Ġdemonstr ate
Ġdemonstr ation
Ġirre gular
Ind eed
Cle arly
Ġdispl ayed
Ġsneak y
Res earchers
Ġgalax ies
Ġjum ps
Ġskate board
Ġsacrific es
Ġproc rast
Ġsubm itted
Ġic on
ĠiP ad
Ġreun ion
Ġinherit ance
ĠIndones ia
ĠApp le
Beaut y
Ġbureauc r
aith ful
Ġeloqu ent
Ġcateg ory
Ġmicrosc ope
Ġkar ate
Ġsubtit les
ĠOx ford
Ġauditor ium
ĠSpir it
C al
F ort
F resh
H igh
L ar
S D
S al
S ex
W estern
g rown
m ia
n ie
p ost
r in
r ace
r ors
s he
s chool
s pring
t w
Ġ vel
Ġt ails
re m
Ġc uss
ar ia
it ations
Ġp avement
Ġhe ns
ot ter
Ġk anji
ic iency
Ġst y
ri v
ri ff
Ġli zard
ad ies
ent husi
He athers
ch i
It s
Ġsu ic
ĠA li
Ġde br
ĠB ush
ĠB eth
est hetic
and ra
ĠS ara
ĠS pring
ĠL isa
Ġor bits
th ur
Ġpe aches
ĠM el
ra wn
There fore
Ġco ff
ĠC P
ick y
ĠE v
Ġbr ushes
em en
Ġsc aring
Ġpart ying
ĠT oy
Ġlife guard
Ġimp acts
ĠG a
ult ural
Ġread ily
Ġsupp ress
In vest
Ġear liest
ĠN ar
orm ally
ĠK ar
Ġrec re
Ġcr ooked
Ġrep rod
li ved
Ġmon ot
ĠEnglish man
Ġhead quarters
Ġrain forest
ĠW ales
Ġconf isc
Ġref using
Ġhair y
Ġtri ple
Ġev al
Ġsun k
app y
Ġfast en
erv ice
Ġdef inite
Ġteam mates
Ġpat io
ĠChrist opher
Ġ19 50
Ġpar as
Ġtou ches
ĠV OA
Ġpost er
Ġbody guard
dred s
eth ical
Ġcla pped
Ġgener ate
Ġeng age
Ġren owned
cri be
bo ards
Ġprop he
Has n
With in
Ġequ ator
eg as
Ġmach inery
Ġflu ency
ĠWhat s
Ġcreat or
Ġenc han
Ġrese mble
Ġstorm y
Ġblind f
Ġlab our
nect ed
Ġban quet
Ġextra v
Ġhabit at
Ġacqu itted
ĠDo ctor
Ġcivil ized
Ġlit ers
Ġfurn ished
Ġconce aled
Ġsymp ath
Ġcro s
for ced
ara oke
ĠDe ath
Ġsettle ment
Ġvacc ines
Ġdisappear ing
Ġaston ishing
Ġvul gar
Ġnurs ery
Ġisol ation
Ġprotest ed
Ġinit ial
Ġrefuge e
Ġnin th
Ġexcl uded
Ġorphan age
Ġmamm al
Ġsquee ze
Ġgrin ning
Ġsole ly
Ġprem ature
Ġrecy cle
Ġrenov ated
Transl ate
Ġash ore
Ġbuzz ing
Rel igion
Ġperce ive
Ġscr ub
Ġillum ined
Ġcorp se
Ġfirefight ers
Mic hael
Ġdomin ant
Ġgoog led
Ġcomed ian
Ġfunn iest
Ġmanus cript
Ġwiz ard
Hol mes
Ġtoot ha
Ġdatab ase
Ġdebr is
A bs
D iv
D raw
E S
F arm
L end
M et
S n
S usan
V D
b ound
e h
e ight
e ffect
f ly
h ou
h of
n ine
r ad
r ational
Ġt ipped
Ġt sun
ha ma
Ġm oust
Ġc ripp
Ġl aser
Ġp int
as ure
Ġo zone
le m
Ġst ages
Ġli ars
se ven
Ġsa bot
Ġnot ion
Ġsu cc
Ġr aced
Ġany ways
Ġneed ing
Ġneed les
Ġsp ear
Ġde w
ight ed
Ġun m
Ġun enthusi
Ġun ethical
os om
and y
Th irty
Ġfe as
Ġv ouch
um ing
th ree
ĠM i
Ġback ward
ick ering
ob i
ob s
ĠE s
Ġpr one
Ġgr ind
Ġfl ut
ĠR h
Ġimp ly
ĠG anon
Ġgl imp
Ġprob e
In c
Ġatt ain
Ġrec ollect
Ġcr ad
Ġfun ding
Ġfun ctions
Ġwom b
Ġthr ust
Ġsk ys
ĠD iana
Ġrest s
Ġbeg ot
Ġinf lam
br id
St ick
osp here
ĠHe re
Ġins ignificant
Ġagree ing
Ġdist ances
Ġorder ing
Ġrequ ests
Ġav id
Ġterri fying
Ġbar rier
Ġrece ives
Al right
Ġgovern ed
eth oven
ĠAr t
Ġhang over
Ġapolog ies
Ġbat hed
Ġproduct ivity
Ġexcept ions
Ġfail ures
Ġcollect or
Ġant id
Ġafford able
Ġ4 8
ograp hed
Ġur gently
Ġphys icist
Ġunf or
Ġunf aithful
Ġaud i
Ġpropos ition
Ġtrick y
Ġaccess ible
stit ious
Ġcourt esy
Ġmel ts
Ġflood s
for ward
Ġdear ly
Ġconcent rated
Ġtun a
Ġwhist led
Ġpurs ued
Ġpurs uing
Ġblo oming
Christ opher
Ġextraord inarily
Qu ite
Work ing
Ġsib ling
Ġdistingu ished
Ġexhib it
Ġang les
Ġdecre ased
Ġod or
Ġcorpor ations
Ġsatisfact ion
Mat hematics
Hun dreds
ĠMount ains
ĠAir port
Ġoptim ist
Ġdolph in
Ġinterpret ation
Ġaccommod ate
Europe an
Ġmast ered
Ġfisher man
Ġinject ion
Ġvitam in
Ġorg ans
ĠDes ert
aren ess
pow ered
ĠSec ret
ĠScott ish
Ġnost al
Ġmanif est
Ġmathematic ian
Ġoy sters
Ġglimp se
! !
C alm
D ay
D ep
D ream
G as
H O
I ran
L aw
L aurie
M is
N ight
P rot
S we
S een
T O
d es
h un
i enced
m ill
o ed
p ent
p aper
s ized
u y
u ilt
w atch
Ġt ac
Ġto aster
Ġd ip
is ance
Ġb raid
Ġc ass
Ġc unning
an ke
Ġl enses
us c
us ively
le gged
et ition
Ġk m
Ġwe aving
ri z
ac ulous
He len
se ct
ill as
ill ance
ro lling
ust rial
Ġj er
ĠA g
Ġde em
ul ips
Ġcon str
ol in
Do ctor
ĠS iber
ap e
ud der
Ġcl uel
Ġch illing
Ġpe ek
Ġro asted
Ġcomp ound
Ġover coat
ĠT wo
Ġfin ances
In s
Ġmet als
Ġmet ropol
Ġmon itor
Ġsing ular
oc ating
Ġhun ch
Ġhun ted
Ġem igr
Ġsk is
Ġsk unk
Ġmin ing
ĠD VD
ĠH ubble
oub ted
Ġair line
Ġfoll y
Ġins ol
Ġlunch time
Ġmed ieval
Could n
Ġsign als
gr ade
Ġsuper stitious
ĠAr m
Ġsad ly
Ġapolog izing
Ġdi arr
Ġrul ing
rat is
oose velt
Ġexcept ional
Ġcult iv
Ġeight h
Ġant hem
Ġproper ties
Ġaut ograph
Ġenv ied
Ġcreat ivity
Ġfle et
Ġstri pped
Ġunf amiliar
Ġcast les
ĠZ e
fortun es
Ġrock ing
Ġmass es
ĠTh us
Ġdesign ated
Ġpred omin
Ġbreath taking
Ġrecommend ation
Ġbrave ly
Ġvan illa
Ġdetect ives
Ġneighbour ing
Ġdefend ant
Ġmel anch
Ġeld est
Ġpronoun s
Ġdece ased
Ġhyp not
soci ation
Ġshr imp
gu ards
Ġconsum ers
Ġlimit ations
Ġbra gged
Ġclar ify
Ġvot ers
ĠCon stitution
Ġaston ishment
Ġgrav itational
Ġterrit ories
ĠCD s
Ġintimid ating
Ġult imately
Ġexceed ed
Ġsurren dered
Ġreception ist
Ġharass ing
hens ible
Ġrecon c
Ġfrank ly
Ġbrut ally
Ġexten sion
Ġelim inated
Ġdisli ked
Ġabol ished
Ġattrib uted
Ġhedge hog
Ġratt led
Clim ate
Ġquarant ine
Ġpha se
ethe less
Ġimmort al
Ġgraz ing
Ġsurn ame
Ġunpack ing
ĠKaz akh
Ġrhyth m
Foot ball
uxem bourg
Ġunbeat able
Ġcros sw
Ġunenthusi astic
Ġcluel ess
2 00
B udd
C over
D ates
D ef
J upiter
L a
L ie
M al
M ine
d ies
d ling
d ollar
h ouses
i versity
l it
l ad
p in
p ot
r ations
u zz
v i
Ġ Ã
Ġt ucked
Ġd ice
on ian
Ġthe ore
Ġm ule
Ġm ashed
Ġp ac
Ġp ounding
as ped
Ġn ude
Ġo ath
Ġdo orm
ow ers
ic ol
Ġre hab
Ġst reak
Ġst itches
Ġfor ks
Ġli able
se en
ch ild
ami ly
Ġsh red
Ġsh ipping
ĠA IDS
Ġsp ine
est eem
Ġpro sec
Ġpro secut
Ġpro stitutes
Ġv ic
ĠS ad
ĠS orry
ĠL oun
ĠF est
Ġcl ung
Ġch illy
ĠM ost
Ġcar c
ft en
Ġdr astic
Ġsc ores
Ġsc reens
act ly
Ġchan nels
pt ic
ĠT ry
Ġwhere abouts
ĠG P
Ġpa ved
Ġdif fers
ise xual
Ġfa x
Ġres olve
Ġmorning s
ĠD el
Ġbo asts
Ġpay ments
Ġhot test
ĠW i
Ġdisc l
Ġtrans plant
Ġinf uri
Ġlisten er
Ġmean ings
ps y
Ġind ef
Ġred ucing
Ġsy nd
cy cl
Ġdist ress
Ġgen etic
Ġpop e
Ġbirth days
Ġshort cut
conom ic
ins ula
den ed
Ġbox ing
Ġprod ucing
Ġflo ated
Ġpost ing
cl oth
So ccer
Ġmis chie
Ġir rational
Ġmedic ines
Ġvill ain
rat ic
Ġhide ous
Ġorgan izations
rib ly
Ġfac ilities
Ġterm inal
Ġprev ail
Mar cus
Ġble ach
Ġ200 9
Ġmass ac
Ġemer ging
amb oo
Ġhero in
Ġrub bing
law s
Ġvan ity
Ġcontrib ut
Ġpuzz les
Ġast hma
Ġreb el
ĠCol omb
Ġsword s
Ġexec ution
Comp uters
uine a
Bu ild
Ġexagger ate
Ġinit ially
Ġexpand ing
Res pect
Ġindic ates
Ġwel coming
Ġscrap ed
Ġingred ient
Ġtrim med
Ġven ge
Ġdestruct ive
Ġcompre hend
Up on
Ġdisob edient
Ġawait ing
Ġtraum a
Ġmour ning
amen hof
Ġjelly fish
Ġfirefight er
Gen eral
Hard ly
itz hak
ĠDem ocratic
lore n
Fore ign
ĠTam azight
ĠTor onto
Ġinterven e
Ġoverreact ing
Ġfatig ue
Ġoct op
Ġimagin ative
Ġfem ales
ĠCour t
Ġrig id
Ġware house
Ġtypewrit er
Ġruth less
1 3
B en
D ark
F ight
H ome
M ount
P ark
T im
c oon
c opes
e ys
f unction
g reen
h ist
i ge
m aster
p ock
r ong
v ised
he ld
Ġw ires
ha ke
on ese
er ation
ar ked
Ġl ac
Ġl uc
it i
it ical
or ig
or ning
or ical
Ġg erm
Ġin cons
at ism
et ah
Ġe cho
im ates
Ġre j
Ġkn eel
Ġit chy
all ows
Ġr aging
ĠA ny
end ers
Ġsp ared
Ġsp onge
Ġout d
ann er
ist ance
ig m
um s
Ġlo aves
Ġjust ified
Ġar che
Ġor c
ear ing
th i
th ird
Ġch ol
ck er
Ġoff spring
Ġri vals
ĠC ross
Ġpre st
Ġpr ick
Ġhouse wife
Ġgr ains
Ġdown s
ĠT ak
ĠT aro
ĠP ole
Ġatt ained
Ġatt ends
ĠO tt
Ġide als
Ġrec ip
ens itive
Ġwalk er
Ġsent im
Ġsk irts
Ġsn ores
ĠD J
ĠD ar
ĠD iner
Ġcomm itting
Ġcons p
cle ar
Ġtri f
Ġred und
Ġhor ribly
sh ot
Ġcou ghed
ne um
Ġpast ure
Ġtransl ators
Ġve ins
Ġbar ley
Ġcond o
Ġprof itable
Ġtax is
Ġmedic ations
Ġbur ger
Ġassum ption
Ġstraight ened
Ġavoid s
Ġauthor ized
Ġcompet ing
atic an
Ġvar ies
Ġtechn ological
Ġcoun ty
Ġfright en
Ġsens ation
Ġdry er
ĠAs sociation
Ġund ressed
Ġhall uc
Ġpath s
Ġfoc using
do ing
Ġattempt ing
Ġstrength s
Ġcontr ast
Sp ace
Ġconce ive
ĠSo cial
Ġdelight ful
Ġvers es
Ġtransport ed
Ġneare r
Ġdim ensions
Ġentertain ed
ĠBudd ha
ĠJane iro
Ġcaut iously
jam in
Ġfox es
Ġvir al
Ġverb al
Ġdiscover ies
cel ona
Start ing
Ġdistrib ution
Ġrecy cled
Ġted ious
Ġtransm itted
Ġgraph ic
ĠGen eral
tell igence
Ġshif ts
Polit ics
Ġyawn ing
Ġevac uate
Ġpupp ies
Tw enty
ĠIceland ic
Ġvitam ins
Ġdiscour age
ĠMc Donald
lif ting
Ġcontinuous ly
ĠFilip ino
Ġintoler ant
Ġslaught er
ih il
ĠAntarctic a
Ġfu els
Ġscram bled
igz irt
Ġexped ition
nost ic
Ġsociet ies
Ġhelm ets
Ġtsun ami
oubted ly
D avid
E mp
K ar
L incoln
S l
S ub
c u
e rer
k ers
m aking
p m
Ġt ux
in is
re me
Ġb osom
ed o
Ġc ork
ar ity
Ġf ills
Ġy ards
Ġp m
Ġp ies
Ġhe ap
Ġo k
Ġha lt
ay al
Ġk araoke
Ġst re
st s
se ud
ith uan
ro id
ut ches
her ic
ur g
Ġsh itty
Ġwh ichever
op y
Ġsu pre
Ġr amb
ĠA TM
il ized
Ġal tered
Ġso aking
ge bra
Ġsp ons
Ġun pl
Ġun har
Ġun att
Ġun natural
ĠB ay
Ġcon lang
ist ence
Ġthere of
ĠS k
ĠS uz
ĠS lovak
Ġar d
Ġor ient
ĠM any
ĠM eg
Ġen ables
Ġen cycl
ĠC aesar
Ġover confident
Ġbr at
Ġnew er
ach us
Ġaw areness
ĠR el
ĠR em
Ġimp ulsive
ĠP en
Ġmar ve
Ġmar ijuana
ĠK u
ĠK ash
ince re
Ġinv olving
Ġfr anch
be ing
Ġbo ast
ĠH y
ĠH ans
Ġcomm od
Ġsl ender
Ġpain ts
lic ate
Ġinc or
ĠW olf
Ġhair s
iet ies
Ġev olved
Ġsol o
ĠAmeric as
hip s
Ġdet erg
Ġsub mar
Ġgen oc
Ġpat ted
Ġpat ron
Ġprot ocol
Ġprod ucer
Ġty re
Ġcra z
Ġsad dle
Ġprotect s
Ġapolog ise
Ġform ula
form ed
Ġ3 3
Ġdev oured
Ġsqu at
Ġprov oke
Ġdrug store
Ġer ad
Ġthrow s
Ġfresh ly
Ġband s
Ġtechn ician
Ġdry ing
Ġcharacter istics
Ġsepar ates
Ġexpress es
pa id
Ġaband onment
Ġcy ber
Ġgri lled
Ġscrat ching
Ġirrit ating
Ġcolour ful
sc ale
Ġgreet ing
Ġfashion able
Re lax
Ġnu isance
Ġdece iving
Ġconduct or
Ġjournal ism
Ġsymbol s
Se a
Me et
Ġmultip ly
Ġmerc hand
Ġstro ll
Ġdim in
Ġing en
Stud ying
tar io
Ġflir ted
Ġque er
Ġgamb ler
Ġaffection ate
Ġvolc anic
Ġuncertain ty
Ġdecre asing
Ġsci ences
Ġexcl usively
Ġproceed ed
Ġhandcuff s
Ġaddict ive
Ġchoo ses
Ġhambur gers
Ġhumid ity
Ġoutra geous
Ġic onic
Ġaster oids
Ġcontrovers y
Exper ience
Par is
Dri ving
Ġtwe et
Ġcounsel or
Ġencl osure
Ġlegisl ation
Ġchuck led
Know ledge
cour se
Near ly
Af ric
Ġmessen ger
Ġsurve illance
Ġdw elt
Ġsi ren
ĠKurd ish
Writ ing
Ġbrainw ashed
ĠUSS R
ĠWhats App
Ġextrav ag
Ġtootha che
A g
C ows
C atch
F i
H uh
I V
I ron
L ately
L ondon
M t
P rep
R est
R ob
R oll
b el
d ro
d ings
m al
m ated
t urn
v ironment
Ġt iles
Ġa uction
in os
in ian
Ġw ilt
Ġs led
is ation
Ġb ip
Ġb isexual
ar b
Ġf ug
Ġf ib
Ġl ur
Ġy o
Ġn un
Ġin habited
Ġbe an
at ious
et ts
ro st
ome gr
Ġse ct
Ġsh iny
ust ered
Ġab n
Ġal armed
Ġle opard
Ġneed y
Ġsp here
Ġall ig
Ġde ploy
ĠB ra
Ġup s
qu ality
fe w
ave l
ĠS U
ĠS ue
ĠL id
ĠL ab
ĠL ike
ĠF red
ud a
ĠJ eff
Ġch ronic
Ġaf ar
Ġqu art
Ġpe asant
ect ive
Ġen rolled
Ġro ar
Ġco ke
Ġoff ence
ĠC ons
Ġtalk er
Ġcomp r
Ġpre occupied
Ġover st
Ġbr im
Ġsc or
Ġsc rib
Ġsc oot
Ġsch iz
enn y
og ical
Ġnight stand
ĠP et
Ġfin als
Ġ2 9
Ġsha ves
Ġche ering
ĠN ara
uck er
iv a
Ġcr utches
Ġdoor kn
Ġmor on
Ġinv olves
Ġend ured
Ġret ail
lic it
ĠW omen
uss ion
Ġkiss er
az e
az i
Ġfree zes
Ġheart less
Ġins incere
Ġfast ened
Ġdist inction
Ġtre acher
Ġsnow y
Ġsnow board
port s
Ġfollow ers
Ġpar lor
Ġra ven
Ġprot esters
Ġcur few
Ġbar ren
ĠIn c
Ġphot ographed
ma id
Ġspecial ty
Ġdam ages
book s
Ġappear ing
Ġappre hen
Ġpleas antly
Ex actly
Ġflu id
Ġsweet est
Ġprev ents
Ġfort night
Ġble ed
Ġ200 8
Ġfan atic
Ġver ify
Ġver tical
Ġsimilar ities
Ġoper ator
ils on
Ġcris p
ocr ates
Ġ199 8
Ġswear ing
Ġtool box
Ġdisp ose
Ġmagn itude
Ġnap kin
Ġdesert ification
Ġpra ises
Ġminor ities
Ġwarning s
Ġcruel ty
Ġcart oons
Ġbrand y
Ġeth ical
Ġmotion less
spe ed
Ġspect ators
Ġpess im
Ġsem i
Ġresident ial
Ġobst acle
Ġmanip ulative
oles c
Ġchap ters
Ġrevolution ary
Ġlandscap es
Ġinex per
ĠRepublic an
Ġfoss ils
Ġthumb s
Ġsurviv or
Ġtransm ission
Ġsaus ages
ĠTuare g
Reg ard
Ġintro verted
Ġimprison ed
Ġcuc umber
Ġclo ak
ĠNi ger
roduct ive
Ġstalk er
ĠGeor gia
Ġbron ze
ĠProt est
Ġperple xed
Ġprofic ient
Ġimpe cc
Ġadequ ate
Ġfrug al
ĠVenez uela
Ġfeas ible
ĠFest ival
achus etts
Ġmerchand ise
omegr an
F if
G oogle
K ing
M o
P ublic
S at
W ine
Y id
e ous
g reat
h r
l isted
p ill
r ust
r ote
s ky
s kin
u ccess
v ably
w ind
Ġ ome
Ġt igers
re a
Ġd azed
Ġl ing
Ġl ag
Ġl oun
es cope
Ġg ul
Ġhe ck
Ġn our
Ġo h
Ġan at
id ency
Ġha cked
at hing
us ional
Ġre e
ith metic
ir on
ut y
Ġsh uff
Ġwh im
if fe
Ġr h
Ġr amen
ren d
Ġun not
ĠB oth
ol k
Ġint ensive
um ps
Ġman e
Ġman ga
ĠL at
Ġar bit
th rough
Ġqu iz
ĠM ag
Ġco pper
ĠC old
ĠC roat
ade qu
Ġcomp atible
em per
Ġdr astically
Ġsc orn
Ġunder m
Ġfl oss
Ġsw itches
ĠT s
Ġbuy er
Ġpa ink
Ġdec ay
Ġdec ency
Ġgl owing
Ġhard ened
Ġmar ched
Ġche etah
Ġcr unch
Ġmor als
Ġmat t
Ġfr anc
Ġsk im
ok u
ater rest
Ġhigh light
Ġreg ain
ib et
olog ically
br other
ĠHe m
Ġpop ulous
Ġcost umes
Ġcontin ually
Ġcur b
Ġcur led
ĠV alley
ĠV atican
Sh ort
An na
Ġsuper hero
Ġhid es
Al ban
Ġinform al
Ġrid den
Ġrid dle
Ġtele path
Ġgener ated
Ġir resist
Ġste ering
Ġcop ying
Ġtow ers
Ġdev out
Ġeff iciency
Ġappreci ation
Ġorgan isms
Ġunc les
Ġunf azed
Ġmatch ing
Ġcirc ulation
Ġmotor way
Ġund one
Ġconnect s
Ġcommunic ations
Ġtempt ing
Ġguard ian
Ġinstruct ion
Ġdisag rees
Ġdom inated
Ġcrack ing
ĠPal ace
Ġstock ings
Ġvirt ues
Ġded icate
Ġlob ster
Ġmisunder stand
Ġdecl ining
Ġgre asy
Ġhistor ian
Ġcher ries
Gu ys
auc as
ĠPro fessor
Ġneat ly
Ġbun dle
Ġdial ogue
Ġbond s
Ġobserv ations
Ġmand olin
Ġpoo rer
ĠMal ays
Ġcos m
Transl ating
uten ant
Ġimper ial
Ġunbelie vably
Ġvom it
Ġexplo it
Ġperce ived
Ġcompassion ate
conf idence
Ġcorp us
Ġrefres hed
Ġinnov ative
Ġroo ster
Ġerect ed
Ġcatast rophe
Ġsob bing
Ġpersec uted
Ġmarsh m
Ġinsuff icient
Ġtipt oed
Ġimpul se
ĠCant onese
Ġnarc iss
Ġastrol ogy
ĠNar ita
Farm ers
Ġcrad le
Ġpac if
Ġmischie vous
loren ce
Ġunhar med
B lessed
J oe
J uan
M art
N ormally
P our
P ress
S qu
T er
Y itzhak
b uild
c hen
d est
l ined
l eness
m ann
m outh
p age
t an
t led
y gh
Ã §
in ch
in ux
in fl
re hensible
Ġb amboo
Ġm op
Ġc ube
ar ation
Ġf itting
Ġf aked
Ġy eah
Ġp neum
Ġhe ed
Ġn ud
Ġin put
Ġbe ams
at ized
ay as
Ġon going
al in
al ia
ri ve
Ġli vest
st ar
ad ian
un ts
ur f
Ġat om
Ġab ack
Ġwh ining
op in
Ġso y
Ġpl aus
Ġun r
Ġun think
ĠB ook
ĠS or
ĠS ato
ĠL anguage
Ġtell er
Ġar k
Ġar son
Ġch illed
Ġqu ad
Ġqu otes
ĠM ammeri
Ġhow ling
ra ught
ag ull
ĠC re
ĠC ivil
ĠE iffe
Ġdis rupt
Ġdr ugged
act ic
get s
get table
Ġfl ab
Ġfl ustered
ĠT er
ang ing
Ġsupp lier
ĠP at
ĠP icasso
Ġcont acts
Ġmar g
Ġmar riages
In ter
ĠN avy
uck ing
Ġrec alled
Ġcr am
Ġcr ook
Ġcr icket
Ġel ite
Ġunt idy
Ġprom oting
be an
Ġsn ored
ĠD iet
Ġsho ve
Ġbo ils
Ġcomm otion
ank ing
Ġpres ume
Ġret ro
Ġconf orm
cept ive
Ġcook er
Ġtri b
Ġsum mers
Ġred uction
Ġaccident al
Ġdet ention
ĠSt at
Ġsub d
Ġgen es
Ġcost ly
Ġsnow fl
Ġsnow storm
Ġca ffe
sh ore
Ġperm itting
Ġty r
ĠIn stitute
Ġborrow ing
Ġcla pping
Ġdiscuss ions
Ġren ting
Ġcorrect ing
Ġste als
Ġform ation
Ġz ip
Ġdraw ings
Ġcrow ds
Ġski pping
oph ren
Ġlim p
Ġobject ions
Ġfac ial
Ġcow ards
Ġdeb ated
Ġattack er
Ġsoci ally
Ġsoci able
let te
Ġpool s
Ġimm oral
Ġdel usional
Ġmeaning ful
Ġcirc uit
ĠTh ou
Ġund oubtedly
Ġtrad es
Ġnon etheless
ĠThere fore
Ġsuspicious ly
Ġcommunic ating
Ġ18 0
Ġ18 7
Ġcarp ent
Ġcourt room
ĠTr ansl
ĠPh il
Ġpil ots
Ġsignific ance
fl ower
Ġapplic ants
Ġdele g
Ġvirt ually
Se lf
Se ven
Ġcompos ure
Ġ16 0
Ġbra g
Ġfog gy
Ġsexual ity
ĠOn tario
Ġpin ch
Ġspect rum
oj is
Ġcas ino
Ġperman ently
ĠHawai ian
Ġtorn ado
Ġexcl usive
ena issance
uz ou
Ġax e
Ġsubscri bed
Ġdial ed
Ġacquaint ances
Ġreveal ing
Ġbloss om
Ġsweep ing
gir l
ĠNaz is
Ġcanoe ing
Ġpled ged
Ġerup ted
Kn owing
Ġanch or
Ġleap ed
Ġrestr icted
Ġdisadvant age
ĠFore st
Certain ly
Ġapr ic
Brit ain
Ġhypocr ite
ĠPut in
Ġvolunt arily
ĠFed eral
Ġenterpr ise
Ġadject ives
ĠAss ange
ĠTre k
Ġcant een
ĠVirgin ia
ĠYoko hama
ĠTiz i
Ġmes mer
Ġartic ulate
Ġeyeb rows
Ġsuic idal
Ġunfor gettable
ĠSecret ary
Ġencycl oped
Ġfranch ise
Ġdeterg ent
ĠSU V
Ġschiz ophren
Ġdoorkn ob
ĠEiffe l
4 5
B rian
C orrect
E xt
E lectric
G B
H ot
H orses
M ath
N a
W ood
W orld
d ney
f ires
f ounded
h u
j ong
j ura
m eter
o ir
r us
r ound
t ie
v in
Ġt ended
Ġa ching
Ġd ensity
on i
on ies
er os
Ġm oss
hat e
an ked
Ġl ens
Ġl amps
Ġp am
Ġp acks
es ity
Ġg a
Ġbe ep
at ers
ot ch
le g
gh dad
am ine
Ġre ap
Ġst ains
Ġkn itted
st ant
Ġne cks
He ather
oo ped
Ġse iz
Ġsh un
Ġle ase
Ġout cast
ack ing
ie ces
Ġman agers
Ġag g
Ġag ents
Ġag nostic
ĠS chool
ĠL u
Ġcl am
Ġch oking
Ġqu ot
ĠM um
Ġco zy
Ġexp orter
Ġcar rot
ĠC aucas
Ġwr ists
Ġad orn
Ġcomp act
Ġcomp ulsive
Ġover board
Ġgr ams
Ġsw amp
Ġwhere in
Ġdec ides
âĢ ¦
Ġpo llen
Ġmar s
Ġper for
Ġwin ners
Ġstr ained
Ġfound er
Ġdri zz
Ġcha ined
Ġbad ge
Ġrec order
Ġcr ab
Ġcr umb
Ġreal izing
Ġrep rim
oc ation
ĠCh ris
Ġfr antically
Ġsupposed ly
Ġac ute
ĠH a
ĠH im
Ġob ese
Ġrun g
Ġret reat
Ġent ers
so ft
less ness
Ġbooks hop
St raw
Ġexc laimed
ĠHe ll
Ġcour ts
Ġmil ked
Ġsal aries
Ġcol ored
Ġsnow fall
gr aph
ĠY emen
ĠUn fortunately
Ġann ihil
Ġce ment
Ġdiv ides
Ġmis chief
Ġmis fortunes
Ġphot ogenic
âĢĿ .
Ġform at
Ġimag ining
Ġescap ing
Ġrad ar
cer ity
Ġappreci ative
Ġaccount ing
lo ven
ĠAn t
ĠAn cient
Ġcompet itors
Ġfort ress
Ġneg lig
Ġtechn ically
Ġsort ed
Ġspread s
Ġpersonal ities
Ġconnect ing
Ġ18 30
Ġrum our
Ġinvestig ated
Ġconfident ial
Ġdia per
Ġmagn ets
Ġstat ues
Ġske leton
Ġspr ings
Ġge ometry
Rem ove
Ġthri ll
Ġincident s
Ġstret ching
Ġanti qu
Ġnod ding
Ġstream s
Ġbra gging
Ġsett lers
Ġmechan ics
ĠSy dney
Ġboo ze
urd jura
Ġgaz ing
ricult ure
Ġscen ario
Ġaccur ately
Ġorbit ing
Ġappeal ing
Ġunp ro
Ġhook ed
Ġwave length
alt ese
Ġmanip ulate
Ġintrig uing
ĠBar b
Ġdilig ence
Ġax is
Ġbrick s
Ġsuck ing
Ġdram atically
Ġinqu ired
ĠMil an
Ġrenov ating
ĠIran ian
Ġmoder ation
Ġvolcano es
Friend ship
ĠNaz i
Ġemphas is
Ġbon us
Ġreass ured
Ġevac uated
ĠOther wise
Pat ience
Ġweep ing
Ġsavage ly
uber cul
ĠDj urdjura
Ġsyll able
Ġcomprehen sive
Ġpengu ins
ĠIS IS
Ġsanct uary
Ġsouven ir
Ġconvict ions
quis ite
Ra ise
Ġcowork ers
Ġstag gered
ĠDisney land
Ġhicc ups
ĠAc ade
Ele phan
ĠSomet imes
ĠMass achusetts
Ġhypocrit ical
Ġtroph y
Ġfreck les
Ġrespir atory
ĠTem ple
Ġresched ule
Ġcater pill
Ġprovin ces
Ġbureaucr acy
Ġconfisc ated
effect ive
ĠEs au
Ġdiarr hea
Ġpredomin antly
Ġoctop us
Ġorc hard
Ġunnot iced
Ġmatt ress
Ġirresist ible
Ġreprim and
B reat
C old
D en
E arly
F red
F ocus
H mm
K o
L anguages
P ower
S ign
T an
b a
p ared
p ox
t ails
z ards
Ã ¤
Ã ¯
Ġ âĤ
Ġt ant
Ġt ents
Ġa qu
ha w
on or
Ġb out
Ġb our
Ġm un
Ġm owing
Ġm ales
Ġm ittens
Ġf aking
Ġf ury
Ġl ull
Ġp orts
Ġp seud
Ġg au
id able
ot ional
Ġwas p
Ġe h
Ġe aves
Ġk ins
Ġk imon
ri ous
st ory
Ġsa ils
ro e
ir k
ir y
ur rect
Ġse wed
Ġab using
if ference
op l
op lan
Ġr ushing
Ġtr aces
ĠA gency
end o
Ġsp un
Ġsp acious
Ġde me
Ġun ic
Ġun rest
Ġun its
ind eer
ann e
ĠS ant
ĠS il
ĠS ince
ĠS hib
ĠS Ã£o
ĠF ire
ĠF ij
Ġch ina
ĠM or
Ġback ing
Ġexp ires
Ġlong ed
Ġad ul
Ġcomp ose
Ġday break
Ġsc ree
Ġunder age
ĠR enaissance
ĠT igzirt
au gh
Ġimp l
ell ow
Ġprob ation
Ġpol es
Ġlearn ers
ĠN a
ĠK a
ĠK im
ĠK ad
Ġhat ched
Ġrec ess
iv an
Ġmet hane
Ġinv asive
Ġend owed
Ġpass ions
ĠD ream
Ġbo oth
Ġrel ate
ĠH all
Ġdisc ipl
Ġref ined
av an
br am
Ġsound ly
app er
Ġchar med
Ġsol itude
Ġgrow ling
Ġsub stances
Ġleg acy
Ġalong side
Ġfoot age
Ġpar ach
Ġmad man
Ġanim ated
Ġav oc
Ġcent ers
ĠV egas
Ġpost man
Ġty rant
ĠIn stead
Ġhon ked
Ġcond om
Ch ris
Ġpublic ly
Ġlibr aries
Ġemb ro
olute ly
Ġdam aging
Ġappear ances
eg al
Ġcrow s
Ġant agon
Ġcard i
Ġsubject ed
Ġaut on
Ġaut op
Ġbored om
Ġamaz ement
Ġstri pes
Ġunf olded
Ġkil ogram
Good bye
Ġ200 1
Ġimprove ments
Ġspir al
Ġbi ologist
Ġmeas uring
Ġprogress ing
Ġug liest
Ġmult itude
Ġannoun cer
Ġsaf est
Ġcontrib utions
ĠPh oen
Ġburst ing
Ġfold er
rav iolet
Ġho arse
Ġsin cerity
Ġep ic
List ening
Ġpand a
ĠFor ce
Watch ing
Ġlect ures
Ġbra very
Ġsne aked
wh ite
Ġmerc en
Ġautom atic
Ġtrap s
Con struction
Ġeth n
Ġaccomplish ment
Christ ian
Ġcas ually
Ġexpand ed
Ġpredict able
Ġnut rition
Ġthunder storm
Ġlux urious
Ġadopt ion
Ġexceed ingly
Ġpoo ped
ĠAd minist
Ġseatb elts
Ġimper fect
Ġadmir able
ĠMatt hew
Ġprompt ed
Ġprompt ly
Ġshif ted
Ġproced ures
Ġtum or
Ġprepar ations
Ġves sel
forest ation
ĠRo ad
Ġninet een
Ġsculpt ure
Ġadvertise ment
Ġcomprehen sion
Ġflirt atious
ĠMat oub
ĠTel escope
Ġhardship s
Ġbapt ized
Ġhandic apped
Ġaccum ulated
Dem ocracy
Ser iously
Ġwret ched
Ġtranqu il
opot am
ĠToy ota
Ġmoust ache
ratis lav
Ġmelanch oly
ĠLoun es
Ġsynd rome
Ġvenge ance
Ġredund ant
ĠAcade my
K im
L iisa
M uhammad
b one
b able
f irst
i enna
l sh
o pp
t ight
u der
v ia
Ġ q
Ġ ul
Ġt ulips
Ġw ary
Ġw ag
ha ve
re b
om o
is hable
Ġf res
en ance
Ġl ust
or ity
Ġp ion
Ġp ip
Ġp iled
Ġp ots
Ġg ust
Ġo t
Ġha w
Ġdo d
Ġdo ct
Ġin adequ
ld a
im ens
Ġre vers
ent ious
Ġse am
Ġse ize
Ġshe riff
Ġwh ip
op oly
Ġr ows
Ġwor sh
Ġtr aded
Ġal gebra
Ġso ared
Ġpl ucked
Ġle apt
Ġle mons
Ġsp ade
Ġtim er
Ġtim et
ul um
Ġun just
Ġun anim
Ġout ward
Ġout look
Ġout put
ĠB attle
Ġup ro
ers hip
os o
os Ã©
Ġcom ets
um ented
Ġag encies
Ġcl ogged
Ġpe er
Ġro oted
Ġoff ender
Ġam m
Ġbr isk
Ġbl u
ans k
Ġdown hill
Ġsw ind
enn ayer
Ġapp ar
Ġgl iding
ĠP M
ĠP ap
Ġmar ital
Ġcha ri
Ġcha otic
Ġmon it
Ġwrong ed
Ġbre eding
Ġgreat ness
Ġunt ied
Ġsl ur
Ġadm iring
Ġcoll ision
ĠIs n
Ġquestion able
Ġdress er
Ġhum ility
Ġhum ankind
Ġsum mar
Ġfree lance
Ġins ured
Ġins anity
ĠSt op
Ġdist ressed
Ġdist raught
Ġwrit ings
ins on
Ġpast ime
Ġple ases
Ġfoot print
Ġve il
ĠV er
Ġcond ol
Ġmilk ing
Ġed ges
Ġmis led
Ġsand als
Ġrespect able
Ġhorse back
Ġform idable
Ġcop ing
Ġz ipped
Ġgar ment
Ġchair person
Ġdev ote
Ġwed dings
Ġdam ned
Ġstraight forward
oph y
Ġprin ting
Ġorgan ism
ey e
Ġaut obi
rib es
Ġorig inated
Ġest eem
Ġrent al
Ġmir aculous
Ġdra ught
Ġrac coon
Ġbow ls
Ġuns uccess
Ġ199 4
Ġactiv ist
Ġhug s
Ġcivil ians
Ab delaziz
ĠTr ans
Ġpill ows
Ġcomb ine
Ġfrequ ency
Ġbud dies
Ġcommand er
Ġcrack ers
Ġformer ly
Rem ind
Ġreject ion
ĠUni verse
Ġinfect ions
En ter
Ġvalu ables
Ġcong ress
ĠHol ocaust
Ġdisaster s
Ġsubs id
Ġsetting s
Ġgrap e
Ġguarant eed
Ġunp opular
ĠLe ague
Ġhoriz ont
Ġintimid ate
ĠEl izabeth
Ġgall ery
ĠBel gian
ĠCha mp
Ġdiagn osis
Ġsole mn
Ġregist ration
Ġhen ce
atis fact
Ġpawn ed
fess ional
Ġaccus ation
Ġspaces hip
ĠRic hard
Ġdub bed
Ġx en
Ġmast urb
Polit icians
Ġcann on
Ġextr aterrest
eder ate
Kn ock
ĠMer kel
Ġbeet le
Ġpengu in
Ġnarr ative
Astron omers
Tur key
ĠfiancÃ© e
Ġrans om
Ġsham eless
Ġrit ual
Arab ic
Ġdesir able
Ġbewild ered
ĠGi ants
Ġoat meal
Viol ence
Ġprosecut or
ĠSuz uki
Ġgenoc ide
ĠLid ya
Ġplaus ible
Ġunthink able
Elephan ts
2 2
? !"
A R
K e
L atin
L adies
M ind
M ass
M exic
O ften
P ot
R ice
W est
W ild
e la
t ra
u clear
Ġ [
Ġ Which
Ġa str
in qu
Ġw ishing
om a
Ġto dd
Ġto fu
Ġd aring
is er
on ald
Ġb ends
Ġm ended
Ġc ents
Ġl anes
Ġp omp
Ġp omegran
Ġo wing
Ġan arch
Ġh og
Ġh ither
Ġbe am
Ġbe ards
et ary
Ġe el
Ġk ay
Ġre jo
Ġst agn
Ġkn ob
Ġkn uck
ad ition
ac ial
Ġit ching
se x
Ġdon ations
Ġher bs
Ġab ys
Ġab ortion
op ic
od ox
Ġus ern
Ġr amp
ĠA E
il ize
Ġal erted
red it
ab a
Ġex ce
est ial
our nal
ers ed
ol ing
Ġpro se
Ġpro ves
la p
la va
ig ent
Ġint act
um er
Ġman s
Ġnever theless
el ine
ven ant
ĠL abor
ĠF ort
Ġar oused
ber n
ĠM ali
ra red
Ġro ver
ĠC op
ĠC inderella
ĠC IA
ood le
Ġover looking
Ġlet hal
Ġdis ability
Ġsm ugg
Ġunder going
Ġbl end
Ġbl ues
ĠR oyal
ĠT ik
ĠT ibet
ang s
Ġapp end
âĢ ĵ
Ġgl orious
Ġsur ge
ĠP otter
Ġmar ch
In t
te xt
Ġsha ck
ĠN ation
ĠN obody
Ġhat ch
Ġel bows
oc re
oc al
oc aly
Ġhun ters
Ġkill ers
Ġmin us
Ġac oust
ok a
ok er
Ġsl ang
Ġpres um
ĠU ygh
ĠW ater
Ġdisc o
Ġfore see
pl ay
Ġev ils
ash im
Ġheart y
Ġfig ur
Ġsub sequ
Ġmed itate
Ġfavor able
Ġpat rol
Ġleg ion
uff s
port ant
gr im
Ġdisapp ro
uc ers
Ġav alan
Ġbar g
An ge
Ġsuper power
Ġgener osity
Ġmod ified
Ġform ally
Ġhurry ing
Ġcamp ed
oph ile
Ġcapital ist
Ġcapital ism
Ġlos ers
onna ise
Ġterm in
Ġeduc ate
Ġteaching s
Ġtur b
Ġunf it
Ġhy brid
urs ion
Tr ans
ĠBe ethoven
Ġpet als
Ġpred e
Ġhorri fic
Ġ9 5
Ġess ays
Ġpropos als
Ġcritic izing
Ġvolunte ering
Ġtoile ts
ocr ats
Ġcareless ly
Ġcompan ions
Ġmix ing
Pl ants
Ġexpert ise
Ġcheer le
Ġge ese
Ġge opol
Ġho ax
Ġhonor able
Ġ12 0
Ġapplic ations
Ġ196 9
Ġstrang le
Sm oke
Ġpow ered
Ġkick s
Ġdisagree ment
Ġdisagree able
Ġqual ifications
Ġencour agement
Ġcomfort ably
Ġcreep s
Me anwhile
Ġadvent ures
Pro fessor
Ġhi bern
Ġambit ions
Ġpin ched
ĠJust in
Ġsym ph
Ġhast y
Ġnut ri
Ġtransform ation
ĠBar celona
Ġgig gled
ĠEm peror
Ġscrap s
Ġfundam ent
Ġlap s
Ġvent il
ĠGreen land
Ġsnee zed
Ġouts m
Ġkidn ap
Ġquant um
Ġ194 5
Ġpee ked
Ġoverd ose
Ġbol ted
Ġpant ies
acha ble
Ġboun cer
Ġoptim ism
Ġphilosopher s
Ġvom ited
Ġfert ile
Ġpupp et
Honest y
ĠIndones ian
Ġintegr ity
Ġchains aw
Ġjugg le
Beaut iful
Ġecosystem s
ĠCam bridge
Ġdemol ished
Ġelectron ics
Ret urn
Ġlantern s
outhe ast
Person ally
Ġhamm ered
Ġprecaut ions
Ġcomr ades
Pract ice
Ġobsess ive
Ġcircumc ised
Ġcoff in
riz ona
ĠSiber ia
Ġsubmar ine
Ġbip olar
Ġinexper ienced
Ġpneum onia
Ġcaffe ine
1 4
B eth
C y
C at
C hess
D S
D el
D ick
E s
F ur
F oll
F ran
H an
H am
J oseph
J eff
L ess
L ions
L ater
L unch
M os
O s
O w
O ff
P aper
Q ue
c het
d ens
f ed
f ig
m odern
m akers
o om
o aster
r ays
v ise
w ered
w estern
Ġt resp
Ġt ubercul
Ġa ce
Ġw oe
Ġs ie
Ġs ane
re x
Ġd renched
is ons
is dom
Ġm ute
Ġm umbling
ed ience
ing ed
Ġf ir
Ġf ain
Ġf rench
Ġp acing
Ġn agging
Ġo str
Ġh ose
Ġdo se
at l
at us
ot le
et erm
ic ulous
Ġst ance
Ġli vid
Ġne ur
He aring
oo ge
ill ers
Ġcan ned
Ġsh rew
Ġsh ores
Ġr ook
Ġr aking
ĠA rizona
il ight
il ia
Ġpl ac
Ġpl umb
Ġsp i
Ġsp raw
Ġsp okes
ab out
Ġex ile
Ġun de
ast rous
Ġv int
Ġlo ans
ven ue
ĠL ithuan
Ġwork force
Ġar ithmetic
ap id
Ġcl enched
Ġch orus
Ġpe ers
Ġen able
Ġspe lled
Ġexp osure
Ġexp licit
ĠC ab
Ġdis qualified
Ġdis astrous
ans hip
ĠR ec
ĠT w
Ġapp rent
ĠG arden
ĠG uinea
Ġbelie vable
ict ory
mer ind
Ġpo ked
In terest
ĠN ymphs
ĠK or
Ġfo am
Ġvis ibly
Ġrep ent
Ġbre w
Ġbre eds
Ġboy c
Ġsk et
Ġbo ards
Ġbed side
Ġhead scar
Ġsl og
Ġmiss ions
ĠU r
ug u
ug ar
ĠW ang
ative ly
Ġass ets
Ġeasy going
Ġinf at
Ġtri ll
Ġev apor
Ġdep icted
Ġfav ors
Ġchar t
Ġchar ging
Ġcor rupted
Be es
rist otle
Ġcour ty
ern ic
Ġdet er
Ġdet ached
ĠSt ock
Ġhealth care
bed room
Ġhate ful
Ġstupid est
Ġfoot ing
Ġaff ili
Ġma h
Ġma fia
Ġbot an
Ġpick pock
Ġve g
Ġaccept ance
Ġcra ving
Ġcra fts
Ġdem ons
Ġdem oted
Ġcond oms
Dan ia
Ġappro pri
na ire
Ġcorrect ness
Ġcop ied
Ġcross es
Ġgar ments
erc ise
erc oaster
sy ch
Ġcrow bar
Ġpresident s
Ġpleas ing
Ġaut ism
Ġamaz es
Ġenv ision
Ġcompet itor
Ġattend ance
Ġimm un
ĠZ ion
ĠTh ird
Ġdra gging
Ġassist ed
Ġcheese cake
ĠBe hold
Ġmaster s
Ġpet ition
Ġnon stop
Ġmeas les
Ġ7 5
Ġenvironment ally
Ġseason ed
Ġcontract ed
Ġmult ipl
Ġmult ilingual
Ġgri ll
Ġdocument aries
Ġport ions
Ġquar rels
Ġcomplex ion
ĠSh ow
Ġroll ercoaster
Ġfurious ly
Ġallerg ies
Ġridiculous ly
bl ue
Ġadmire r
Ġdumb founded
Ġprim itive
Ġwra pping
Ġrow boat
Ġstruct ural
Bl ue
Ġfest iv
Ġaltern ate
Ġlength y
Ġtreas ures
Ġexagger ated
Ġskill ful
Ġadvert ised
ĠPl ay
Ġhast ily
ĠCar ib
Ġtag s
Ġhumili ate
Ġvir uses
ĠEm ily
Ġpear ls
ĠPer u
ĠPer haps
ĠLib yan
Ġdorm itory
Gl obal
ĠHind i
Ġwre cked
Ġspark ling
Ġtrem ble
Ġpoo rest
Hun ger
Ġtrig gered
Out side
Ġprivile ges
Ġbuff alo
ĠAlex ander
Ġcann ib
Ġplum s
Ġfisher men
Ġinterrog ation
Cor ruption
ĠCo ast
Ġcuc umbers
Ġmock ing
ĠBa ghdad
Ġpenet rated
Ġabrupt ly
Ġmig rain
Techn ology
Ġsequ ence
Ġabst ain
Ġplag ued
ĠFer ris
whe el
itness es
Ġdisl ocated
Aut umn
Ġtoug her
Need less
Ġrasp berries
Ġmedi ocre
Ġuncontroll ably
Ġvend or
Intern ational
Cur rently
Ġunderc over
ĠTest ament
Ġconson ants
Ġinflam m
anke v
Ġdeem ed
Ġabn ormal
Ġmun icip
Ġtimet able
Foll owing
' ?
1 6
1 8
9 9
A p
B est
C ous
C ars
I N
J ump
J ean
M er
M em
M ix
N ative
O ffic
P et
P ush
R ab
R um
R oman
S on
S alt
T reat
T emper
U h
U krain
b ull
b irds
c overed
g one
h ot
o i
p anic
t or
Ġ ?
Ġt ides
he res
Ġw ob
Ġw its
Ġw alt
re c
re ci
om ical
Ġd and
Ġd usk
Ġb ould
Ġb inary
Ġc ables
an ia
an ium
Ġf ren
Ġf iance
as el
as per
Ġg y
Ġg el
Ġhe ct
Ġn oses
Ġo vere
Ġh ier
Ġme g
Ġli lies
Ġkn ots
st on
se xual
un ich
ro soft
ir rels
Ġdon or
ur ally
Ġab bre
Ġwh it
Ġr am
Ġal arming
up t
ul sed
Ġex h
Ġex ter
Ġun z
est one
Ġup load
os a
ist ical
ol ph
Ġpro long
Ġbut ler
Ġv ile
ĠS uch
ĠS now
ĠL ank
ĠL uc
ĠL ee
ĠL ayal
ĠF ound
ap y
Ġor ch
Ġch ills
Ġch ili
ĠM ur
ĠM ess
ĠM ine
ra ved
ra gon
Ġcar b
Ġcar rier
ĠC reat
ick s
ĠAust rian
Ġbr ook
iz a
Ġnew c
Ġsm acked
Ġsc al
Ġsc ope
Ġgr an
Ġgr udge
Ġpart ied
Ġfl ask
Ġfl ung
Ġfl ashing
Ġsw ig
ĠT ri
ĠT urn
ip her
enn edy
ell e
Ġhand les
og ene
Ġpo ke
Ġper j
ura i
te acher
Ġpret entious
Ġche que
ail able
Ġcr ate
Ġmor ality
Ġmet iculous
Ġmat es
Ġmat ched
Ġexpect ation
Ġwind ing
Ġenjoy ment
Ġsn or
Ġsn ugg
ĠH ist
Ġcomm emor
ater al
Ġbro ch
Ġref illed
Ġwar fare
Ġcoll ided
pl ing
St rict
Be jaia
Ġred eem
ier re
Ġins cri
Ġagree able
Ġtre ad
Ġeconom ist
Ġtransl ates
Ġ19 20
ĠY umi
Ġpub lish
Pe el
Ġmid day
ĠV R
Ġbar bers
Ġpost ers
Ġty res
Ġreport ing
ĠFr idays
Ġtick led
Ġsuper iors
ee z
velop ed
Ġupset ting
Ġcup cakes
Ġclim ber
Ġmis in
head s
Ġball ot
Ġball point
ĠSun ni
Ġmain tains
ik ers
Ġyell s
Ġ3 2
Ġign ores
Ġdev our
Ġdraw ers
eg o
ls en
Ġairport s
ster dam
Ġvol umes
cent ury
Ġtor ment
Ġlay ers
Ġda is
Ġrev olves
ĠBe at
Ġliter al
Ġoppos ing
Ġspeed s
Ġtight en
Ġsimp licity
Ġmail man
Ã© s
Ġinse c
nam ents
Ġgro ve
Ġwit hered
Sp read
Ġpil grim
place able
ĠSh ould
Ġdece it
Ġhyp ot
Ġstret cher
Ġjew ell
Ġdecor ations
Ġanti ques
Ġinfect ious
Ġow ls
Ġcalcul ations
Ġstream ing
Ġsilver ware
Ġ198 9
Ġnegoti ation
Ġspell s
Ġgather ings
Ġconsult ant
Ġirre placeable
Think ing
Ġmanufact ured
Sc ar
Qu iet
Ġcontrad icting
Ġsarc asm
Ġharvest ed
Ġmal ice
Ġsed uced
Ġteles copes
Ġasse mble
Ġincomp rehensible
Ġadminist rative
Ġgossip ing
Ġsust ained
Ġcorpor ation
Ġsimpl est
Ġyield ed
berg asted
oty pe
Ġtren ds
Ġmeteor ite
eff icient
ĠMart in
Ġdisob ey
Mark ku
Ġclown s
Ġattent ively
Ġspray ed
Ġintr uder
Ġoccas ional
Ġreun ited
Ġvirgin ity
Dri ve
Ġinspect or
Ġinterrog ated
Supp ose
Ġtang o
Ġsumm oned
pro fit
Ġswift ly
Ġrestr ained
Ġgla red
Ġperpet ual
Cr ime
ĠEsperant ist
Ġquarre ling
ĠOri ental
Ġster oids
Ġrend ered
Ġdaydream ing
Trave ling
ĠBul garian
Ġrehears al
Mel anie
ĠDev il
blood ed
Ġkangar oos
Ġparamed ic
Ġalt itude
Ġcontam inated
ĠMorocc an
Ġconflic ts
Ġmargar ine
Ġblindf olded
thi opia
Prep are
Ġfug itive
Ġtelepath ic
Ġlivest ock
Ġpam ph
Ġkimon o
ĠKad az
Ġcondol ences
Ġusern ame
Ġvint age
Ġheadscar f
Ġmah jong
ĠCarib bean
C ook
E A
F ig
F acebook
G e
M ight
N N
N orthern
N apoleon
O ctober
P al
P ack
R ather
S ent
S arah
U r
Y umi
b ek
c hange
d is
h t
h ind
l ian
m id
m ighty
n atured
p ace
u ya
v oc
Ġ &
Ġ Does
Ġt apping
in nam
ha st
Ġb akes
Ġb aw
Ġb inge
er gy
ed a
Ġc it
Ġc act
Ġf itted
Ġl oop
it ism
ll ip
or ance
Ġp oth
es c
Ġn ests
Ġo o
us a
us al
le um
Ġst omp
Ġst ale
Ġst ems
ri el
Ġne uro
ad as
out ing
Ġwith stand
ro leum
ut her
all s
Ġse min
Ġse ctions
Ġab ounds
Ġlike lihood
Ġwh ites
if er
Ġr ay
Ġr ating
Ġtr ou
Ġtr acked
ĠA h
ĠA venue
Ġwill ow
Ġle aked
Ġsp ed
ul ent
ĠB os
ĠB elt
Ġup ward
ame l
Ġbut tered
Ġv i
ĠS ri
ĠS and
Ġar ist
Ġch unk
Ġro les
Ġro ared
Ġro pes
Ġco venant
ag a
ag asc
Ġad ver
Ġim itating
Ġpre cip
Ġam ple
Ġover work
Ġseem ingly
Ġdis bel
Ġbus iest
ount able
Ġsw um
ark ets
ĠG ir
Ġres isted
ĠP re
te gr
Ġmay onnaise
ĠO kin
ĠK o
ident s
Ġhat ing
iv orous
Ġcr ay
Ġcr amp
Ġcr ashing
Ġmor ally
Ġmon arch
Ġmon archy
Ġwrong doing
Ġsn ails
ĠD i
Ġac hed
Ġac hes
ĠH ill
ĠH IV
we ek
Ġinc omplete
ĠW ilson
Ġcomple ment
Ġexc lamation
Ġchar ms
Ġbuild s
Ġins ensitive
Ġmil it
Ġmil ks
Ġdef ence
Ġsal v
Ġsnow ball
sh ima
Ġblack s
Ġtem p
ĠY et
Just ice
Ġside ways
Ġprot agon
Ġvide og
Ġpri ests
Ġprod ig
Ġpick les
Ġann ually
Ġrece iver
Al so
Ġarg ues
Dan iel
Ġprof use
oid able
na ires
Ġmis con
Ġmis jud
Ġstuff y
ĠGerman ic
Ġrespect ive
Ġself ie
Ġequ ation
Ġemp athy
Ġmaj estic
Ġsqu ad
Ġsurv iving
Ġcool ed
Ġcool ing
ĠAnd rew
oph on
Ġrob otic
Ġjud ging
road s
itch ing
Ġer aser
Ġaut istic
Ġauthor itarian
ocol ate
Ġcelebr ates
Ġfootball er
Ġ6 00
Ġest imates
Ġflat tery
Ġemploy ers
ĠZ amenhof
Ġbri bed
Ġrev ive
Ġpan el
Ġassist ants
Ġdesp icable
Ġbott led
Ġpred ator
Ġflower ing
Ġbas ics
Ġmail ed
Ã© mon
cul es
Ġprocess es
Ġhost ed
Ar rog
Ġmagn ifying
Ġpill ar
imp les
Ġtradition ally
Ġconce pts
Ġcooper ating
Islam ic
word s
ĠSo ci
fl owers
Cl asses
Ġdust y
Ġded ication
Ġtattoo ed
Ġadj acent
ĠAb orig
Ġcomfort ed
Ġvoc al
Ġinsane ly
Ġjun ction
ĠCon f
osaur s
Ġcontrad icted
Ġprotest ing
Ġinsp ire
ĠHis panic
war ming
ĠRom ance
Ġupd ates
ĠSome one
Ġworship s
Ġstamp ed
Ġsubscri ption
Gl ad
Ġinvent or
Cont in
Ġbom bed
Ġrecy cling
Ġgrace ful
Ġwrest ler
Ġdistinct ive
Light ning
agn etic
Ġaccord ion
Ġtact ics
Grand ma
Ġextingu isher
Ġoverc ame
Ġjugg ling
Ġdisadvant ages
ĠChan nel
Ġcub es
agu ay
Ġlaz iness
Ġko ala
Break fast
Ġglac iers
Ġpedest rian
Ġsimult aneously
Ġobl iv
Ġvag ina
Ġmetaph or
Ġdehyd rated
ĠCoun cil
Ġdisreg ard
Dream s
Emp ty
Ġsupre me
ĠProtest ant
Ġimpecc able
ĠHem isphere
Ġflab bergasted
Ġautop sy
Ġavalan che
Ġcourty ard
Cous cous
innam on
Ġdisbel ief
A T
A ge
B A
B an
B ull
C rit
D ig
E ight
E gypt
F un
I ce
J e
J ames
L osing
M in
M ur
N on
R obert
S ally
S har
S ales
b inary
c ulation
f old
f lix
g us
h igh
i ology
l ift
p it
r ade
t em
t ale
u ating
w orld
Ã ł
Ġt et
Ġt ens
he id
Ġw rench
Ġw ider
Ġd re
Ġd ine
Ġd ived
Ġd aw
is an
Ġb ob
Ġb og
Ġb ases
Ġb ribes
er ts
Ġc innamon
an z
Ġf ont
en o
it o
or ial
Ġp ans
Ġp umped
Ġg n
Ġg ad
Ġhe ctic
Ġo ste
Ġh orm
Ġbe verage
Ġth orns
ot al
us ters
us sels
im il
Ġst if
Ġkn elt
Ġkn aps
He avy
un ting
ill usion
ir teen
Ġdon ating
all ic
Ġse vered
Ġab hor
op or
Ġr uff
Ġr ins
Ġwor s
Ġte asp
ĠA I
ĠA bram
ab e
Ġde forestation
Ġex ited
Ġex empt
Ġun ins
Ġun set
ĠB M
ĠB apt
ist a
ess ie
ation ally
Ġv oid
Ġv andal
Ġint uit
ĠS m
ĠS om
ĠL uxembourg
ĠF our
Ġwork out
ap est
Ġcl ues
Ġch ore
Ġch ord
Ġch ipped
Ġqu oted
Ġpe ck
ra il
ra ise
Ġro sy
ine a
ag in
ĠC oke
Ġcomp l
Ġpre fect
em es
Ġhouse keeper
Ġplay ful
Ġsc anned
Ġbl iss
Ġafter ward
Ġhar med
Ġgu inea
Ġfirst born
ell ar
Ġbelie ver
Ġres il
Ġres urrect
ĠP eters
ĠO ff
Ġdrink able
ĠK eep
Ġrec ipes
li ver
pr on
Ġwater fall
ors hip
Ġem ojis
Ġbo om
ĠH or
ok Ã©mon
Ġsl ob
ank s
Ġcons isted
Ġcons ulting
Ġpres idency
ĠU ranus
Ġret ain
Ġret ires
ĠW HO
Ġconf ine
Ġtruth s
Ġfore most
Ġind icated
Be er
ĠHe len
Ġins ur
Ġfig uring
erv ille
ĠSt ep
Ġsub ord
Ġtre ason
Ġborn e
ĠV an
Ġbar ric
Ġsuper natural
Ġris er
Ġguess ing
Ch ild
Ġsmell ing
medi ene
Ġviol ation
to e
Ġfear less
Ġmillion aires
Ġgas ped
Ex ercise
Try ing
Ġpack ages
Ġprev alent
Ġintrod ucing
Ġband aged
Ġiv ory
Ġblind ly
Ġhy gi
ĠTh y
Tr adition
Ġneighborhood s
Ġident ification
Ġsharp ening
Ġconver ting
gl ass
Ġbreath s
Ġsuperm arkets
Ġhabit able
Ġ199 7
Ġactiv ists
Ġhero ic
Ġanxious ly
Ab raham
Ġgro aned
Ġunb utton
Ġtroub ling
Pl ace
Ġheaven ly
Ġcere mon
Ġthri ve
ĠSc r
Ġrot ting
Ġshr ugged
Ġshel tered
ĠCol onel
Ġselfish ness
Ġgod mother
Ġnucle us
Ġhorn b
Pro bably
Ġfortun es
Ġox en
Ġphilosoph ical
ĠBl ue
Ġ25 0
Ġaccur acy
Ġexagger ation
Ġrepresent atives
Ġfart ed
iat ric
ĠPl anet
Dad dy
roph ic
ĠCar ol
Ġmanip ulating
Ġmal icious
bur gh
Soci ety
Ġec st
ĠEm met
Or gan
ĠGrand ma
Ġreview s
Ġdough nuts
Ġefficient ly
Ġresear cher
ĠComm ittee
Ġprofession ally
Ġ194 0
Ġven omous
Ġfemin ist
Ġtheat ers
Ġrank s
Ġdense ly
Ġpony tail
Ġfrag ments
Ġtremb led
Ġvom iting
Ġtraum atized
Ġgra ves
Ġpatri otism
Ġsunb urn
Ġinnov ation
Ġextingu ished
Ġpod cast
Ġcul pr
ĠEsperant ists
ĠRob in
Jul ia
Brit ish
Har ry
Ġvow els
ĠHam let
Ġstair case
ĠLiber ty
Ġfid get
Ġcel estial
Ġhyster ical
Ġdynam ic
Ġbik ini
Gree ce
Pret ty
Ġmatern al
Ill ness
Ġlav ish
Jew s
Ky oto
sle e
Ġprest igious
ĠDar win
Ġextravag ant
Ġoverst ayed
Ġscoot er
Ġapprehen sive
Ġabys s
ĠTik Tok
ernic us
ĠFound ation
ĠBeat les
Ġmisjud ged
A k
C our
C ross
F A
F ishing
G al
H yd
K ind
M ag
P ain
T rees
V irt
c ule
d istance
e z
h um
i uses
l ayer
m ir
s ize
w ash
Ã ±
Å į
Ġ Wh
Ġ verse
he rently
Ġa rom
Ġs ly
re aking
Ġd ime
Ġd ual
Ġm owed
Ġm ower
Ġm ugg
Ġc udd
ing es
Ġl as
Ġl acked
Ġg inger
Ġhe el
Ġhe li
Ġo int
Ġan a
Ġan ec
Ġh ips
Ġha gg
Ġdo th
Ġin equ
at to
Ġth ug
Ġth resh
et ry
Ġe up
ĠI d
ĠI ll
im ple
al ine
al ysis
Ġre indeer
ac us
se a
un s
ch illes
Ġdon ation
ink les
ur ate
Ġher bal
Ġse g
Ġab ound
We ar
ce ly
Ġj ug
Ġr ally
ĠA z
ak y
Ġun ans
ĠB ud
ĠB oy
ĠB DS
Ġup right
Ġcon ced
and als
ol ate
ol ics
Ġwho lly
ig an
Ġint eg
Ġlo ading
ĠS ur
ĠS loven
ĠL ot
ĠF lorence
Ġwork ah
Ġmore over
ĠJ er
ĠJ ava
ra pped
ra ged
ass ical
Ġro aring
Ġco co
ĠC uba
ĠC NN
Ġwr ath
ob iles
Ġcomp rom
Ġpre ference
Ġam ph
Ġover joy
Ġnew born
Ġpr ays
em on
Ġbl ades
Ġbl ushing
Ġbl isters
Ġgr acious
Ġtw ilight
ek s
ich i
Ġsw ings
Ġsw inging
ĠR oosevelt
Ġleft over
Ġapp s
ĠG er
ĠG em
Ġrem oving
Ġres igning
ĠP T
ĠP ort
ĠP edro
ĠP inocchio
hes is
Ġwonder fully
Ġperson nel
ester ol
ĠO g
Ġrec ited
Ġinv alid
Ġmin ivan
ĠD or
Ġac res
ĠH it
ĠH oll
ater n
Ġrun ners
Ġcons erve
Ġmiss p
Ġadv ocate
Ġinc urable
ctor al
Ġass ail
Ġgi ants
Ġinf all
Ġreason ably
Ġnum bered
Ġair s
Ġhands hake
Ġsound ing
Ġfire men
Ġtable t
Ġtable ts
Ġtable cloth
Ġdream er
Ġext ro
Ġgen et
Ġloc ations
ĠIslam ist
ĠIslam ists
Ġsell er
Ġpast e
Ġdark est
Ġpur ring
Ġopp ressed
Ġcur sing
Ġma ids
fer ing
Ġbar riers
Sh it
Ġcra fty
ĠAr thur
Ġslow ing
Ġfil ing
Ġmis be
Ġsea water
Ġbat tling
Ġdevelop s
ik er
Ġassum ptions
Ġdev oid
Ġsqu ash
Ġprice less
Ġ5 4
Ġsuc ked
Ġsucceed s
Ġcult ivated
struct ed
Ġcollect ive
Ġobs cure
Ġer ase
ĠMar x
ĠAn im
ĠAn ton
Ġbathroom s
Ġweird o
Ġfort ies
Ġchick s
Ġda res
Ġprogram me
Ġcast ing
Ġharm on
Ġ200 5
Ġwild ly
Ġrev ised
ĠTh ree
Ġlab els
Ġpan icking
Ġindust rious
Ġspl inter
Ġcharacter ized
Ġhorri fying
Ġprogress ive
Ġhabit ats
Ġstrugg les
Ġpoet ic
Ġlog s
Ġgri zz
Ġcontr acts
Ġconstruct ive
Ġmethod ical
Kaby lia
Ġelev ators
Sp iders
Sha kespeare
Ġparticip ating
Ġaim ing
ilos ophy
Ġliber ation
Ġjam med
Ġpig gy
Ġcontain ers
Ġmer it
Ġcomment ed
Ġatmosp heric
rer s
Ġsin ner
Ġrot ates
Ġspo ils
Ġunw ell
isc al
Ġmut ually
Ġoccup y
Eng land
Say ib
Ġgre ase
Ġoverw orked
Ġphotograph y
Ġmerc iless
Ġstro ked
Ġdiss u
Em ploy
ĠQue bec
Ġaccomplish ments
Hi pp
rid den
Ġpossess es
Ġguarant ees
Ġtarget s
Ġwid ened
Ġshell fish
reg ation
Ġpunch ing
Ġesc ort
Ġdough nut
Ġdump ster
Ġload s
Ġintellect uals
Ġharass ment
Ġquant ities
Ġlun atic
Ġtwent ies
Ġhood ie
Ġanaly ze
Ġdeliber ate
Ġyield s
ga e
Tok i
ĠJul ia
Ġmole cule
hearted ly
Ġpoly gl
Ġdivers ification
Ġimper ative
col ored
Ġprote ins
Ġabol ish
Ġsunb athing
ĠOther s
Ste ve
Ġpubl ishing
Ġsumm ary
Ġimprison ment
Ġmillenn ials
Ġpeas ants
grad uate
Ro ger
Ġhypocr isy
asil issa
Ġsouven irs
Sad ly
Ġsoot hing
Ġalleg ations
Ġunav oidable
Ġrebell ion
Hit ler
Ġwaff les
Ġbubb les
ĠHiro shima
Ġconstell ation
Ġpyram id
Cap ital
ĠColl ege
Ġglit tering
Ġentreprene ur
ĠLeb anon
Ġuninterest ing
ĠBas que
Ġsucc umb
Ġnostal gic
Budd h
ĠColomb ia
Ġtrif les
cu ador
Ġingen ious
Ġgul p
iron ments
Ġcarpent ers
GB T
Ġperfor mer
Ġdeme an
ĠAdminist ration
Ġunsuccess ful
Ġtubercul osis
rex it
Ġwalt z
Ġunz ipped
Strict ly
Ġdais ies
Ġjewell ery
Ġprofuse ly
Ġknaps ack
Ġoint ment
Ġanec d
Ġoverjoy ed
" ;
1 2
7 0
? '
A lp
C ity
C ool
E instein
F eed
J acks
L and
L isa
M ir
M od
P ost
R ing
S en
S us
S la
S outh
U ranus
V e
V ol
W ha
W ind
i q
j our
r ine
u ent
u able
v as
v ille
w all
w ear
Ġ urch
Ġ While
Ġa esthetic
in se
Ġw il
Ġw reat
Ġw imp
Ġs igning
Ġc one
Ġf ishes
Ġf iscal
Ġl atch
Ġl icking
it ous
it ize
or is
Ġp es
Ġp ry
Ġp uri
Ġhe aths
Ġh ive
at han
at ics
le ch
et r
Ġe g
ĠI Q
ĠI l
ic an
ic ism
Ġre ferences
Ġst alling
ri ors
Ġkn ead
st age
He aven
out ed
un ted
ro cket
Ġcan al
Ġse ctors
pp iness
We ather
Ġj ur
Ġr ant
Ġte et
Ġte ap
Ġal umin
Ġpl ains
Ġsp ice
ab ies
Ġall ev
Ġex quisite
Ġun armed
Ġout let
ĠB al
ĠB ask
Ġup br
ann ers
ann ah
Ġfe ud
Ġfe atured
res a
Ġag on
ĠS lav
ĠL iisa
ĠF re
ap ing
ĠJ uno
ĠM P
ĠM as
ĠM ouloud
Ġco aches
Ġbu gging
are st
ĠC ain
Ġad s
Ġcomp aring
Ġpre ach
Ġam pl
Ġbr ood
Ġdis illusion
Ġgr umbling
ait i
Ġaw e
Ġaw ards
ount ed
Ġsw ung
au ri
ĠJohn ny
Ġimp osing
enn el
ĠG e
Ġdec omp
Ġke b
Ġres ulting
Ġmar ching
Ġper ished
Ġper severance
ĠN ic
ĠK ennedy
Ġkeep er
Ġmon ks
any ahu
ens er
Ġfr action
Ġem igrated
Ġmin t
Ġrest art
ĠH uman
ok ers
Ġkid neys
Ġmiss iles
we ed
ĠU p
ĠU ber
ĠW ild
Ġref resh
Ġtrans f
Ġtrans it
Ġev asive
Ġ20 30
Ġsec l
Ġind irect
Ġexc ursion
Ġinter course
Ġdoctor ate
Ġins om
Ġins pected
Ġsub mer
Ġmed itating
Ġter race
ph y
Ġarm or
Ġloc ally
Ġloc ate
uff ed
Ġland mark
ĠY osh
Ġpur r
Ġcontin ents
Ġra is
Ġcur rents
Ġaff irm
Ġprep ares
Ġprod ucers
ush u
Ġpick le
ĠV ienna
Ġdem ocrat
Ġcla ws
Ġtext ure
Ġcre mated
Ġsand y
Ġste amed
gar ia
Ġweight s
Ġdevelop ments
ĠWe lsh
ik i
Ġrecogn ised
But ter
Ġ3 8
Ġvill a
oph ie
ĠAfric ans
Ġben ches
Ġveget ation
Ġlim b
ĠMar io
Ġenv ironments
Ġprev ention
Ġwarn s
Ġfresh water
Ġvar ied
Ġvar ieties
Ġtor mented
af ety
Ġcrit ics
hem y
ĠAs ians
under ing
Ġmap le
Ġ18 8
Ġinflu ences
Ġrum m
Ġoccur rence
Ġdiet ing
Ġ199 1
Ġcivil izations
Ġbud ge
Ġmel on
Ġaggress ively
Ġfirm s
Ġpoll s
Ġfriendship s
Ġfashion ed
Ġlif es
Ġdeaf ening
Ġreb uilt
Ġconcl ude
Ġdiam eter
Ġcomfort ing
Ġcalcul us
Ġsweat y
Ġimpatient ly
Ġnet works
Ġhom ogene
Fin land
Ph ys
Ġcher ish
Ġminim al
Ġexec ute
Ġprec ision
ĠWestern ers
Ġdim ension
Ġalbum s
Ġassign ments
Ġgang ster
Jim my
Ġmort gage
Ġremote ly
ĠBr other
Ġpredict ions
keep ers
Ġsyn onymous
ĠCent auri
Ġnephew s
Ġresemb lance
Ġconfirm ation
ĠEd ward
ĠEd ison
Ġdepos ited
Cont act
Ġpant ry
Ġsam urai
Ġshovel ing
ĠJul iet
Ġaccord ance
Ġsufficient ly
Ġdivers ify
Ġrestrain ing
see ing
Ġremar ked
ĠPri am
Ġacceler ated
Char les
Ġprover bs
Ġevident ly
Ġextract ed
Ġrevol t
Ġninet eenth
Ġprospect s
sm oking
Ġencl osed
ĠHindu ism
Ġconvention al
Sur pr
Ġdeterior ated
Ġapr on
Col umb
Ġko alas
Ġnit rogen
ĠBet ty
omor ph
Ġindign ant
Ġfertil izer
Ġalmond s
Ġunint ell
ĠTitan ic
Ġsuperst ition
Ġunim agin
Ġenhan ce
Tele vision
Ġenforce ment
Ġalgorith m
Ġdiscon nected
Lar ge
Ġrecollect ion
Ġcass ette
ĠArm strong
Ġchol esterol
Ġtux edo
Ġstre wn
Ġpessim ist
Ġmarshm allows
Ġmarg inal
Ġkins man
ĠUygh ur
Ġtresp ass
Ġfiance e
ĠKadaz an
Ġtrou blem
ĠSoci ety
emes io
ĠPeters burg
Ġthresh old
Ġinteg ral
ĠHoll and
Ġinfall ible
Jacks on
! ?
4 00
A w
C om
C ent
C oll
D ec
G ot
G iven
L ock
L aughter
M ist
R ub
S itting
S witzerland
S ugar
W ritten
W isdom
Y ankev
b irth
b ucks
e res
e ering
f la
h oles
l asting
m anship
n ew
n ik
t ically
u en
w art
z i
Ġt ad
Ġt ame
he lp
Ġs owed
Ġs ipping
ou g
ou che
Ġto ad
Ġd ile
Ġb il
Ġb age
Ġb ese
Ġb ash
er als
Ġm ould
Ġc od
Ġf iber
Ġl ime
Ġl ament
or ist
or gan
Ġp ars
as is
Ġg in
Ġg ag
Ġn oo
Ġo v
Ġo ats
Ġin effective
Ġbe friend
Ġth ro
Ġth rees
us ky
im mer
Ġk itty
ic on
ic uous
ri gg
Ġfor ming
Ġne ct
ac o
ac ia
ent ials
Ġit ch
Ġsa ucer
un ition
ill ion
ut able
ink s
Ġse als
Ġse agull
She ep
Ġj ars
Ġsu lf
ĠA M
Ġso cket
Ġpl ast
Ġpl owed
ge e
ĠB at
ĠB ratislav
est ine
Ġcon secut
os ion
Th irteen
Ġint uition
Ġlo go
ĠS end
ĠS ervice
ĠL ie
ĠL aurie
ud y
th ony
th irds
ect ion
ĠM ore
ĠM eth
Ġen listed
ra gue
ĠC all
ĠC ov
oy d
Ġad olesc
Ġover cast
Ġbr ist
Ġsm ashing
Ġsc ound
Ġbl izz
Ġmo pped
Ġfl owed
Ġsw ap
ĠR eg
ĠT ham
ĠG ene
Ġpa ws
Ġnight fall
Ġlive lihood
Ġper v
Ġwin es
Ġact ively
ĠN orm
Ġsleep less
Ġrec ruit
ert ation
Ġrep ulsed
Ġmat tered
oc ity
Ġinv ites
Ġinv itations
ĠCh opin
Ġser mon
Ġsent iment
Ġem an
Ġmind ed
ĠH ood
Ġsl ot
ater nal
Ġcons ented
lic ation
ĠW ait
ime lech
Ġap es
ject ion
Ġconc ise
Ġinf initely
pl ings
pl aced
Ġsec ured
Ġfree way
Ġcap abilities
Ġsy ring
umb ered
Ġfour s
Ġgen iuses
Ġpop ul
Ġsecond hand
ato es
Ġpar rots
Ġopp ression
Ġmad am
Ġpri zes
ĠV I
Ġbar red
Sh o
An ger
Ġbath s
Ġrid dles
Ġpolit eness
Ġnecess ities
Ġpublic ity
Ġtouch y
Ġpot ion
Ġrul ers
Ġlibr arian
Ġviol ating
rup ulous
Ġpartic le
Ġshop keeper
Ġdev ised
Ġsuff ocating
Ġdam s
Ġsky rocket
Ġfear ful
het ical
Ġstar vation
Ġ4 2
ĠMar ine
Ġener gies
Ġrisk ing
Ġfac ulty
Ġur ging
Ġfre ight
Ġmurder ing
Ġcelebr ities
af a
Ġspec ulation
hem ical
hem istry
Ġaffect ing
Ġperform ances
Ġcred ibility
Ġju icy
Ġpred iction
Ġpsych opath
Ġcritic izes
Ġuns olved
Ġemail ed
Ġpositive ly
Ġcapt ive
Ġmodel ing
Ġirrit ate
min ate
Ġpurcha ses
Ġpronoun cing
Ġvers ions
bl ack
Ġmaterial istic
Ġsen ator
Ġencour ages
Ġsweat ers
Ġplain ly
Comp are
New s
Ġdiss ertation
Con f
oop ing
Ġaccompl ice
Ġmort ified
ĠLe on
Ġcontrad icts
Ġfiction al
ĠGu jar
Ġwid ower
ĠPro ject
Ġtank s
Ġgig gling
Ġstir ring
uz zy
Ġsympt om
Ġexceed ing
Ġinstinct ively
Ġphenomen a
ĠAnge la
ĠStar bucks
Ġgest ures
ĠMic rosoft
Ġlegend ary
ÃŃ a
Ġboun ced
Ġrew rote
ĠSup reme
Ġhal ves
Ġaccommod ation
Ġom nip
Ġmour n
Ġbla zing
Ġunpre pared
Ġwax ed
Ġconsist ently
Ġcav ity
Ġadvis able
bre aking
Ġroo ft
cr aper
Ġtab oo
Ital ians
Ġdisin tegr
ipp i
Ġintoler ance
Ġshrink ing
Ġuntr ue
Ign orance
Ġsniff ed
Ġarchae ologist
Ġprun ing
Ġstereoty pes
Ġmuff ins
Adm ission
Ġwip ing
Ġwip ers
Ġove rest
Ġlin en
Ġreef s
Ġwal nuts
ĠSic ily
ĠGold en
ĠGalile o
Ġalleged ly
ĠCP R
Ġskys craper
Ġmassac re
ĠOtt oman
Ġunpl ugged
Ġyo gh
Ġmane u
Ġpaink illers
ĠMalays ia
Ġmesmer ized
Ġencycloped ia
Ġschizophren ic
Ġseiz ure
ĠâĤ ¬
Ġgau ge
Ġethn ically
Ġhaw k
Ġinadequ ate
Ġworsh ipped
Ġautobi ography
Ġhorizont al
Ġmultipl ied
agasc ar
opor osis
Ġrins ed
Ġunans wered
Ġworkah olic
Ġteap ot
Ġupbr inging
Ġnect ar
2 5
3 5
B aby
C orn
D a
D eep
D ifferent
E h
F ast
J oin
M s
M u
O pp
P ur
P ers
R ad
R ac
S wed
S olar
S earch
T ax
W ipe
Y ears
b in
b arrow
c omp
d ate
f iction
g rowing
i ot
j uku
l ide
l ishing
n et
o ji
p ool
t ry
t ree
t aught
w re
w itted
w alking
z bek
Ġ #
Ġt ying
Ġt uition
Ġa unts
Ġs ard
Ġs ire
re ast
Ġto il
Ġd ing
on ts
Ġb od
Ġb ough
Ġb usted
Ġb ores
Ġm ing
Ġm ince
Ġm ama
ing ale
an ese
en in
Ġl ays
Ġl ured
Ġl oner
it ative
ll ers
Ġp onder
as aki
Ġg ing
Ġg ears
Ġn ib
Ġan ne
id ences
Ġha iled
Ġin ability
Ġin consider
Ġin acc
ay ers
ot ine
ĠI do
im ps
am ental
Ġre li
Ġst alked
Ġst unt
Ġst alled
ri fied
ly ph
ad der
ac on
Ġsa ith
ir cle
Ġsh ivered
if a
op ened
Ġr umbling
Ġte em
Ġte aring
ĠA D
ĠA merind
Ġpl ow
Ġpl acing
Ġsp ake
Ġsp erm
Ġsp ouses
Ġex ert
Ġex oplan
Ġex asper
Ġun gr
Ġun soci
Ġun related
ĠB aker
ĠB alt
ong s
qu it
ol ver
ol ks
fe eding
ack ers
la ught
Ġint ens
Ġlo ft
Ġlo llip
ĠS ay
ĠS emitic
ĠL ou
ĠL inux
Ġwhen ce
ĠJ ove
Ġcl ing
ber y
Ġpe g
ĠM aur
ĠM odern
ĠM unich
Ġco y
Ġoff shore
ine ering
ĠC om
ĠFrench man
Ġad am
Ġcomp ly
Ġcomp uls
ĠE ph
ĠE cuador
iz able
em pl
Ġdis d
Ġsc our
Ġunder way
Ġbl oke
Ġfl aming
Ġdown right
Ġsw elling
ĠR ami
ĠT ol
iss ippi
Ġhand ball
Ġtom cat
Ġrem inis
Ġpers ist
Ġsupp ressed
Ġsur pl
ĠP a
ĠP okÃ©mon
Ġmar gin
te ch
Ġplan k
Ġsha dy
ĠO pen
ĠN ight
ĠN ile
ĠN ik
ĠN apoleon
Ġcount enance
iv ores
Ġcr iter
Ġcle arer
ix on
ix ed
be e
Ġsn oo
ĠD av
Ġrel ativity
ĠH ak
Ġsl os
Ġsl ump
Ġsl opes
Ġrain fall
Ġhigh ways
Ġpain fully
Ġcold est
Ġret reated
ork s
Ġsto at
olog ne
cept ible
Ġtrans c
Ġass imil
Ġcry pt
Ġconc ussion
ross ed
Ġsun s
Ġind oor
Ġinter fering
Be at
Ġaftern oons
int o
Ġexam ining
Ġexam inations
lim ited
Ġter ra
cess or
aster s
Ġcut er
Ġill usions
Ġhosp itable
Ġca ves
rit ious
Ġcur ves
eb ted
Ġcolle ges
Ġflo ats
Ġelect rons
Ġborrow s
Ġpull s
Ġmis placed
Ġtax p
Ġsmell y
Ġste er
Ġproud est
Ġextre mes
Ġdevelop ers
ik h
Was hing
Ġimpro ves
Ġshop lifting
Ġescap es
Ġshut ters
Ġmaj ors
Ġwash room
ĠAf ro
Ġview point
Ġstraight en
Ġpress ured
ising ly
Ġsight seeing
Ġsweet er
Ġcustom ary
Ġcorn ered
Ġer osion
Ġcompet ed
Ġweak est
ov ies
ov ah
Ġfif teenth
Ġround ed
Mar io
cha l
Ġvict orious
Ġdel iri
Ġmir rors
urs ed
Ġsched ules
Ġrev ived
Ġamazing ly
amm on
Ġban ished
Ġver anda
ograph ical
Ġoper ates
Ġbutton ed
Ġcred ible
Ġ8 00
Ġcommunic ated
co al
amb od
Ġsurr ounds
Ġcarp ets
Ġdia gon
Ġdia pers
Ġ199 6
Ġcand ies
cher y
Ġdisp osed
Ġdisp utes
Ġcivil ian
Ġdent ists
Ġaccess ories
Ġintention al
Ġaccording ly
Ġport ray
Ġaggress ion
App le
ades h
Ġcro iss
rav ity
Ġweigh ing
anc ies
Ġvers atile
Ġcoast s
Ġgrave yard
Ġstrang est
ĠKy ushu
Ġsen seless
Ġpand as
Ġsail boat
Des cribe
Say ing
ĠAm sterdam
Ġcolon ize
Ġcart on
Ġdiss olved
off s
Ġspect acle
aid a
Ġgrav y
Work ers
Ġstew ard
Ġsolid arity
Ġconqu est
Ġconstit ute
ĠBar ack
Ġec ological
Ġult raviolet
Car ry
Car los
Ġwitch craft
ĠNet flix
Ġharsh ly
ĠLib rary
Ġrandom ly
Ġhousehold s
ĠColumb ia
Ġbun ny
ĠHind us
Ġphenomen al
Ġcorrespond ing
Ġflav our
Ġbom bing
ĠNA TO
Ġunderw ent
Ġdispos able
low ers
Ġdisob eyed
ĠBen jamin
Ġovert ake
Rel ations
Ġoutbreak s
Ġpy jamas
Ġemphas ized
Ac cept
Ġinconven ient
Israel i
Ġcasual ties
Ġbla ze
Sleep ing
Ġdestro ys
Ġexperim ental
Ġdrag ons
Ġassass inated
Ġcav iar
Ġadvis or
Ġinexp lic
Ġdefect ive
Ġtranspa rency
Ġmoist ure
atr ach
Ġblackmail ing
Ġcatast rophic
Ġspan ked
ĠBul garia
Ġdup licate
Ġrebell ious
ĠNep al
ĠHarr ison
Ġdazz ling
Ġcamps ite
Po etry
ĠSerb ian
ĠGa elic
Div ide
eh ovah
Ġaudi ences
Ġcrossw ord
Ġincor por
vironment al
Sat urn
Ġloun ge
ĠCroat ian
Squ irrels
Ġagg rav
Ġadorn ed
Ġcaterpill ar
Breat he
Ġtant rum
ĠFij ian
Ġamm unition
Ġkay aking
ĠAE ne
Ġlegion naires
Ġsemin ar
ĠOkin awa
tem pered
Ġoste oporosis
Ġcoco a
ĠHit ler
Ġdisillusion ed
Ġconsecut ive
ĠGene va
Ġinconsider ate
Ġunsoci able
Ġsurpl us
B as
B read
B ears
E C
E R
F ail
I T
I r
J une
J ealous
L ack
L ord
L ift
L ingu
P A
P le
P oss
R om
S ch
T V
W olves
Y oko
a que
c ooked
h ire
h rop
i os
i ger
k ara
m ong
o a
p op
p ants
r r
s ister
Ã «
á ¹
Ġt ilted
he it
he imer
in f
in ting
in burgh
Ġs han
ha ge
Ġto ken
Ġd ab
Ġb ade
er red
Ġm im
Ġm ites
ed ed
Ġc rest
Ġc ubs
Ġf i
Ġf end
Ġf als
Ġf uzzy
Ġp ing
Ġp ard
Ġp osed
Ġp aged
Ġp agan
as i
Ġg ur
Ġg ren
Ġo ars
Ġh ust
Ġin ward
Ġbe ck
at ri
ot ent
al uable
Ġre inc
Ġst acked
Ġme owing
ri ke
ri um
Ġli zards
st ro
ad d
He aths
se lling
se ller
ro x
ink i
ur ated
Ġse ash
Ġlike able
Ġsu g
Ġsu l
Ġsu ite
ĠA chilles
Ġal gae
Ġpl ump
Ġwill power
Ġle ve
ak ura
Ġsp ook
Ġsp ree
Ġde ple
ul sion
Ġex iled
ĠB on
ĠB aby
Ġup stream
os se
os lav
qu er
ol as
ol unt
Ġpro s
Ġcom bed
Do zens
Ġint ently
um my
ĠS ocrates
ĠL ong
ĠL ev
ĠL GBT
ĠF eder
Ġar ray
ud ence
ĠJ on
Ġcl og
Ġch lor
Ġqu iver
Ġpe ac
ĠM orm
Ġro cked
Ġbu rial
ase ball
Ġexp end
Ġcar go
ĠC art
ĠC orn
Ġwr inkled
Ġlot ion
Ġpre acher
Ġnew est
Ġdis sect
Ġdr ap
Ġsc ur
Ġbl ur
Ġbl asp
ount ry
ĠR ab
ĠR eal
iss ive
ang o
ang led
og o
Ġmar bles
Ġper il
In v
In side
Ġsha ft
ĠO scar
Ġteac up
ĠN H
Ġfo es
Ġhat chet
Ġcr uc
Ġinv olunt
Ġfr iction
Ġsk id
be zz
be cca
ĠD ragon
Ġlist s
pe ople
ĠH imal
erm at
Ġsl ain
Ġsl umped
Ġsl iding
Ġob esity
ner gy
Ġcons ens
Ġadm ires
Ġinc ent
ĠW ord
old ing
cept ions
Ġquestion naire
Ġele ctoral
oud s
Ġdep ended
St ill
St ars
not hing
Ġind ifference
Ġind ebted
Ġinter action
Ġinter vals
Ġcor als
Be hold
Be hind
Ġran ger
umb ai
Ġfavor ites
Ġdist orted
ĠGod d
Ġsal vation
Ġclot hed
Ġcol onel
ne ck
ield ing
ĠCan al
ĠY ennayer
Ġperm its
Ġopp ressive
uc ch
Ġprot otype
Ġcur ved
ĠV lad
To gether
Ġmot to
Ġhon king
Ġpract ised
Ġpract ition
Ġrid ge
Ġice berg
Ġmis car
Ġpublic ation
Ġpictures que
Ġmain land
Ġdevelop er
ony ms
Ġz ones
Ġ3 9
Ġign ition
Ġequ ations
Ġsqu id
Ġ5 5
Ġproject ed
Ġsucceed ing
Ġtreat ments
Ġrob ust
Ġobs er
Ġstar ry
Ġthreat ens
Ġintern ationally
Ġrepl acing
Ġfla wed
ov al
Ġattack ers
Ġmention ing
Ġfle eting
Ġstick er
Ġunf ounded
Ġradio active
Ġwild fire
amm ar
Ġtyp ed
Ġver te
ĠQuran ic
Ġcheese bur
Ġpet roleum
Ġord eal
Ġspl ash
Ġbas in
Ġemer ge
Ġ18 9
Ġseason al
Ġinvestig ators
Ġrecommend ations
Ġshout s
kn ife
ili ary
Ġ199 5
Ġdeli vers
Ġgrass ho
Ġglob ally
Ġcapt ivity
Wait er
Ġfoolish ness
Ġelev ated
Ġpor ridge
Ġchat ter
Ġbud s
Ġinterview s
Ġridic ule
Ġgreet ings
Ġchest nuts
Ġdy es
Ġreve als
Ġknock s
Ġthri ving
Ġlif ts
ĠRoman ia
Ġoblig ations
Ġsteps ister
Ġcreep ing
Ġcher ished
Ġmechan ism
ĠSy rian
Ġsne aking
Ġdism ant
wh ich
Ġmerc ury
Ġlength s
Ġmemor able
Ġmeasure ments
Ġbab e
Ġbab bling
Ġintim acy
Ġder iv
ĠCar lsen
Ġnut ritious
Cle ar
Ġtarget ed
Ġmal aria
itan ia
Ġsed uce
Ġfunction al
Ġgall ons
Ġsan ctions
Ġprofession als
Ġdistrib ute
Br ush
Ġpartners hip
ĠTe a
ogy n
Ġplot ting
Ġoverd osed
Ġbol ts
Ġpant ing
Ġgrace fully
Ġaspir ing
Ġparan ormal
Ġdrift ing
Ġleak s
Ġowners hip
Ġlocks mith
Ġovert aken
Ġprivile ged
Ġexplo ited
Ġom itted
Ġbisc uit
Ġerup tion
Ġacceler ate
Ġdefect s
Ġaer opl
Ġ193 9
Ġbrow sing
Through out
Ġstere o
Ġinvolve ment
Ġrav ine
Ġcompens ate
Det ective
Ġhem isphere
Ġinterven ed
Ġlod ge
Ġsovereign ty
Ġaven ue
Ġdum plings
Ġindul ge
Ġnavig ate
Ġvolunt ary
Ign ore
Ġgrie ving
Ġcowork er
Ġremodel ed
Ġasp ire
Ġunav ailable
Ġmold y
Ġwaff le
hol m
Ġawaken ed
ĠAlban ia
Ġfragr ant
Ġfragr ance
Ġlumber jack
Ġweaken ed
Ġbind ing
Tour ism
Ġcompon ents
Portug al
Sec urity
Ġrevel ation
Ġreprod uce
Abs olutely
Ġcultiv ate
Ġreconc ile
Ġdoorm at
Ġcarc ass
hist oric
Ġoutd ated
Ġsentim ental
Ġorient ation
Ġmarve ll
Ġcommod ity
Ġerad icate
Ag riculture
Regard less
Yid ir
Ġanat omy
Ġarbit rary
Ġshun ned
Ġcrumb s
Christian ity
Ġtodd ler
Ġshrew d
Ġhect ares
Ġprotagon ist
Ġprodig y
Ġunbutton ed
Ġculpr it
Ġsubmer ged
Ġplast ered
Ġseash ore
A dam
B ear
G ar
H ide
H ail
H ubble
L ib
L ouis
M ac
M erry
M orning
N eptune
O bs
P ope
P riv
R C
R I
R am
T imes
T een
U m
V ictory
Y e
Z e
c ation
c uts
i ated
l est
l ical
m i
o cial
t age
t ray
t aker
z heimer
á ¸
Ġ um
Ġ ub
Ġt at
Ġt art
in n
is en
on avirus
ed ge
Ġc ited
ar ious
Ġf ade
Ġl en
Ġl ure
Ġy anked
it ably
it ivity
or ant
or ities
Ġp all
Ġp ounded
as se
Ġhe ter
Ġhe als
Ġn er
Ġan ore
Ġha zel
Ġin herently
Ġth orn
le a
Ġe lf
im m
ic ial
am er
Ġre imb
Ġst out
Ġst ur
Ġst up
ri l
Ġli ly
Ġli ken
Ġdid st
He ll
ro pe
ut ter
all eys
ami l
ur as
Ġthink er
Ġab ode
Ġab acus
Ġab reast
We alth
ce lain
od iac
Ġj it
ĠA le
ost a
up on
ge ois
Ġsp am
Ġun load
Ġun loaded
Ġout bur
fe ated
Ġfe at
Ġfe aring
Ġv alleys
ice ps
ig o
Ġman g
Ġno ct
ort ing
ĠS ar
ĠL is
ĠF ah
ĠF ox
ĠF ifth
ĠJ un
ĠJ ean
Ġch oke
Ġpe a
Ġen lar
Ġbu ckets
ag ogue
ian o
oun ces
Ġright eous
Ġdr ool
Ġsc um
Ġbl acked
Ġgr asped
Is aac
Ġdown p
Ġdown loading
ĠR ub
ĠR ock
ĠR onald
ĠT imes
au g
Ġimp erson
ĠG ar
ĠG ib
Ġres ented
Ġsupp orter
Ġprob able
Ġsur g
ĠP rague
Ġmar ries
Ġper vert
Ġatt itudes
ff iti
ĠO ut
Ġear phones
ĠN ick
Ġrec har
Ġdoor step
lt ry
Ġmon opoly
pr ot
Ġname ly
Ġsk ips
Ġpass ers
ĠD ick
ĠD ub
Ġsho ots
ĠH ome
ĠH ug
Ġhead set
Ġhead lines
Ġob so
Ġhot dog
ĠU zbek
Ġret arded
Ġinc ess
Ġref ill
Ġref lex
Ġref usal
ib out
Ġap ost
Ġwar riors
Ġinf lex
Ġinf rared
ĠAl bert
Ġev olve
Ġhum med
app e
ily a
Ġinter m
Ġinter fered
Ġfell ows
ash ions
Ġart if
ump led
Ġfull est
ĠSt alin
Ġsub j
Ġcertain ty
Ġter rain
Ġgrand child
Ġarm ies
Ġloc als
ĠGod s
Ġten ant
Ġopp ress
uc ha
ĠFr ont
Ġcatch y
Ġsuccess es
ĠAr k
ĠAr ch
Ġclim bers
Ġcal ves
Ġblue berry
Ġren ts
Ġrespect ively
uri an
Ġprefer able
cri pts
ik u
ex ist
Ġrecogn izes
Ġz ipper
Ġmeat balls
Ġopt ical
Ġrad ius
Ġprov ider
Ġprov oking
rod uction
ĠAnd rom
oph ones
ls inki
Ġvol atile
ĠArab ian
Ġunc overed
Ġfur t
Ġcelebr ations
Ġshy ly
Mar ika
Ġstri pper
par ag
Ġemploy s
Ġble ached
Ġlic ensed
Ġnose y
Ġcirc led
Ġsens ational
Ġrelax ation
Ġund o
Ġidi om
Ġspl itting
Ġbi od
ipe la
kn ow
ĠPark er
Ġ199 2
Ġhero ine
Ġguard ed
Ġgri ev
year s
Ġast ro
Ġchem ist
Ġpor celain
Ġirrit able
Ġirrit ates
Ġrang es
Ġspr inkled
App les
ux iliary
Ġiron ic
Ġaim lessly
Ġpal ms
Ġmer rily
Ġwheel barrow
Ġtrack ing
ĠRome o
Ġconduct ing
Ġfalse hood
Ġsin ister
Ġstret ches
Ġnarrow ly
Ġshr oud
Ġtoler ated
Ġadj our
Ġstream ed
Ġdawn ed
Ġarchitect ural
Ġrely ing
Te xt
Ġdim inished
Ġmyster iously
Bu ying
Ġancest or
Ġancest ral
Ġank les
Ġcoward ly
ĠKen ya
Ġped iatric
Rec ent
ĠHaw king
Ġder anged
Ġnail ed
ĠPro be
Ġanticip ating
Ġmild er
Jud aism
Ġreview ed
Ġbrick layer
Ġnickn amed
Ġcorrespond s
Ġobserv atory
ĠMiss issippi
Hun garian
Ġbold ly
Ġmole cules
Ġtub a
Ġstim ulate
Ġlandl ady
Ġpled ge
Ġgra ffiti
Run ning
Ġmyth ology
Ġcaps ule
Ġassass in
Ġdiscour se
Ġcondem n
Ġundert aking
worm s
Ġvivid ly
Att ention
Ġcompens ated
emor ial
Ġsyll ab
Ġzomb ies
Vis it
Ġwarrant y
Ġquarant ined
Ġmanufacture r
Ġvari ants
Nor way
Ġeyel ashes
Ġescal ator
Ġdys lex
Ġdys function
Ġextrem ist
ahu atl
ĠArmen ia
Ġloos ened
Ġoverfl owing
Ġconstell ations
Ġpyram ids
Ġsurpass ed
Ġuncl og
Ġrhet orical
ĠVictor ia
Ġunsc rew
Fort y
Ġcuss ing
Ġsty lish
Ġmonot on
Ġenchan ted
Ġcripp led
Ġantid ote
Ġluc rative
Ġincons istent
ĠPen insula
Afric a
arb ons
ĠJeff erson
Ġtyr anny
Ġreprimand ed
imens ional
Mexic o
Ġknuck les
Ġsymph ony
Ġnutri ents
Ġfundament ally
Fur ther
Ġostr ich
Ġplumb ing
Ġslog an
Ġinfat uated
Ġmunicip al
Temper atures
Ġperj ury
Ġsnor ke
ĠHist ory
Ġbarbers hop
Ġhypot hetical
Ġcact us
Arrog ant
Ġteasp oon
Ġunins ured
ĠOff ice
Ġmugg y
ĠBud apest
Ġpolygl ot
Ġallev iate
Ġbese ech
ĠGujar ati
Ġyogh urt
ĠAEne as
Ġobso lete
. )
. ?
6 6
A uth
B o
B ur
B oil
D ust
D olph
E D
E ast
E lect
F C
F at
F em
F old
F lowers
G rant
H ur
J an
L uc
L ee
M a
M aster
M att
N et
N ic
P raise
R en
R ic
R ock
S old
S ax
S imp
T ie
T oss
U gh
Z ion
c al
c ity
d al
d eg
e ating
f ound
f amous
h ome
l at
l ene
m ma
m ountable
p aying
p arty
s ur
u cc
w a
w l
w ill
y on
Ġ ounce
he ism
Ġa le
Ġa il
Ġw itches
Ġs cept
Ġd uel
Ġd itched
er ie
Ġm umbled
Ġc um
Ġc ree
Ġc app
ar ius
Ġl ends
or ice
Ġp he
Ġp row
es cri
Ġg ib
Ġn an
Ġha unt
Ġdo ts
at he
at ra
ay ama
ay lor
ĠTom orrow
Ġwas ps
ĠI mp
im ir
ver ages
am orous
Ġst ark
ri ka
ly ss
st y
st ill
st ance
ant e
ad os
Ġsa una
ink ling
Ġnot ices
Ġas parag
Ġshe ars
Ġr ake
Ġr ider
Ġr acked
Ġtr aced
ren heit
end ent
il bert
ge ant
Ġall ergy
Ġun ions
Ġun limited
ĠB rian
ĠB ali
ĠB irth
Ġup hill
ol and
Ġv apor
Ġno b
ĠS T
ĠS ud
ĠS imon
ĠS outheast
ĠL A
ĠF e
ĠF ree
Ġar rows
th on
th ood
Ġcl utch
Ġqu its
Ġqu aint
ĠM ain
ĠM ach
Ġ" ...
Ġro am
Ġco b
ick er
Ġad vers
Ġover th
ĠE r
Ġbr un
Ġpr iced
Ġpr ides
Ġsc an
Ġbl at
Ġmo cked
Ġfl uct
urn s
Ġsw ans
ĠR V
ĠR ich
Ġimp ed
ell er
Ġdec ap
ful ness
Ġfa ulty
Ġres orts
Ġres usc
Ġnight ingale
Can adian
Ġgl ued
Ġgl ances
Ġsur real
ĠP and
ĠP appe
Ġacc ents
ci als
ĠO ver
ĠN ov
ĠK ans
ident ly
Ġcr abs
Ġreal m
Ġrep aint
Ġmet ric
Ġwater y
Ġinv aders
ĠBer n
ĠCh ildren
Ġend ings
Ġem bed
Ġem bezz
Ġsk ied
Ġmin es
Ġac ids
ĠH op
Ġcomm end
Ġcomm ute
Ġsl umber
Ġpres ently
ĠU nder
Ġadm on
ret ion
Ġdisc redit
Ġthen ce
Ġtrans action
Ġcoll oqu
Ġinf ested
Ġtri fle
pl ore
Ġsum o
St upid
Ġind isc
Ġind escri
Ġinter face
Ġinter vention
ric anes
Ġchar coal
Ġheart ily
Ġfire arms
ĠHe lp
Ġins erted
umb les
Ġsub stit
Ġgen ie
Ġfight ers
Ġloc ust
cond uct
Ġcol oss
Ġshort ages
Ġcam per
ne g
Ġ19 30
ract ive
gr ounds
Ġdark ened
Ġhit ched
Ġpar am
rit is
Ġcur ric
eb o
ĠV asilissa
An cient
Ġpost ure
Ġelect rom
Ġtick ing
Ġbody guards
Ġbody build
Ġcond one
Ġgun fire
Ġcheck book
Ġgener ates
Ġcal am
ĠSp ani
Ch uck
Ġcross roads
omm y
ĠWe bb
Ġstep son
Ġstep brother
bo iled
Ġ3 000
aw ai
Ġant if
Ġprin ts
Ġsatis fying
Ġer ased
Un employ
Ġwaste ful
Ġsocial ize
Ġdeb ating
Ġcompet itions
Ġskin ned
Ġjail ed
Ġsoci opaths
Ġblind ness
Mar illa
Ġstri ped
Ġunf org
ĠInd ustrial
Ġplanet ary
Ġble ak
Ġlic orice
Ġjour neys
Ġdel ays
ĠTh ink
Ġmaster mind
Ġpet ting
Ġshoot er
Ġgoal keeper
Ġpsych o
Ġcover age
co ats
Ġinflu en
Ġrum ored
Ġacqu is
Ġimpress ions
Ġdia gram
ĠDan iel
Ġprocess ing
Ġdisp ro
Ġkilomet er
Ġillness es
Ġdom est
Ġparticip ation
Ġcommand ing
Ġliber ties
Ġge ologist
Ġrot ation
Ġmut tered
Ġbitter ness
Ġmyst ical
Ġsen iors
Ġadj oin
ĠAm ish
Ġconsum es
Ġdecl aration
ino is
Ġtort uring
Ġhumor ous
Ġ198 4
Ġautom ated
Ġautom obiles
Ġvacc ination
Ġmemor izing
Ġlecture r
Ġslam ming
Ġmeasure ment
Ġstrate gies
ĠAll ies
Ġped al
Ġped als
Ġchief ly
Ġsteak s
Ġder ive
ĠBr idge
Ġinit ials
Ġwig s
Ġstink ing
Ġsorrow s
Ġanal ys
Ġintense ly
Ġdeliver ing
Ġverb ally
Ġcongrat ulations
ĠSha ll
Ġheal er
ĠCl inton
Ġcoal ition
Ġvent ured
Ġorphan s
Ġsubur ban
Ġinstit ute
Ġinvent ions
Ġexcess ively
Ġmug s
School s
Ġpad dle
Ġcorrespond ence
Ġ194 8
Ġconfront ation
Ġprem ises
ĠJud y
Ġpawn s
Ġinspir ing
grand mother
Ġblink ing
Ġhal al
Ġvamp ires
Ġcert ified
Sa udi
Ġillust rated
Mill ie
Ġmour ned
Ġillum inated
Tw elve
Ġassass ination
Ġshepher ds
ĠRo ger
ĠOh io
Ġaer ial
Ġmigr ants
Ġalter cation
Ġundert ake
Ġsculpt or
Ġlegisl ative
Ġperfection ist
Ġhip ster
ĠFore ign
Ġblackmail ed
Ġobsc ene
Ġfet ched
ĠCr ime
ĠEst her
ĠMont real
Ġcateg ories
Ġtroll ey
Ġpersec ution
Ġcolumn s
Ġaffl icted
Ġadject ive
ĠPan ama
Ġimplic ations
ĠBo az
Ġunle ashed
open ha
Ġkangar oo
Ġparamed ics
Ġloos en
ĠWars aw
Ġsimult aneous
Ġmatern ity
Ass ange
ĠShin juku
Ġcush ion
Ġchir ping
Ġcompon ent
Invest ig
Ġrecre ation
Ġeval uate
Ġscrub bed
ĠMi ami
ĠRh ine
Swe et
Ġtac os
Ġmetropol is
Ġhypnot ized
ĠKazakh stan
Ġtheore tical
Ġcontribut or
Ġard ent
Ġallig ator
Ġskim med
Ġtrib ute
ĠTransl ate
Straw berry
Ko alas
Ġcardi ologist
Ġrevers ed
ansk rit
Ġappar atus
Ġastr ay
Ġpomegran ate
Ġappend ix
Ġoutsm arted
Ġtrill ion
ĠLank a
ĠCreat or
ĠConf ederate
Ġdaw ah
ĠBapt ist
ĠJer sey
Ġassail ant
Ġwreat h
ĠBask erville
ĠSlav ic
Ġscound rel
Ġblizz ard
Rac ism
Ġslos hed
Ġinexplic able
Fail ure
Ġreinc arn
osse um
Ġnoct urn
Ġinflex ible
Ġbiod iversity
Ġmonoton ous
Ġasparag us
Unemploy ment
! '
A pril
A ugust
B urn
B asket
B aseball
C re
C arr
C ustom
C ola
C ommon
D ry
D ance
D eal
D aphnis
F ix
G iving
H ind
L og
L ocal
M as
M ach
N ine
P oll
R S
S um
S afety
T a
T ed
T uare
W et
Y outh
b et
b ank
c ore
c um
c rap
d ef
e le
e ors
g ame
g ence
g osaur
g ammon
h ile
h ran
i ppers
k on
l ors
m at
m us
p ol
r ink
t is
t alk
t rip
w right
z oul
Ġ omen
Ġt haw
he lf
he ment
he zoul
Ġa jar
Ġa uxiliary
in issa
re qu
re cy
Ġb iking
er ting
ar cer
Ġf ences
Ġl ush
or ado
Ġp ou
Ġp orter
as ma
Ġhe d
Ġn ieces
Ġh over
Ġh inges
Ġdo dge
Ġin hib
Ġbe ads
ow ls
Ġe got
Ġk eros
ic kered
am ina
Ġre ver
Ġst ashed
Ġst yl
ly de
Ġne aring
ant is
ent ry
ir ling
ir ley
ch ron
ur p
ur ities
Ġat roc
Ġcan vas
Ġsh ri
Ġsh udder
ust ion
Ġab l
Ġwh oles
if ier
Ġj a
Ġj ab
Ġj ig
Ġus hered
Ġsu ing
Ġr asc
Ġr ookie
Ġr inse
Ġany how
ĠA ut
Ġsp awn
Ġsp arked
ab lo
ul ator
Ġex or
Ġex empl
Ġun ve
Ġun wise
Ġun educated
Ġun paid
Ġout back
Ġcon ception
os m
ie go
ig ma
Ġint ending
ep ler
Ġlo gged
ven ile
ĠS ev
ĠS anskrit
ĠL i
ĠL o
ĠL ad
ĠL ight
ĠL uther
ĠF ates
iri el
ud dle
ĠJ uan
th s
th reat
Ġch imp
ĠM ountain
Ġen forced
Ġen raged
Ġback gammon
Ġhow l
Ġcar avan
ag na
ĠC C
ĠC ambod
Ġam iss
ĠE ach
ĠE ls
ĠE mb
Ġfriend lier
Ġsm ash
Ġdr one
Ġbl and
Ġgr id
oh yd
Ġbook worm
Ġmo an
Ġfl ashes
pt uous
Ġsw ell
ĠR od
ĠT ar
ĠT own
ĠT aj
au x
au ld
Ġimp ost
Ġimp lying
Ġhand ing
Ġhand gun
ĠG ab
ĠG reg
Ġmust ered
Ġrem oval
Ġgl or
Ġgl oss
ĠP ass
Ġpo pping
Ġmar mal
In fl
Ġph osp
Ġph obia
Ġsha b
Every where
ĠN ice
ĠN ahuatl
Ġcha st
Ġfo e
Ġrec l
Ġkind red
Ġvis as
Ġfun gus
Ġrep ulsive
Ġbre wing
aut s
Ġhur led
Ġser pent
ffe l
ĠD ire
ĠD iv
Ġac rob
Ġac acia
Ġsl it
Ġbro lly
Ġpain ters
ĠU BC
Ġadm itting
Ġbir ch
ĠW as
ĠW right
Your s
ject ed
Ġinf o
Ġinf ilt
Ġbooks helf
ĠAl zheimer
Ġev olving
app oro
St ock
ric ts
ash i
Be gin
Ġcap ita
ĠHe ctor
Ġins ert
Ġfast ed
Ġdef en
Ġmed s
Ġill ogical
Ġsal ted
Ġshort com
uff icient
Will iam
Ġdeal ership
Ġeconom ical
Ġluck iest
Ġmem e
Ġapart heid
ĠUn cle
Ġroad side
Ġve hement
Sh oot
Ġelect roc
ĠIn telligence
Ġhon ors
After wards
Dan ger
Ġarrest ing
Ġcal culation
Ne g
Ch ocolate
Ġcorrect ion
Ġir ony
Ġir rig
medi ate
Ġproud ly
ĠNew s
Ġpot tery
Ġclos ure
Ġpos es
Ġbur gers
Ġstep dad
Ġsex ist
Ġdesk top
Ġboyfriend s
izz a
Ġwarm est
Ġcult ured
Thank fully
de ep
de veloped
Ġobject ives
Un cle
Ġsocial ism
Ġpack et
Ġintern ship
Ġaddress ing
Ġid leness
Ġgold fish
Ġbright ness
ĠShe pher
Ġtor rent
Ġtur bul
ĠInd o
ĠZ en
ĠZ ers
Ġdel inqu
Ġdoc umented
Ġneck tie
Ġrock ets
Ġmass aged
epend ence
Ġtyp os
Ġpan cake
Ġthy self
Ġdepart ments
Ġbi ography
Ġglo om
Ġrac ists
Ġamount ed
Ġdish on
Ġ199 3
Ġrele g
iny l
Ġcy l
Ġjoy ful
ĠTur ks
Ġhost el
Ġfoolish ly
Ġdetect or
Ġske let
iff s
Sha re
Ġbetray al
Ġbound ary
Ġpil af
Ġcheer fully
Ġpurcha sing
elt ic
Ġsport ing
Ġunw anted
Ġshr ank
Ġep it
Ġlaws uit
ĠCol osseum
nes ia
Ġcalcul ating
Ġcolon ized
Me eting
Ph ilosophy
Ġexplos ions
ns ic
Ġange red
gen cies
Ġreven ues
Ġforb ids
Ġmerc iful
Ġhaun ts
Ġnegoti ating
Ġtrunk s
Ġvot er
Ġirre vers
Ġ17 7
Germ ans
Sc orp
ĠLe ave
Ġsax ophon
Ġterrit orial
Ġconstit utes
Ġtid ying
Ġtid ied
Ġsuperior ity
Ġgall on
Ġgall op
Ġsyn c
ĠEvery body
Ġmurderer s
Ġmaintain ing
Ġscrap e
Ġwinds urf
Ġadminist rator
Jud y
Ġacid ic
Ġpepper oni
Ġfier y
Ġswall owing
ĠMo ab
ĠMo ham
Ġsuck er
Ġgum s
Ġresemb led
ĠMad agascar
Ġlun ches
Ġtrait ors
Ġconfront ational
Old er
Ġinqu is
ki en
Ġpump kins
Ġaspir ations
Ġinstall ing
Ġvacuum ed
Ġly n
Ġfierce ly
Ġcos mic
Ġexten s
Ġacce pts
Ġash tray
Ġproc laim
Ġawait s
Ġhal ted
Ġexplo itation
Ġconceal ing
Grand pa
Ġestablish ment
ĠRic ardo
Ġgraph ics
Ġemphas ize
Ġvib rant
Ġlabel ed
Ġtum ult
Ġcav al
Ġadvis er
Ġsunb urned
Ġinspect ion
Ġcounsel ing
ĠAlp ha
Ġvig orous
Ġintro vert
Ġdiscont ent
Ġimplement ed
Ġamid st
uv in
Ġbeet les
Ġdeterior ating
ĠSec urity
ĠRob inson
ĠOri ent
Ġwithdraw al
Ġfract ured
Ġresent ment
Ġhandic ap
ĠAng lo
Ġplag iar
Ġbarbar ic
Ġindec isive
ĠArmen ian
Ġgoof ing
ĠCommun ist
Ġmant le
Ġentr usted
iw i
Commun ism
Ġenlight en
ĠBelarus ian
Ġcush ions
Ġstap ler
ĠCast le
Portug uese
Ġrhet oric
Ġrepro ach
Ġprocrast inating
Ġprophe cy
Prot ect
Ġemigr ate
La ura
ĠSad iq
ĠGP S
Ġinfuri ated
Ġindef initely
Ġtweet ed
Ġsiren s
Ġscor ching
Ġtreacher ous
Fif ty
Ġretro spect
ĠStat ue
Ġapric ot
Ġneglig ence
Tan inna
Ġbout ique
ĠNa omi
Ġmonit oring
Ġpomp ous
Ġmans laught
Ġbarg ained
Ġgeopol itical
ugu ay
ĠStock holm
Ġinflamm ation
Ġexh ilar
Ġcarb ohyd
Ġdeceit ful
Ġpamph let
Ġbaw ling
Ġsalv age
Ġvideog ames
Ġobliv ious
Ġresil ient
ĠScr ooge
Ġarom a
Ġcomprom ised
Ġdissu ade
Ġinsom nia
Columb us
Ġtroublem aker
Ġdile mma
Ġinacc urate
Ġteem ing
Ġcompuls ory
Jealous y
Ġpard oned
Ġub iqu
ĠFah renheit
Ġsurg ical
dal ena
deg ree
ĠBirth day
Ġunforg ivable
Ġkeros ene
ĠEmb assy
Ġmarmal ade
Ġshortcom ings
Ġmanslaught er
' ."
2 1
4 7
A M
C e
C ell
D est
E nd
G ent
G reet
G rowing
H ans
H oly
I FA
L o
L ady
M ult
M ira
O rig
P op
P inocchio
S y
S up
T am
Y et
Y ep
b ro
b earing
c is
c am
d iving
f o
f ired
f its
f illed
i y
m atic
m ills
p ie
s i
s qu
v o
v ice
z bo
Ã ¢
Ã º
Ġ +
Ġ Å
Ġ ump
Ġ udder
in u
in x
in av
Ġto nes
Ġd ucked
Ġd arts
on ly
Ġb red
er am
er ies
Ġm it
Ġm are
Ġm ache
Ġc ic
Ġc iv
Ġc rowned
Ġf ag
Ġf ount
Ġf ift
or iented
Ġp ious
Ġp als
Ġp aced
Ġn igh
Ġn ipp
Ġh oo
Ġin efficient
Ġin aug
Ġbe anie
at um
at hed
Ġof t
Ġe ll
Ġe ve
Ġe ch
Ġk ennel
al cohol
Ġre feren
Ġst akes
Ġst ating
Ġst ings
Ġst amina
Ġme ll
Ġme ow
ri x
st art
ac erb
He at
oo ch
un dered
ut tle
Ġnot ep
ur st
Ġher ring
Ġcan als
Ġse mic
Ġse gment
ter ial
op a
Ġj ets
ĠA C
il is
Ġal c
Ġpl ough
Ġpl iers
Ġpl aster
Ġsp ac
Ġsp ears
Ġall iance
Ġde gr
Ġex acerb
Ġun condition
ia ge
ĠB ot
ĠB ring
ĠB owl
est ab
os ov
and inav
ist ically
ate ment
ol utions
ess ions
Ġfe igned
Ġpro active
ry er
Ġbut ts
ig ation
Ġint ensity
ĠS ilya
ĠL ar
ĠL and
ĠF und
Ġar c
ud s
ĠJ ill
ĠJ ehovah
th odox
ĠM s
ĠM ats
omet ric
ass ed
Ġro gue
Ġco ffe
Ġcar riers
ag les
Ġri ots
ĠC le
ĠC oca
oy ant
Ġad ren
Ġad versity
Ġad verse
Ġim itation
Ġpre text
ĠAustral ians
ĠE thiopia
Ġbr ides
Ġbr uised
Ġbr imming
Ġday time
Ġdis abilities
Ġbl ed
Ġbl adder
Ġgr otes
Ġaw hile
Ġhar ness
Ġdown fall
Ġsw erved
Ġsw elled
ĠT ed
ĠT al
ile t
ark s
Ġapp alled
Ġcare ers
Ġcare taker
Ġeven ly
Ġfa wn
Ġfa iries
Ġres ides
Ġsur fer
ĠP ower
Ġfin icky
per ial
ath om
Ġpol o
Ġdes igning
Ġlate x
ub an
Ġkind a
Ġvis ions
lt on
Ġinv oice
Ġinv aluable
Ġfr atern
Ġem oji
Ġsk ins
Ġsn itch
Ġsn orted
ĠD ead
ĠD uke
ĠD efense
ĠH appy
ĠH aiti
Ġbed ridden
Ġsl ashed
Ġpay day
ner y
ĠIt o
Ġbrother hood
Ġadv ancing
Ġent ity
Ġent ries
ĠW atch
Ġsus ceptible
oub t
ual ity
Ġnum er
As ian
Ġhum p
br ushes
Ġsun flower
ĠHe lsinki
Ġdoub ting
Ġstory tell
Ġgrow led
Ġdef iant
Ġdef ault
lim ate
Ġhor rend
Ġpop s
Ġbirth place
Ġcol oured
.. ..
port ed
Ġmem es
Ġtem pered
Ġclothes line
Ġcur ses
eb us
Ġprep osition
Ġfish y
atur ally
Ġcup cake
Ġdangerous ly
Ġmod ifications
Ġblue berries
Ġmis pron
Ġboss es
Ch icken
Ġbread th
Ġste gosaur
Ġegg plant
Ġclaim ing
Ġblood s
Ġpos h
form ing
Ġstep daughter
Ġviol a
Ġwinter s
Ġval ve
Ġprov isions
eg ro
Ġwarm s
Ġtot aled
Ġcult urally
Ġsusp ension
Ġnotice able
Ġrob es
Ġrob bing
gn osis
Ex pect
Ex cess
Ġorgan izing
Ġlim ous
Ġincl ination
Ġ4 6
ĠMar cus
Put ting
ĠPar aguay
Ġprev ails
Ġfur s
Ġstri ving
Ġstri ps
Ġstick ler
Ġrecomm ends
Ġcrit ically
Ġdescri bing
Ġperform s
Ġcirc ular
Ġremind ing
Ġund es
By e
Ġhall s
Ġconver ts
Ġroof s
Le aving
Ġamb ush
Ġcig ars
Ġoccur ring
Ġinvestig ations
oman iac
Ġilleg ible
Ġlog ograms
Ġsli pping
Ġadvantage ous
Ġcapt iv
Ġast ounded
the ning
Sha me
Ġbattle field
Ġtend encies
Ġliber ated
ox es
udd led
Ġrail ing
Ġsin ograms
Ġconsequ ently
Ġdecor ation
Ġresist ant
Ġodd ly
ĠCol orado
Ġpunct ured
Ġexec ut
ĠOr le
Ġexplos ive
Ġlimit less
Ġlingu ists
Ġphotograph ic
Ġbrand s
Ġbrand ed
Ġfest ive
Te a
Ġnegative ly
Pro gress
Ġforb ade
Ġ11 0
Ġscientific ally
Ġnons m
Che er
New sp
ĠTues days
Ġ197 1
Ġhi ked
Ġclar ity
Ġeth ics
Ġgaz ebo
ebr as
Ġscen ic
Ġexperiment ing
Ind ones
Ġmanufact ures
Ġrepresent ation
Ġunp acked
Ġplat onic
ĠPl an
Ġment ality
Ġrat tle
Ġcontrad iction
ĠBr ussels
Ġcutting s
keep ing
Ġcomplim ented
Ġdispl ays
ĠCath olics
Ġbullet proof
Im ogen
Ġgamb led
Ġexhib its
Ġang rier
Ġec ology
Fr uit
Ġchap el
Car ol
Ġcommer ce
ĠDad dy
ĠSha w
Ġhelicop ters
Ġdilig ently
ĠCl assical
Ġpit ied
Ġmodest y
Ġexplore rs
Ġouts iders
Ġburgl ary
Ġdepos its
Ġanaly st
ĠTunis ian
Ġsidewalk s
Ġinqu ire
ĠTe resa
Ġoverd ue
Ġjudgment al
Ġwrest le
ĠJul ius
Ġbum per
Ġsew age
Ġtub es
Ġgest ured
Ġthread s
Ġunin v
Ġproc laimed
Bad is
Ġknight s
Ġstim ulation
Ġtact ical
ĠNe o
Ġtraum atic
Ġreass uring
Ġplum met
Ġnause a
Ġtut oring
Ġbast ards
Ġpatri otic
Ġrein forced
Ġtriump hant
Ġextr ad
Ġrestroom s
Ġattrib ute
Ġflee ing
Ġnav al
Ġextingu ish
Ġninet ies
Ġdu et
Ġdu ffel
Ġmigr ate
ĠCat alan
Ġjaw s
Ġratt les
Ġvig or
Ġvig ilant
ĠCap e
Ġimmense ly
Ġdischar ge
Ġpineapp les
ĠEuro vision
Ġrag s
Ġquarre led
atr ick
Ġpreced ent
Sun day
Rome o
Ġtroll s
Ġaven ge
Ġantis em
Ġantis ocial
Ġcycl ist
Ġsketch y
Ġinsuff erable
Ġlam bs
Ġmini ature
Ġgymn astics
Ġcopyright ed
Ġdescend ants
Ġsparrow s
rag ons
Ġmango es
Ġentreprene urs
ĠComp any
Ġunim portant
Win ning
Tour ists
Ġvel vet
Ġvel ocity
Ġrainforest s
ES CO
Sn akes
Ġbraid ed
Ġinsol ent
Ġdiscl ose
Ġkneel ing
Ġrecip roc
Ġconsp icuous
Ġunatt ended
ĠLab an
Ġunderm ine
Alban ians
Ġcosm os
Ter ror
mann ered
ĠSor bian
Ġantiqu ity
Ġunpro fessional
Ġlull aby
Ġunic orn
Ġdiscipl ined
Ġparach ute
Ġavoc ado
Ġsummar ize
Ġhibern ate
Que en
Ġunde feated
Ġimmun ity
Ġmigrain e
Ġabbre v
Ġorch ids
ĠMine craft
ĠGir l
Ġblacks mith
Ġbarric aded
Ġhygi ene
Ġceremon ies
slee ved
ĠIll inois
Ġamph ib
ĠPT SD
Ġgrizz ly
Ġdemean or
Wha les
Ġsecl uded
Ġrais ins
ĠSend ai
Ġrooft op
lyph s
Ġungr ateful
Ġdisd ain
asi atic
ĠBaby lon
ĠFeder ation
ucch ini
Ġmarvell ous
á¸ ¥
Dolph ins
Ġcurric ulum
Ġelectrom agnetic
Ġnocturn al
crap ers
threat ening
Ġshab by
Scorp ions
zbo llah
Ġmache te
osov o
Ġgrotes que
A side
A br
B abies
C her
C ond
C oming
C opy
D ress
E conomic
F aith
I celand
J ac
J iro
M ice
M ouloud
O x
O uzou
P en
P rior
R ich
S ame
S ounds
S herlock
S asha
S uper
T ennis
T aiwan
W oe
d ep
d um
d imensional
e ers
e lected
f ox
f ifth
j e
m ics
n ote
p its
r ones
s er
s an
t ake
w ritten
Ġ ig
Ġt rench
he ries
Ġa u
Ġa ug
in ally
Ġw ets
Ġw arden
Ġw iper
Ġs ill
ou ghed
ou ching
ou fla
ha lf
Ġd agger
Ġd ermat
Ġb ib
Ġm ending
hat tan
Ġc auld
Ġc eram
an us
Ġf ished
Ġf usion
Ġf ading
Ġl ace
Ġl ub
Ġl ining
Ġy arn
it ter
ll ie
or r
Ġp iles
as a
as ms
Ġg our
Ġg agged
Ġn ets
Ġn anny
Ġha iku
at ha
ot er
ot to
Ġwas her
Ġwas tes
et tes
et ta
Ġe erie
ĠI van
ic it
Ġre app
Ġre read
Ġre born
Ġre open
Ġst ench
Ġst ooped
ri als
Ġfor s
Ġli b
ac as
se cond
ion a
ion ette
Ġdon keys
ur bed
ust worthy
if ina
od s
Ġr im
ĠA unt
ĠA stron
ĠA zer
Ġpl uck
han ts
Ġsp a
Ġsp ies
Ġsp anking
Ġde vious
Ġde bit
ul as
Ġout lived
ĠB ach
ĠB rexit
est rade
Ġup scale
Ġcon ject
Ġcon verse
os cope
and o
and ered
ess ential
Ġpro l
ry pt
Wh ichever
Ġv inyl
Ġwon t
Ġthere by
ide red
Ġlo ot
ĠS ep
ĠS ikh
ĠS apporo
ĠL ia
iri us
Ġar id
ap les
th ouse
Ġcl er
Ġcl ash
Ġaf lo
ĠM es
ĠM ove
ĠM arket
ĠM umbai
Ġen ric
uch i
itt ered
Ġspe ck
Ġro ds
Ġco aching
Ġbu gged
Ġexp on
ĠC ass
ĠC any
ĠC eres
Ġwr inkles
Ġpre ferences
Ġover ste
Ġtake off
Ġdis par
Ġdis rupted
Ġcall ig
Ġsm ug
Ġsch oo
Ġmo pping
Ġchild birth
Ġsw arm
ĠR a
ĠR ead
ĠT echn
ang ular
Ġgu ill
Ġlife less
Ġimp over
enn ess
ile o
Ġhand made
ĠG ate
ĠG ame
ĠG ables
ĠG aul
Ġdec ree
Ġrem ed
Ġcare free
Ġop ine
Ġpers ists
ĠP lain
ĠP oly
Ġpo x
Ġfin ite
Ġunderst atement
Ġper se
In formation
In telligence
Ġfound ing
Ġsha wl
Ġear pl
Ġear ring
Ġche ers
Ġdes olate
Ġrec ur
Ġrec ital
Ġrec ru
iv ism
Ġcr umpled
Ġmor ph
Ġfun erals
Ġmet allic
Ġmon str
Ġmon opol
Ġwrong ly
pr us
pr iced
Ġmat ured
oc ious
Ġbig ot
Ġend urance
Ġwind mills
ĠD ark
Ġclass y
Ġrel ocated
ĠH on
ĠH ad
Ġrain water
als a
Ġforg ives
Ġpres chool
Ġret rie
Ġtrain ers
Ġthir teenth
Ġinc arcer
ĠW inter
Ġdisc ord
Ġlight ed
Ġtrans mit
Ġdin er
Ġbreak up
Ġbreak through
Ġinf in
Ġhurt ful
Ġtri als
Ġair mail
br ance
Ġconv ent
Ġclean ers
Ġcor rel
Ġred uces
ĠSt one
Ġdef y
Ġdist rust
Ġsign aled
Ġcam oufla
port ation
Ġpast ures
Ġfix es
Ġmem o
ax y
io v
Ġpost age
ĠIn u
For mer
Ġinst ability
Ġtea house
Ġsuper b
Al as
Ġsuccess ion
Ġce ases
Ġarrest s
Ġlie utenant
Ġsil enced
Ġsad dened
Ġed it
Ġeng ulf
Ġtast eless
Ġbill i
Ġcre aked
Ġball er
Ġsea weed
Ġsle w
Ġsmart phones
Ġviol ate
Ġemb arked
Ġspecial ized
Ġspecial ists
Ġbelong ing
Ġimpro per
Ġimpro vise
rat ory
iter ature
Ġdev otion
Ġshut s
Ġrad iant
Ġappre hend
Ġregret table
Ġmountain top
Ġthank ing
Ġtemper amental
Ġjud o
lo ving
Ġtraff icking
Ġlim o
Ġ4 7
ĠMar se
ĠAn thony
ĠAn kara
Ġfac il
Ġfarm house
Ġrepl ies
Ġphys i
Ġshy ness
Ġvar iable
Ġstri fe
Keep ing
Ġda ft
Ġprogram med
Ġdeg ener
Ġwealth iest
Ġdel uding
Ġpurpose ly
Ġ200 7
Ġlab ore
ĠAs k
ĠBe aut
Ġoper as
Ġachie ving
wo lf
Ġsurf aces
Ġnational ism
Ġbi as
Ġavail ability
Ġsepar atism
Ġ9 7
cell or
Ġgoal ie
Ġindepend ently
Ġ18 00
Ġpropos ing
Ġfoc uses
Ġstomach s
Ġlog ically
Stay ing
Ġdig estion
Ġfreedom s
Ġvan qu
Ġhost s
Ġhost ess
Wait ing
Ġfinal ized
Ġport f
Ġrab bi
Ġremark ably
Ġfal con
Ġspr ung
Ġnap kins
ĠPh D
ĠPh ysics
Ġut ility
ĠSh into
Re ason
fl u
Ġtap es
ĠSc andinav
Ġfalse ly
Ġrot a
Ġrot ating
Ġspo ilt
Ġarch ipela
Ġgrave l
Ġreported ly
Ġcong ested
Se ems
Ġdistract ion
Ġreput able
Me at
Ġexplos ives
boy s
Ġdism ay
Ġhurried ly
Che ese
Ġdiss olve
Ġna Ã¯
Ġdemonstr ations
ĠOn ce
Ġblo ated
Ah med
Ad vert
Ġ14 0
Ġconvert ible
Ġcraw ls
ĠX ia
Ġduck ling
Ġminister s
Ġfart s
ught y
Sc ott
alt a
Ġrat io
Ġune ven
Ġflour ish
Ġflour ished
Ġalphabet ical
Ġtransform ing
ĠBuddh ists
Gr ad
Ġspoon ful
Ġovers leep
bec ile
Ġsnee zes
Ġsubscri bers
Ġye ast
ĠRe becca
Ġsimpl ified
ĠEd inburgh
Ġprem ium
Ġpee ing
ĠPhilipp ine
Ġinev itably
ĠGal ician
Ġframe work
Ġfolk lore
Ġoutra ge
Ã¡ n
Ġdign ified
Ġawait ed
Ġtherm os
ĠMark ku
ĠNe ither
ĠAlex and
Ġfrost y
Ac ross
ĠWith out
Hist or
Ġvib rate
Ġyawn ed
Ġerup t
Ġrear view
ros se
Ġpatri ot
Ġrein force
Ġextr as
Ġrevol ver
Ġtiss ues
Ġgroom ing
Feel ing
Ġintegr ated
Ġneglect ing
yn t
ĠDj ibout
ĠUN ESCO
Vis itors
van ia
Ġendeav or
Ġbust ling
Ġlod ged
Ġslaught ered
Ġmanufacture rs
Ġremorse ful
Ġuntr ustworthy
Ġasc ertain
Ġvow el
Med ical
hell s
Ġextrem ists
ĠFer r
Ġcontempl ating
Real ity
Ġassess ment
ĠBang l
Ġtoug hest
Ġmurm ured
Ġflaw less
ĠAlban ian
Ġscold ing
Ġuninterest ed
ĠBol she
Ġsor ce
Ġhazard ous
ĠZe us
Ġvic inity
Ġscreens hot
Ġlac rosse
Ġunatt ractive
Ġcompr ised
Ġscrib bled
skin ned
Ġome let
Ġsnowfl akes
ĠCaucas ian
Ġbour geois
ĠShib a
Ġmercen aries
opotam uses
Ġbrisk ly
Ġchari ot
Ġextraterrest rial
ashim oto
Ġsubsequ ently
Han ako
ĠCab inet
Ġboyc ott
ĠUr uguay
Ġbotan ical
Ukrain e
Ġdand el
Ġgran ite
Ġbroch ure
Contin ue
Mur der
Ġconfine ment
Gal ileo
Ġlas agna
Ġinequ ality
ĠAnton io
Ġsuccumb ed
Ġhomogene ous
Ġbash ful
Ġthro ats
Ġsulf ur
ĠCov id
Ġsard ines
Ġsnoo ze
Ġdeliri ous
Ġgren ade
Ġmiscar riage
Ġaeropl ane
Ġstur dy
Auth orities
Sold iers
Ġcoloss al
Ġatroc ities
Ġvehement ly
Ġirrevers ible
Ġsaxophon ist
ĠMoham med
Ġinquis itive
Ġubiqu itous
Ġump ire
ĠOrle ans
Ġextrad ited
ifina gh
Ġaflo at
Ġearpl ugs
Ġrecru ited
3 4
3 9
B ay
C A
C R
C op
C ollect
C aesar
D ouble
E gg
F all
G amb
H alloween
H enry
H awai
J on
K K
K ore
L ojban
L augh
M ess
M arch
N ational
O wing
P uff
P edro
R oses
S em
S uff
S ev
S ports
T unis
T aste
W orry
W arm
X ia
Y og
b est
b aby
b ai
b ola
c ream
c ano
e arth
f al
g am
h ine
j ans
l ot
l ord
p at
p lain
q a
s ounding
s ighted
t al
u ers
u ert
v ity
v ance
w arm
y ll
y aki
z s
Ġ â
Ġ omin
Ġt ensions
in ator
Ġw ad
Ġw ither
Ġw agging
ou gl
Ġd imples
is se
is ans
Ġthe or
Ġb raz
Ġb ickering
er ate
Ġm oo
Ġm oth
Ġc ad
Ġc erv
ar der
an ies
Ġf ern
Ġf erv
Ġf encing
Ġf ashions
Ġl oof
Ġl ashed
Ġl agging
Ġy olks
Ġp end
as ium
Ġg ait
Ġg na
Ġg het
Ġn im
Ġo re
Ġan ci
Ġan onym
Ġh ints
Ġha ughty
Ġdo om
Ġdo pe
Ġbe verages
Ġth res
Ġth ither
ow a
ow ner
us able
ĠI ce
ĠI ng
im eter
Ġk in
ic o
Ġre per
Ġst ump
Ġst ature
Ġwe asel
ri ved
st ellar
Ġne o
ant um
ad ic
ac teria
Ġit ches
ut an
ut ral
Ġat op
Ġsh ud
Ġsh ipped
Ġsh rill
Ġshe ar
Ġab r
Ġab uses
We aring
Ġlike wise
Ġwh ither
ain ing
Ġr ails
Ġr ye
Ġr hin
Ġtr u
ĠA y
ĠA lf
Ġso ak
Ġso aring
Ġpl owing
Ġpl asma
ge y
rom at
Ġsp ur
Ġsp itting
Ġde grad
Ġde ceptive
art a
Ġout line
ĠB av
est hes
est het
Ġby e
os hi
ol ent
ess ica
fe ed
fe it
Ġpro st
Ġpro pped
Ġpro gnosis
Ġv ault
res pected
Ġlo vable
Ġlo fty
ven ge
ĠS her
ĠS ub
ĠF uk
ĠF IFA
Ġar sen
ard v
ard y
ish ly
ud ged
ĠJ osÃ©
Ġcl ipped
Ġcl inging
Ġcl asped
row ded
ĠM ing
ĠM aced
ĠM altese
ĠM emorial
Ġen rich
Ġ" '
ass ium
Ġco ated
Ġco als
Ġoff line
ag s
Ġri pp
Ġri gged
ĠC eltic
ral tar
Ġcomp ounds
Ġpre historic
Ġam ber
Ġover do
Ġover think
Ġover powered
ather ine
ĠE p
Ġbr ack
Ġpr une
em a
Ġcall ous
Ġplay fully
Ġbl asted
act ose
Ġchan del
Ġbook keeper
Ġhar ps
Ġfl ats
ĠR ose
ĠT ree
Ġlife long
Ġimp ract
Ġbuy ers
ult ures
Ġfa ire
Ġop io
Ġres et
Ġpers isted
âĢ ĺ
Ġgl ancing
ĠP ant
ĠP un
ĠP ors
ĠP atrick
Ġpo king
Ġfin es
Ġgir ly
Ġproblem atic
Ġmar row
ci um
?" ,
Ġfound ations
ĠO d
ĠO per
Ġown ing
Ġshow ering
ĠN ak
ĠN ord
Ġcha m
Ġcount ies
ĠK ur
ĠK han
ĠK epler
Ġrec apt
Ġcr ashes
Ġfun nel
Ġel oped
oc entric
Ġser vers
Ġser geant
Ġthr ong
Ġend lessly
Ġmind ing
Ġmind ful
Ġmin isk
ĠD ist
ĠD eep
Ġbo oming
Ġbo omer
Ġrel ent
ĠH en
ĠH ay
Ġsl ung
Ġob edience
we et
Ġpres umed
Ġret ract
vers ion
ĠW itnesses
ret a
Ġdisc ern
Ġdisc ounts
Ġconf ig
Ġlight bul
Ġstand still
Ġdep uty
br and
St rong
Ġexc av
Be have
Ġfire flies
ier ra
Ġins ulated
Ġcour thouse
Ġdet our
ĠSt ud
Ġdef ines
Ġmed als
Ġsim mer
uff le
Ġten or
!" ,
Ġland f
Ġtem pers
Ġple ad
ĠY ellow
Ġdrunk ard
Ġma uled
Ġsever ity
Ġve to
Ġbar b
Ġpost al
Ġfut ile
Ġpen insula
Ġnervous ness
Ġpun ches
Ġheav iest
Ġcre aking
Ġgrad ual
Ġphot oc
Ġball istic
Ġstuff ing
Ġsle igh
Ġbur rit
Ġbur ped
Ġz eal
Ġz odiac
bo ats
Ġprop ri
Ġviol ins
Ġimpro bable
Ġbreat hes
Ġsuff ice
Ġsuff ocated
Ġfat ally
ĠAnd ers
oph obe
Ġant ib
Ġannoy ance
Ġunc ooper
Ġsubject ive
ĠMar co
ĠAn ch
Ġur inate
Ġdirect ors
Ġprev ailed
Ġenc omp
Ġfle as
Ġspec ify
Ġflat ly
Ġflat ter
asc o
Ġimm inent
Ġimm ersed
Ġexha led
Ġunha ppiness
Ġlock ers
Ġaffect ions
Ġrev oked
amm y
Ġtyp ist
Ġver ified
Ġmaster y
Ġdesign ers
Ġcred its
che l
Ġtrad er
Ġ8 5
Ġliter acy
Ġcheap ly
ev ident
Ġprogress ion
Ġoppos ites
Never theless
Ġemer gencies
Ġ18 5
Ġamb ushed
Ġrum ours
Ġmodern ize
Ġrom antically
Ġcomplic ations
Ġfavour able
Ġcy nic
Ġfasc ists
Ġdisp uted
Ġastron omical
Ġthick er
Ġcapt uring
Acc idents
Ġpill ars
Ġchat tering
Ġdistur bs
Ġmel od
Ġmel ons
Ġcommand ment
Ġut il
Ġobe ys
Ġpal p
ĠKore ans
Ġyouth ful
Ġsink s
Re ady
lin er
Ġsouth west
Ġje opard
Ġunw rapped
Ġcommit ments
Ġmission ary
Ġcoast line
Ġfra il
Ġfra gment
Ġded uct
Ġgrave ly
Ġestab lishing
Ġep ile
ĠAb imelech
Ġshad es
Ġqual ify
Se cond
Ġlion ess
Ġdecl aring
Ġbillion aires
Ġcreep ed
Ġhistor ically
ĠOr thodox
Ġrout es
Ġhorn y
Ġarchitect s
Ġenthusi astically
Te aching
ĠThurs days
Russ ians
ĠOs lo
Ind ivid
Ġped ophile
Ġhast ened
Ġsem if
Ġideal ist
Ġharvest ing
ĠRep resent
Ġtag ged
Ġvalid ation
Ġindustrial ization
Gr ammar
Ġsed uct
Ġfunction ing
Ġsav ior
Ġsav annah
Ġfulf illing
Ġrust ling
ĠMan ila
Ġupd ating
Ġcommer cials
ĠCl ar
Or anges
ĠGrand pa
Ġadminist ered
Ġreview ing
Ġdump ing
Ġmodest ly
Ġdread ed
ĠRepublic ans
Ġswall ows
Ġouts ider
spect or
Ġtrait s
Ġinqu iry
ĠGr oup
Ġbache lors
Ġrenov ate
ĠMe cca
ĠGal axy
Ġmoder ately
Stand ing
Ġpoly graph
Ġdye ing
Ġtorto ises
Ġdispos ition
oust on
Ġdesper ation
Ġbullse yes
Ġblink ed
Ġsubm issive
ĠBen g
och i
Ġethnic ity
Exp ress
Ġconstitution al
Ġtherm al
Ġpropag ate
Ġreign ed
Ġfee ble
Ġsmok ers
Ġcate gor
Ġempt iness
Ġattrib utes
Ġpud dle
Ġcolonial ism
Ġtang led
Ġgut ter
Ġtremend ously
Cor por
Art ificial
Ġnorthe ast
ĠCap tain
Ġmillenn ia
Ġgoog le
Ġdisin fect
Ġsnob bish
Ġrav aged
Ġcompens ation
Ġoverwhelming ly
ĠHigh way
Ġbureauc ratic
ĠBa ha
ĠFilip inos
Ġobsc en
Sun light
Ġdum ps
Ġlaz iest
Ġaudition ed
Ġinferior ity
Ġfatig ued
Ev idently
Ġmol ested
Ġnavig ation
Ġenterpr ises
Ġcoord ination
Ġearning s
got ten
Ġstool s
Ġexhaust ion
Ġstereoty pe
Ġconsol ation
ĠSomet hing
Ġrans acked
ĠRes earch
Ġhitchh iker
Ġdun geon
Ġwhir l
Ġmurm ur
Ġhyster ically
Gree k
Ġstut ter
Ġcogn ac
Ġcogn itive
ĠRight s
Ġcatalog ue
Ġsynt hetic
Ġuncontroll able
Ġattach ment
log ist
Ġtramp led
Disc uss
ĠSerb ia
ĠDa esh
Ġprophe ts
Gas oline
Ġrehab il
Ġprosec ution
ĠDel hi
Ġgerm s
ĠKu iper
ĠBra he
Ġsnowboard ing
Ġshuff led
dest ruct
Ġquot ation
Ġmars up
Ġeaves dro
Ġauton omous
Ġdoct rine
ĠChamp ionship
Ġexce ls
Ġacoust ics
Ġtermin ology
Ġprede cessor
Mos quit
Ġcannib al
Ġbould er
Ġinscri ption
Scar cely
Cour age
Ġgenet ically
Ġmisbe ha
Capital ism
Ġpes os
Ġmarginal ized
Ġbage l
ĠTham es
Ġsyring e
ĠAfro asiatic
rox imately
Ġconsens us
Ġpractition er
Ġdownp our
Ġdysfunction al
lyss es
Ġdefen seless
Ġcaval ry
Ġfount ains
Ġreferen dum
Ġbloods hed
Ġlimous ine
Ġabbrev iation
ĠCany on
Ġmonstr ous
ougl as
Ġanci ents
Ġshud dered
Ġdegrad ation
Ġuncooper ative
% ,
6 00
9 2
: âĢĶ
A id
A ristotle
B M
B ern
C ir
C rying
E aster
F ate
F el
F lying
G ather
H yp
I L
J ournal
K at
L O
L ay
L em
M S
M agn
M altese
N uclear
O uch
O per
O ops
O pin
P rop
R iding
S E
S in
S an
S im
S atur
S inging
T ensions
V ir
W anna
b bly
c old
c ountry
d em
e lp
f rom
f itting
h h
h orse
k il
k ids
l oo
m o
m ite
m ile
m otional
n ian
o ebus
p ong
p oin
s ight
t el
u i
v re
v ian
v ador
Ġ Ä
Ġ ib
Ġt ile
Ġt atoeba
Ġt amp
he ve
he at
he llo
Ġa ced
Ġa kin
in ence
Ġw avy
Ġw ilted
Ġw rigg
Ġs ledge
Ġs outhe
Ġs alsa
Ġto pp
Ġto ps
Ġd art
Ġd uration
Ġthe ology
Ġb aza
Ġm ul
Ġm ull
Ġm akers
Ġc uck
Ġc ages
Ġf owls
en gers
Ġl lam
Ġl actose
it ates
or f
or on
or ated
Ġp ushes
Ġp oodle
Ġp aternal
Ġg id
Ġg ast
Ġn udes
Ġn appy
Ġan ew
Ġh inder
Ġh ikers
id ian
id ious
Ġha voc
Ġdo ves
Ġdo ses
Ġin ad
Ġin ning
Ġin herent
ot hered
le en
le hem
le men
ĠI M
ĠI b
ĠI ber
ĠI owa
ver ts
ic ations
am ple
Ġon coming
al ing
Ġre ek
Ġre gg
Ġre vision
Ġre wards
Ġst aged
Ġst itch
Ġst ables
ri ble
ke rel
Ġkn ack
st ress
ac cess
He ad
He brew
ro ck
ro dden
ir ming
ink ed
ome ver
ur ass
Ġse ating
op ian
op ause
op atra
od ge
ĠA dd
ost erous
il ot
up unct
Ġso jour
Ġle aps
Ġsp ew
Ġsp ied
Ġsp ike
Ġsp ooked
ab we
Ġde human
Ġde arest
ul ing
ul atory
Ġun qu
Ġun den
Ġun read
Ġun rolled
Ġout c
ĠB ie
ĠB ron
ĠB uild
ĠB BC
ĠB lessed
Ġcon ned
ol ith
Ġv anish
Ġv aping
ig i
ig aret
ig uous
Ġint ric
ep ress
um a
Ġman ic
Ġman ually
Ġlo gar
ĠS et
ĠS ummer
ĠL ater
ĠL ower
Ġar chery
ap art
ap ist
Ġor nament
ĠJ e
ĠJ erry
th ritis
Ġqu ench
row ning
ĠM ake
ĠM usic
Ġro amed
Ġco bb
Ġco arse
Ġco herent
Ġexp osing
ĠC are
ĠC osta
ĠC limate
ick le
ool s
Ġwr ought
Ġwr ung
[...]
